▁. 136344850
▁, 71790467
▁। 63049342
▁" 34732684
▁है 23606904
▁के 23399352
▁में 16283838
▁? 14637608
▁की 13977865
▁- 13716250
ൽ 12977506
▁छे 12355285
ർ 12346058
▁और 10825910
ੰ 10335381
ੱ 10054341
▁से 9894894
▁) 9756791
▁( 9680838
▁को 9560921
▁एक 9147493
▁पर 8808823
▁ने 8684675
ൾ 8108066
ൻ 7953690
▁कि 7784866
▁' 7716218
▁का 7603541
▁ई 7221624
▁हैं 7130879
▁आ 6444740
▁अने 6224111
▁नहीं 5859055
▁ते 5651558
▁आहे 5339940
▁इस 5305366
▁! 5287837
▁मत्तु 4876039
▁کے 4764201
ेर 4489834
▁लिए 4450926
▁कर 4443146
▁ना 4441095
ৰ 4423107
▁भी 4386508
ः 4127279
▁ऒरु 4093135
▁तो 3934436
▁हो 3771077
▁पण 3664250
▁کی 3576620
च 3565806
▁दी 3557560
▁दे 3555268
▁यह 3517108
▁ही 3516452
▁एबं 3503396
ने 3483003
▁ओ 3433391
▁میں 3418580
द 3410791
▁ए 3405186
▁या 3394872
ना 3374903
▁आणि 3345096
▁मरियु 3333841
▁۔ 3305499
ं 3296637
▁، 3258362
▁ہے 3221528
नी 3196431
क 3060617
▁व 3048883
मां 3037209
▁किया 3005257
ओ 2973138
▁न 2882567
▁अते 2814671
▁करे 2813734
▁माटे 2812099
▁नू 2702355
▁जो 2655368
▁कहा 2638252
ों 2632176
▁इ 2595139
इ 2506920
▁गया 2489090
▁किन्तु 2488535
▁भारत 2476397
गळु 2469438
▁वि 2468786
▁एइ 2430629
▁करते 2390685
▁आर 2348403
▁اور 2342562
▁आमि 2340197
▁ये 2334461
▁करने 2311164
टि 2291659
▁साथ 2273605
ॆ 2184082
ल 2179030
▁ज 2164237
▁था 2140689
▁سے 2104139
▁कोई 2102628
▁क 2087410
▁कारण 2053142
क् 2052769
नि 2048934
न 2022065
स 2016512
▁स 2007067
न् 1993879
▁र 1983651
त 1972800
ता 1972572
वन्नु 1952249
स् 1931455
ड 1929367
लु 1919041
▁मी 1918498
▁साथे 1910254
गळन्नु 1905257
व 1895067
क्क् 1887218
र 1883433
र् 1865166
▁आदरॆ 1835733
▁एकटि 1830973
▁करा 1822776
▁नाही 1820166
म् 1818391
▁मैं 1807707
ट 1804734
▁जन्य 1782185
▁च 1775773
▁पुलिस 1774914
▁अव 1770234
म 1755450
▁बाद 1749836
▁अनेक 1747943
▁کو 1741103
▁अथवा 1731982
नु 1731214
▁आप 1730794
ुं 1727760
▁ऒक 1708355
▁नथी 1696625
ग 1687742
▁रहे 1687125
ो 1684937
▁हय़ 1683741
▁बहुत 1680618
िय 1673356
▁लेकिन 1669763
क्क 1645293
▁रही 1613861
▁सरकार 1607008
▁काम 1603725
▁ऎंदु 1598577
के 1597371
▁समय 1589784
▁गई 1586076
िल्ल 1582338
▁जे 1574613
गा 1567530
▁दा 1563308
▁इदु 1558051
▁द्वारा 1551904
▁2 1539477
▁लई 1536719
▁जा 1534921
▁मऱ्ऱुम् 1532014
लो 1526578
वु 1520633
▁हन 1519259
▁आमार 1519038
त्ति 1514399
त् 1509439
नो 1503223
▁इह 1499878
▁हे 1499605
▁1 1495532
गळ 1492711
▁वी 1492665
ते 1490332
▁; 1488605
▁उन्होंने 1485675
▁वह 1481229
रु 1478649
ु 1477778
▁नि 1472928
▁करी 1461681
▁क्या 1460543
▁کا 1451370
▁रूप 1448637
▁: 1444084
▁परंतु 1436311
▁इदि 1433287
ङ्ङ 1431619
▁प 1419199
▁अन्य 1413503
▁आऩाल् 1408190
ू 1407766
▁दिया 1401687
ार 1400605
ां 1393706
▁ہیں 1392506
▁अ 1378454
▁म 1374773
कु 1365960
ल् 1365155
ालु 1364259
▁सब 1363254
▁अपने 1362383
▁हबे 1358796
टा 1357784
▁देश 1355388
▁ऎ 1354345
▁तार 1354139
▁सि 1348049
िक 1341532
▁پر 1341017
▁दिन 1340705
▁मात्र 1327170
ुक 1320342
▁मीरु 1319250
▁उपयोग 1317333
▁आहेत 1316550
▁सी 1315241
▁नीवु 1312029
ाल 1312001
ब 1305691
ए 1298718
▁तमे 1295907
ॆय 1289123
मा 1288114
े 1279837
▁प्रति 1279235
▁इतु 1277703
रे 1276521
प 1273505
▁इन्त 1268271
▁اس 1267931
चे 1260072
▁10 1259205
▁نے 1253828
▁कुछ 1239634
▁एर 1232727
य 1230928
▁तिनि 1230366
ज 1225846
▁नाल 1220532
▁तक 1216491
▁रहा 1216236
▁कूडा 1214499
▁ता 1214210
▁थी 1208339
् 1205148
▁तों 1202587
माण् 1201396
ण 1198047
▁3 1196968
▁राज्य 1195968
▁वे 1187658
ट् 1186084
▁ल 1184761
ंगा 1183666
▁लो 1178668
▁उ 1173877
▁भारतीय 1173239
▁हम 1171612
▁थेके 1168423
क्कॆ 1167785
ൺ 1162985
▁جی 1157990
▁इसके 1154343
▁कानी 1154030
ले 1152817
दल्लि 1152120
▁आमरा 1151853
▁ऒंदु 1151067
▁ایک 1146497
▁अधिक 1137669
ुलु 1137231
▁5 1134832
▁भाग 1134528
▁/ 1131307
ळ 1129261
वुं 1122215
ुव 1120470
▁गए 1119745
▁अवरु 1119277
िन 1115386
ा 1113156
वा 1109321
▁उत्तर 1104978
▁त 1097963
प् 1096795
थी 1085707
▁दि 1085044
ड् 1083443
को 1081514
▁थे 1080766
▁کہ 1072467
न्नु 1071739
▁यॊक्क 1063714
▁नाऩ् 1063104
वे 1059663
▁चाला 1051589
▁सभी 1049676
▁तबे 1049481
चा 1046706
▁हुए 1045979
ऩ् 1045247
कर 1042002
▁करना 1041941
▁एटि 1041376
ि 1039912
▁ह 1035126
श 1033544
तु 1029118
▁तर 1024930
▁दो 1024161
िर 1017132
▁फिल्म 1014060
▁आपनि 1009205
च्या 1007643
▁हती 1007589
ित 1004561
▁नाम 995622
▁ब 995401
ऱ 995116
ला 993055
▁कम 990980
▁मने 988878
ुल 988828
▁मध्ये 987980
▁प्रधान 984950
▁होता 984573
▁ञा 983582
▁मु 979380
▁बा 976932
▁ऎन्ना 975962
▁4 975919
▁ग 970810
▁कई 966795
ट्ट 964972
▁कार्य 962212
▁मा 960988
▁लोगों 958996
च्च 956709
त्त 950357
▁नानु 949154
ात 948829
वागि 948722
▁ऎल्ला 947228
ची 943907
▁ऐ 942657
ाने 942300
▁उंदि 941804
▁कथा 938003
ऩ 937430
▁इत् 937355
▁आछे 928865
ान्नि 925158
तो 924706
▁विच 919428
रा 918944
वि 909494
गॆ 902884
▁ऎऩ्ऱु 901015
▁होते 897626
प्प 896048
▁मुख्य 892998
▁निङ्ङ 891774
▁आपनार 891729
मे 889975
▁یہ 883546
▁मोदी 883149
▁नी 882264
▁किछु 880937
ॊ 880509
▁नेनु 879656
▁आमादेर 879293
▁हय़ेछे 876443
▁बात 872668
ख 867439
▁निम्म 867020
ाय 866500
▁पहले 866465
▁अतु 865874
▁آپ 864520
▁प्रथम 863258
रि 862420
▁20 859445
िसलु 859330
वर 856180
ाय़ 855755
▁छो 855739
▁रीते 851687
▁करता 850498
▁हा 848387
क्का 847724
▁द 847579
▁बि 845216
ती 843614
ही 837467
▁एटा 835433
माय 834342
▁किसी 830854
▁उस 830454
▁मामले 829208
ङ्कळ् 825100
▁کیا 822180
ानु 820636
िल 817782
▁इन 817707
▁प्रश्न 817198
▁सिंह 816993
▁समय़ 814484
▁वाले 814209
▁نہیں 814204
▁बारे 807539
ान 803875
▁होती 803774
▁जीवन 802219
▁करो 798099
डि 797392
▁घटना 796456
ङ्क 795360
▁अत् 795238
ुम् 793958
िया 789528
▁हर 788471
▁ती 787460
ायि 786536
का 785968
▁शुं 785300
ष 785176
▁मुझे 784991
▁جو 784592
▁सह 783558
क्कु 782854
▁पि 782355
दा 781464
▁नय़ 781183
सि 778213
देर 777210
▁बार 776772
▁तरह 776621
▁सकते 772526
वाद 771859
ियों 771858
▁सकता 770579
ाक 770389
घ 768542
ाम 768420
ै 767702
▁शके 767039
यि 766178
▁छिल 766104
▁प्रदेश 765494
दि 764125
▁लोक 762917
▁ले 762371
ल्ल 761968
▁पल 758052
▁इतर 756941
िक्क 755118
▁नम्म 753819
▁काही 752886
▁करार 752834
िल् 752465
▁नेइ 751478
मैन 745214
च् 744888
िस 743993
न्न 742183
▁मला 739778
दे 739300
▁होय 738673
▁बे 735972
दु 735114
नुं 733999
ंलो 732325
▁होने 730721
▁हतो 730365
▁यदि 728981
▁प्रत्येक 728495
फ 727221
▁दोनों 726858
▁अत 725933
क्कुं 722476
ध 720240
▁प्रमुख 717391
▁पास 717156
▁करवा 716802
▁फिर 716412
▁उनके 715132
▁15 715121
ली 714723
▁6 714280
▁लेदा 712865
▁अपनी 712738
▁विचार 712684
▁पा 712619
▁करि 711993
▁8 705662
ऱ्ऱ 705414
▁कार 703991
डी 703420
▁कोसं 702711
▁चॆय्य 702142
▁चाहिए 701657
▁आपण 701246
▁अदि 698927
िसि 698015
▁12 697886
गळल्लि 697359
▁करन 695897
▁काज 694112
ेऩ् 692970
▁वधु 692815
ाव 692538
▁मे 691775
▁कु 689593
▁हुं 688738
▁हता 688368
▁पारे 688237
▁काय 685688
▁करवामां 683945
्य 683882
▁सबसे 682906
्या 681217
▁हुआ 679597
▁पे 679507
▁آہی 678778
▁अर्थ 676892
▁टीम 676733
▁आरोग्य 676457
▁वेण्टुम् 676295
▁सर्व 675943
▁لئے 675877
▁हूं 674633
▁चिल 674260
▁तादेर 673556
▁घर 673546
▁हय़े 672808
वागिदॆ 672447
▁खुब 671982
▁छ 671468
मायि 671409
ति 670707
▁वर्ष 669613
▁अध्यक्ष 669610
▁नीङ्कळ् 665429
▁होगा 662177
त्तिल् 661793
▁आपणे 660437
च्चु 659985
▁अल्ल 659828
▁इक 659785
▁आवे 659170
▁उह 658404
माक 658190
▁ट 655026
▁ड 653625
▁उन्हें 652979
ाना 652899
▁सामान्य 652610
लि 652357
▁निय़े 651451
▁क्षेत्र 649210
▁आग 649100
▁मन 647778
▁विविध 647481
▁व्यक्ति 647115
ी 645574
ाग 643233
कि 641757
▁काल 639260
▁प्रकार 639173
▁बग्गॆ 639014
▁रोग 638467
▁ 637593
▁करें 637563
▁अवर 637329
▁कोन 637077
▁अति 636849
▁अदु 636690
▁चार 636679
▁जारी 635989
नेर 635675
▁अवर् 629779
ৱ 629772
▁7 628022
▁सङ्गे 627588
िंच 626658
री 623804
▁खान 623404
▁केंद्र 623041
▁ان 622220
▁शामिल 620946
टी 620200
ॆयन्नु 619409
▁अनि 618420
▁आम 618318
▁जी 617798
▁۾ 617534
ार् 617140
▁हुई 615368
िसुव 612169
▁इसे 611798
▁इल्ल 611013
▁चे 610739
▁लिया 610594
▁इत 609618
▁य 608787
▁30 608711
▁नावु 608560
▁मंत्री 608220
▁19 608011
▁बल 606586
▁पूर्व 606427
▁चेय 605165
▁दिल्ली 604787
▁जांच 604654
झ 604344
▁आगे 603819
ाइ 602626
▁स्थान 602467
▁विषय 600904
▁तथा 600377
▁खूब 600012
▁मां 598889
▁नंतर 598557
▁कीता 597386
▁मध्य 595727
▁मो 589058
▁ऐसा 588797
▁उदाहरण 588563
▁کرنے 587731
गळिगॆ 587465
▁श 587173
▁मदद 586856
ओं 586704
मध्ये 586116
▁بھی 585449
▁ऎऩ्ऩ 584734
▁अलग 584416
छि 584373
▁जाता 584037
▁राष्ट्रीय 583504
▁उन्न 582995
टे 582917
▁उन्हां 582559
▁पार्टी 580898
ारा 580182
ास 580132
▁विकास 580002
▁हतुं 579091
▁पाकिस्तान 578403
▁50 577191
▁100 576841
▁पक्षे 576270
▁हु 575833
ाद 575704
बे 575552
क्स 574869
▁नुंडि 573540
▁दौरान 572054
ह 571891
▁तारा 571602
▁ऎल्ल 571346
मि 570816
त्तै 570546
▁रय़ेछे 570091
▁अनुभव 569163
▁अब 568482
▁आवी 566316
िते 566237
▁अयिते 564840
▁उत्तम 564777
▁ऒ 564156
्र 564022
▁तरीके 563496
▁समस्या 563419
▁कल 560399
सी 559411
▁सेइ 558949
▁राज 557687
▁तमारा 555592
▁दक्षिण 554433
ୱ 554315
▁तीन 554023
िकि 553269
ुळ्ळ 553147
▁दूर 553014
ें 552499
माऩ 552113
▁۽ 551231
▁मॆ 551170
▁आपको 548042
▁खिलाफ 546954
▁काफी 546925
▁स्थिति 546141
▁संबंध 545872
▁एकटा 545140
वुम् 544822
▁महिला 542840
▁प्र 541635
▁तेओ 540875
युं 540192
▁आर्थिक 539864
▁केवल 539023
▁इल्लै 538603
मु 538074
▁बदल 537636
▁हागू 536473
▁करेन 536458
ुर 535644
थ 535393
डु 535323
ालनु 535230
▁लोग 534796
▁माड 534592
▁_ 533071
▁उच्च 531923
▁इससे 531494
▁एहा 531434
▁लेदु 531403
▁उपलब्ध 531398
▁हते 530958
से 530428
▁आई 530264
ाल् 530133
▁वार 529533
▁9 529245
▁सहाय 528109
▁जब 528015
▁बीच 527698
▁उंटुंदि 525468
वी 525413
▁एहि 525071
दी 523735
▁श्री 523168
बि 523051
▁पछी 522686
भाबे 522365
▁आज 522087
▁परे 521838
▁18 521494
प्पु 520249
▁थाय 519882
डे 519850
▁इसमें 519814
▁कोनो 519247
▁शुरू 517646
▁इन्त्य 517606
▁कांग्रेस 516384
▁नट 515423
▁प्रेम 513593
िं 513086
▁यावुदे 512965
▁ہو 512230
ानिकि 510972
▁کر 510902
▁जाने 510698
ानी 510452
▁गिआ 510274
▁दर्ज 510067
▁मत 510044
▁नल्ल 509801
▁पार 509661
विल्लै 509528
डा 509277
▁बले 508963
▁याय़ 508658
▁इरु 508444
नॆ 508108
▁फोन 506513
▁करुन 505896
▁चित्र 505772
▁ऎन्न 504736
▁मेरे 504136
▁भाजपा 503573
▁वीडियो 503396
▁राष्ट्र 503116
छे 499917
जी 499899
भ 499404
▁निर्माण 499068
▁कादु 498663
▁उप 498525
▁14 498465
▁दिवस 498423
▁पूरी 498327
▁11 498171
ेल 498100
▁संख्या 497986
▁[ 497553
وں 497353
▁अभी 497245
▁वा 497126
▁निर्णय 497025
▁हल 496857
▁लेकर 495550
▁फ 495096
▁] 495043
▁भाल 494744
▁ऎन्त 494640
▁कुमार 494297
▁बताया 493594
▁विशेष 492760
▁चॆय्तु 492679
▁सभ 491792
▁अधिकार 491411
त्तॆ 491318
▁चॆय्त 491145
▁उळ्ळ 491041
ुन 490406
त्तिन्ऱॆ 489263
▁अत्यंत 488880
▁पी 488129
▁परिणाम 487967
▁रंग 487694
▁सुरक्षा 486885
▁केली 484003
▁प्रदान 483948
▁मुख्यमंत्री 483662
▁लाभ 482871
▁हालांकि 481650
ुम 481036
▁पुतिय 479666
ुत 479209
▁सत्य 478676
▁भालो 477957
त्तिन् 477936
्ल 477782
▁रे 477649
ारु 477508
▁प्रधानमंत्री 476823
ाते 476338
▁अन्नि 476314
▁नो 476174
▁चल 475681
ाला 475356
▁16 474860
% 473605
ळि 473590
▁किए 473336
▁माहिती 472617
▁ओर 471970
▁अन्त 471926
▁तेना 471670
▁इव 469969
तर 469954
▁शुरु 469460
त्तु 469412
▁बी 469363
▁प्रारंभ 469090
▁उसे 468924
▁व्यक्त 468893
ऱ्ऱ् 468190
▁मेलॆ 467915
▁पो 466075
ाण् 465327
▁सु 464786
▁सामाजिक 464504
स्ट 464474
▁25 463376
दर 463363
▁तेने 462845
ष् 462445
्व 461266
ामां 461093
▁उन्नायि 461077
▁मौत 461005
ंग 460964
▁हॆच्चु 460591
▁وہ 460335
▁उनकी 459865
▁उसके 459433
▁देखा 458954
ल्लि 457672
▁ऎऩ 457535
ट्ट् 457489
▁एवं 457483
ऱि 457004
▁एमन 456990
ोर 456360
▁हच्छे 456150
▁13 455747
▁मेलुम् 454537
िलो 453755
गी 453631
न्त 453151
▁तन 452954
शन 452228
▁आमॆ 451483
▁गांधी 450983
▁प्राप्त 450899
▁दर 450876
▁अल 449242
▁सेवा 448849
▁विश्व 448776
▁साधारण 446740
▁یا 446043
गे 445876
िय़ा 445447
य़ 445221
▁वॆ 445182
▁अप 445101
▁थई 444249
▁उचित 443833
▁मौके 443451
▁वळरॆ 443083
▁पता 443080
▁शेष 443048
कार 442927
▁दाखल 442862
▁हां 442677
▁यहां 442261
▁टि 442084
▁मूल 441681
▁विभाग 441511
ान् 441482
▁साल 441368
▁सॆ 441335
▁जन 441088
▁वो 440854
▁अनुसार 440453
▁वर 440438
▁वाली 440380
ण्ट 440286
▁शरीर 440204
ंद 439786
▁कार्यक्रम 439586
तॆ 439123
▁तन्नॆ 438807
▁कंपनी 438694
▁परिवार 438656
ट्टु 438634
ुन्नु 438100
▁सम 437583
ङ्ङळुं 437363
चि 437190
▁पद 436823
▁जरूर 434877
▁طور 434212
ट्टि 433861
क्कि 433715
या 432948
ारे 432754
▁अन्नु 431301
▁आरोप 430070
▁घ 429830
▁आयन 429649
सा 429133
: 429002
मी 428916
दिंद 428703
मो 428470
▁सूचना 428366
▁पू 427629
ंडि 426693
▁कीती 426193
▁मीडिया 426161
ानो 425980
▁केले 425393
▁ऎऩक्कु 424820
▁पूर्ण 424807
ियन्नु 424534
▁युद्ध 424124
▁भ 423976
▁सारे 423880
न्ऱॆ 423020
▁बेशि 422830
▁कुटुंब 422253
▁ब्यबहार 422031
▁स्पष्ट 421135
शी 420943
▁प्रदर्शन 420631
▁मामला 420042
▁पॆ 419899
िलॆ 419823
▁वै 419535
ित्तु 419418
▁वारु 419054
▁निङ्ङळुटॆ 418822
▁मंदि 418724
▁नतुन 418506
▁नियम 418384
▁17 417958
्लो 417791
▁कै 417718
▁उपर 417423
▁योजना 416922
▁उङ्कळ् 416536
्ट 416487
न्स 416229
बा 416220
▁चॆ 415904
की 415339
▁पाइँ 415304
▁पऱञ्ञु 414904
▁आय 414606
▁पु 414456
क्स् 414390
▁डि 414173
▁एम 413808
ऱॆ 413798
ुन्न 413680
▁जाएगा 413561
▁प्रव 413386
▁कॆ 413314
ळ् 412137
▁ऎस् 412070
▁आधार 411592
▁$ 411397
िसुत्तदॆ 411364
▁कॊ 411356
▁कॊन्नि 411212
र्स 410210
▁24 409990
▁करण्यात 409387
गुलि 409376
आं 408972
▁تھا 408614
▁किहा 408595
▁अंत 408271
▁सुधी 407998
▁इंडिया 407631
▁केस 407521
▁जानकारी 407289
जि 407200
▁नेता 406509
▁जि 406334
▁मान 406258
▁؟ 405726
▁विश्वास 405623
▁देख 405433
▁ساتھ 405430
▁नगर 405320
वै 405263
▁बंद 405126
▁ख 404763
▁आवश्यक 404609
▁राष्ट्रपति 404587
▁मार्ग 404251
▁चीन 403898
ुनु 403642
णं 403369
2 402420
▁प्रवेश 402391
▁हाल 401250
▁दु 401065
▁असे 400003
▁2020 399629
ंत 399442
िव 399339
णा 398720
▁मॊदल 397451
ैयुम् 397267
ुत्तदॆ 396775
▁जल 396733
▁मार 396577
▁आरओ 396565
▁विजय 396446
रो 396378
▁काण 396315
िसिद 395820
िंचडानिकि 395572
▁अमे 395395
▁लोको 395357
▁अधिकारी 395090
▁कोनओ 394569
पि 394242
▁टी 393740
▁सुरक्षित 393635
▁समान 393475
▁नाकु 393474
क्कुक 392848
▁शक्ति 392343
▁सदस्य 392087
पी 391883
▁केन 391250
दार 390881
▁नरेंद्र 390542
▁40 390423
क्कुन्नु 389760
टर 389473
▁पुरुष 389453
▁ननगॆ 388933
ालि 388927
▁इसका 388429
▁पनि 387257
▁इतिहास 387237
▁तुमि 386720
▁अल्लतु 386259
▁एस 386209
िट 385843
▁यो 385760
आ 385680
▁भूमिका 385588
▁बड़ 385226
टो 384972
▁वात 384711
ोल 384347
▁ध 384210
▁अंश 383613
▁शको 383523
▁ताइ 383241
▁काछे 382645
▁एखाने 382619
ॆगॆ 382570
▁सौथी 381370
▁गुरिंचि 380039
▁अद्देहं 379510
युटॆ 378713
▁रक्त 378048
ंदि 378019
ित्त 377795
▁योग्य 377781
▁तुसीं 377768
▁मिल 377606
ज् 377215
▁पक्ष 377070
▁कूटुत 377033
▁केला 376591
▁जवाब 376411
बो 376343
ितु 376065
▁आता 375918
ुलनु 375804
▁तेनी 374549
▁पाणी 374403
िंचिन 374078
▁भर 373947
▁लगभग 373424
▁पोस्ट 373315
▁बहु 373040
▁तौर 372820
▁मुँ 372720
▁जन्म 372519
▁तैयार 372430
छ 371066
▁निज 371048
टु 370727
▁रॆंडु 370456
▁केन्द्र 370339
द्द 370046
▁अलावा 369989
ियि 369936
▁गंभीर 369374
▁मूलक 369328
िरि 368484
लै 368363
▁ज्यारे 368358
्क 367476
▁जाना 367432
▁खबर 366539
▁रुपये 366539
िदॆ 366409
▁संयुक्त 365643
▁परीक्षा 365309
▁ध्यान 365264
▁जीव 365015
▁विमान 364880
▁एऱ्ऱवुं 364718
▁प्रस्तुत 364282
ैय 364154
▁कॊण्ट 363825
▁विभिन्न 363539
▁बस 363161
▁ऎनिक्क् 362958
▁तमाम 362891
▁कॆलवु 362816
▁योग 362547
▁जोईए 362332
▁पिता 361804
ंग् 361572
िंचारु 361494
▁कलिगि 361405
▁तेल 360714
▁हमारे 360451
▁लाख 360073
▁उत्पादन 359484
वर् 359224
▁अदन्नु 359156
▁तम्म 359114
▁त्या 359060
▁कार्ड 358821
▁संभव 358530
्यं 358205
▁सहित 358063
▁तन्न 357915
ॊरु 357220
िद 357074
िकळ् 356760
ुप 356333
▁भाव 356215
▁यांनी 356144
ॆयल्लि 355746
▁पत्र 355679
▁ष 355656
▁मिकवुम् 355456
▁% 354833
▁ऎऩ् 354813
▁व्यापार 353942
▁ऎन्ऱॆ 353777
▁कारणे 353766
▁ताऩ् 353712
▁आदेश 353477
▁कॆलस 353474
▁तमने 353227
ाब 353055
▁पश्चिम 352569
▁निश्चित 352038
▁उळ्ळतु 351650
▁जरूरी 351396
▁अंद 351016
डानिकि 350922
▁ञङ्ङ 350523
▁मध्य़ 350487
▁उद्योग 350201
बी 350167
▁होर 349989
▁मात्रमे 348905
▁सहज 348855
▁हार 348651
▁एन 348587
▁यु 347471
व् 347187
▁महत्वपूर्ण 346841
▁आहार 346687
▁स्वास्थ्य 346524
▁कैसे 346316
▁जान 345776
▁तमारी 345731
▁क्योंकि 345480
ङ्ङळि 345049
▁बन्ध 344820
▁मैंने 344785
▁ऱ 344475
▁संपर्क 344425
ैकळ् 344035
▁सो 344012
▁तेमना 343820
▁कुझ 343692
▁सर 343678
▁संगीत 343448
▁विल 343145
▁नुंचि 343135
▁ہم 343100
▁ऊ 342907
प्पट्ट 342798
िप 342691
त्तिऩ् 342665
▁देने 342350
▁जैसे 342255
▁تو 341645
ऱ्ऱि 341306
▁पात्र 340618
▁आपल्या 340446
ॆयु 340344
शे 339980
▁फोटो 339974
▁पुस्तक 339710
क्कुम् 339696
▁अवर्कळ् 339526
▁चाल 339268
ल्लो 338638
▁एकजन 338618
▁दिय़े 338187
▁अतै 338141
न्न् 338102
▁छुं 337983
ायिरुन्नु 337854
▁स्प 337710
▁हि 337348
ियां 336932
▁ऎऩ्पतु 336697
▁परिस्थिति 336615
▁कपूर 336500
▁महाराष्ट्र 336460
▁खास 336312
▁21 336176
▁आपके 336173
पु 335968
▁हमें 335788
▁ठिक 335579
▁पोलीस 335554
▁अमेरिका 335539
ळॆ 335537
लेदु 335416
ज़ 335046
▁कळ 334472
तरी 334031
▁वाहन 333783
▁स्त्री 333779
ोम् 333612
▁राहुल 332851
▁कमी 332558
▁खूप 332224
▁प्रकाश 331599
▁प्रक्रिया 331345
▁पाल 331320
णि 331198
▁प् 330981
▁गा 330175
िस् 329915
ैन 329907
▁चाइ 329847
डं 329654
▁निल 329207
पर 328956
▁रू 328618
1 328417
▁ली 327792
▁अन 327649
▁अस्पताल 327478
▁स्ट 327309
▁क्रिकेट 327302
▁कथ 327263
अ 327161
▁सिनिमा 327141
▁थाके 326929
▁मि 326768
▁आम्ही 326727
्स 326384
▁कूड 326179
▁लक्ष्य 326112
▁आनंद 326007
▁सन 325567
लनु 325518
वॆ 325461
▁शहर 325052
▁होगी 325042
▁समाधान 325031
प्पट 324856
▁वहीं 324717
▁शिक्षा 324574
▁संबंधित 324341
िये 324273
▁इसलिए 324223
▁अपना 324103
एं 324024
▁मर 323943
बहुदु 323834
ाया 323827
▁दुइ 323790
▁पति 323258
ऎ 322812
▁रिपोर्ट 322672
▁पसंद 322403
▁चुनाव 322346
बार 322215
▁मै 322142
▁उपस्थित 321812
▁चेशारु 321701
▁शब्द 321686
ानि 321683
िसलागिदॆ 321561
▁घोषणा 321454
▁पट 321379
▁समस्त 321119
▁कभी 321054
स्त 320798
▁करेछे 320681
▁ज्यादा 320654
▁मुंबई 320541
▁भाष 320172
▁जिस 319839
▁बलेन 319774
▁ताँर 319708
▁तयार 319700
▁گیا 319623
ळु 319591
▁मात्रं 319574
जे 319432
▁सं 319330
वामां 319290
▁नजर 319237
▁बो 318748
▁نہ 318240
णे 318234
▁सरळ 318151
्त 317945
▁बीजेपी 317858
▁डी 317766
▁तेथी 317614
▁मू 317269
▁छिलेन 317186
िले 317092
▁तां 317072
▁तथ्य 317055
3 316717
ियल्लि 316658
ेला 316600
त्त् 316523
▁बिजॆपि 316093
ई 316067
▁नाम् 315966
▁गत 315834
▁प्रभाव 315359
▁अतनु 315347
ण्ट् 315205
▁आशा 315102
ٹ 315097
▁निन्न् 315092
▁हेळ 315049
वाग 314533
▁तुट 314306
▁वारि 314054
▁करत 313662
िक्का 313442
▁करती 313206
▁दल 313197
▁विवर 313135
▁प्रमाण 313129
िय़े 312945
▁ہڪ 312886
▁बेश 312821
▁कांग्रॆस् 312790
▁माडलु 312744
▁बैठक 312698
▁कण 312504
▁विरुद्ध 312459
▁माध्यम 312052
▁पड 312034
ुकळ् 311904
मान 311475
▁लै 311223
गल 311220
ावर 311063
ून 311002
▁تی 310864
▁पूरा 310745
▁मरण 310740
▁किंवा 310663
▁बधा 310617
▁जाण 310405
▁नु 310181
ियो 310139
▁अवसरं 309948
▁सारी 309861
िंचिंदि 309658
वरु 309657
▁करेछेन 309399
▁बछर 309190
ागि 309151
▁प्रपंच 308668
ारि 308607
▁राम 308221
▁समाज 308044
▁इट 307988
▁इसकी 307887
▁स्थित 307725
ैयै 307718
▁नागरिक 307549
िवॆ 307330
▁क्र 307301
▁भारी 307028
▁डे 306925
▁आण् 306860
▁* 306463
▁हॆच्चिन 306334
▁तू 306287
▁संपूर्ण 306276
म्म 306221
▁चर्चा 306115
▁हॊस 305820
▁बन 305554
▁अस 305041
▁इदॆ 304953
▁मुतल् 304923
▁देखते 304338
▁गुण 304075
▁सकती 303990
▁पारेन 303866
▁त्यां 303832
ऩर् 303824
▁नाइ 303660
▁पै 303456
▁आली 303415
िब 303113
▁अदर 303038
ंट 303024
▁2019 302967
िम 302927
▁आमाके 302846
▁थ 302701
ाम् 302370
प्र 302321
▁चि 302165
▁زیادہ 302030
ाप 301986
▁ठीक 301840
▁आले 301687
▁कारणं 301517
▁टेस्ट 301202
▁जाते 301173
▁मानुष 301020
▁समयं 301016
िस्तुंदि 300832
▁करोड़ 300617
र्कळ् 300341
▁त्यांना 300249
▁शिक्षण 299780
▁کہا 299654
▁झाले 299241
▁बैंक 299095
्यू 298972
▁मानव 298900
एस 298801
▁ऎला 298779
▁बिषय़ 298675
▁आफ् 298325
िका 298138
▁दुनिया 298022
▁कष्ट 297916
▁नाहिँ 297763
▁फो 297643
▁पॊलीस् 297403
▁ताके 297355
▁पानी 297341
▁इष्ट 297251
▁अवसर 297011
▁संस्थ 296896
▁प्रयत्न 296713
वो 296658
▁सामने 296485
न्ट 296418
▁कृषि 295829
▁रह्या 295572
▁एका 295563
▁प्रयास 295165
पै 295128
द्दु 294998
▁आक 294952
▁स्तर 294864
▁झाला 294755
ऐ 294209
▁सेटा 294194
▁मारा 294110
▁धर 293898
▁आर् 293735
4 293634
▁सारा 293616
▁अदे 293369
▁सुंदर 293162
▁इर 292842
▁ہی 292777
▁हेगॆ 292202
▁मेमु 292051
ोन 291834
▁इदन्नु 291246
▁लक्ष 291120
▁ऑफ 291119
ियु 291031
ुवुदु 290960
▁पांच 290840
▁आधुनिक 290687
▁एखन 290661
ोक 290628
▁खर्च 290540
▁अनुमति 290522
डो 290411
▁सही 290359
▁बड़ी 290182
तार 289879
थे 289811
न्स् 289772
▁استعمال 289413
षन् 289136
बेकु 289126
िंचे 288914
▁समस्य 288856
▁ऎरडु 288364
▁नन्न 288352
▁घट 288164
ैयिल् 288090
ुवुदिल्ल 288079
▁उन 287883
▁डेटा 287483
ाय् 287447
▁स्व 287344
▁अवकाश 287342
च्च् 287221
▁हॆ 286779
▁फक्त 286298
ुलो 286169
ुलकु 285780
▁समर्थन 285637
▁अगर 285626
मॆ 285600
▁प्रतिशत 285443
▁शर्मा 284879
▁तर्वात 284723
▁आरो 284451
▁धर्म 284377
▁प्रयोग 284288
▁पासे 284223
▁करेंगे 284204
न्ना 283893
▁परीक्ष 283325
▁A 283159
▁मानसिक 282962
▁येते 282900
पड 282824
▁आने 282730
▁साध्य 282674
▁संघ 282489
▁दरेक 282452
ालो 282159
▁कोटि 282055
▁C 281960
ळा 281647
ष्ट 281596
ऴ 281575
▁सवाल 281524
▁क्षमता 281213
▁मृत्यु 281098
य़े 281028
▁वलिय 280947
▁समावेश 280925
▁जीवित 280585
▁60 280384
साठी 280227
▁हॊंद 280107
▁जां 280063
▁बिभिन्न 280011
▁सोशल 279958
ंड 279853
ियै 279475
▁अच्छा 279443
ड़ 279426
▁नीचे 279345
7 279318
▁वच्चे 279124
वू 278993
▁भाषा 278963
ताण् 278888
▁ऐसे 278579
▁व्यवसाय 278456
्प 278281
▁मेरी 278270
▁एल 278193
▁सूच 278064
ॊंदिगॆ 278052
▁चा 277970
▁खेल 277819
▁कट 277808
▁ہوں 277468
▁जॆ 277352
ट्स 277344
▁विशे 277081
▁माडि 276900
ॆगळु 276815
िनॆ 276787
▁0 276453
यॆ 276033
फ् 275992
▁दीआं 275746
▁اپنے 275607
लों 275472
▁दूसरे 275428
ے 275282
▁केउ 274741
▁जबकि 274472
्रे 274463
▁تک 274436
▁سال 274410
▁हवे 274384
▁पुरस्कार 274258
सु 273902
▁2018 273885
▁मीकु 273728
▁मांग 273637
▁राजकीय 273498
ाता 273340
▁होई 273258
▁अद 273183
▁अर 272923
गुलो 272347
▁विट 272239
▁चिकित्स 272235
ाले 272225
▁केवी 272150
म्प 272026
▁पुलिश 271684
ङ्कु 271553
▁अटुत्त 271419
▁निमगॆ 271228
मांथी 270698
▁त्यांनी 270673
▁बॆ 270462
▁سب 270406
▁कोर्ट 270334
▁सुधार 270331
▁لیے 270062
▁मह 269660
ङ्ङळ 269636
▁उंड 269559
▁करू 269533
▁नई 269507
▁चु 269447
पा 269347
मै 269229
▁उपकरण 268816
▁आरोपी 268814
मुळ्ळ 268204
यो 268048
▁गो 267929
▁पॊ 267708
▁जिसमें 267674
▁फल 267647
▁अऱिय 267303
न्तु 267235
▁यू 266907
▁तेमने 266830
▁झाली 266785
▁मूल्य 266773
णी 266204
▁वास्तव 266111
▁ऎन्निव 266086
▁इक्कड 266005
▁अभिनेता 265893
▁शो 265799
▁ति 265753
▁मुख 265746
काल 265726
ांना 265725
▁पोक 265704
क्कू 265670
जन 265594
वानी 265406
करण 265286
▁लागे 265218
▁मंत्रालय 265081
▁पोलीस् 265032
▁विरोध 265016
▁अट 264852
▁इरुक्कुम् 264773
▁आल 264758
▁कॊत्त 264702
▁सै 264396
णो 264358
▁आट 264320
स़ 264303
उ 264128
▁22 264107
पो 264054
▁पत्नी 263961
▁जीबन 263727
▁प्रो 263440
▁रस 263345
▁दोन 263264
रू 263012
्लु 262783
▁शोध 262698
▁सकदा 262683
▁प्राय़ 262459
▁चेष्टा 262442
▁म्हणून 262389
▁बाल 262158
▁रो 261982
▁अम्म 261785
ागिदॆ 261483
▁एनु 261399
▁तल 261389
ुक्क 261338
ुकु 260918
8 260899
▁लि 260833
▁वरकु 260817
▁उसने 260798
▁माऱ्ऱ 260686
्यो 260673
▁छीए 260585
▁मनुष्य 260570
▁संस्थान 260568
▁तोमार 260551
▁इरुक्क 260455
▁यार 260255
▁ब्र 260147
▁समूह 260065
▁گا 259687
▁बाहर 259573
▁नवी 259431
▁रण्ट् 259400
िक्कुन्नु 259229
▁नियंत्रण 259092
ियॆ 258916
▁अहीं 258890
▁بہت 258756
▁सचिव 258749
▁ऎऩ्ऱ 258643
िसिदॆ 258537
▁आउ 258341
▁करके 258267
ک 258100
ऩै 258092
ूर 258030
▁विधान 257990
▁कोरोना 257847
न्नि 257818
ुट 257736
▁2021 257635
रिगॆ 257601
▁कुल 257589
िसबहुदु 257341
▁सरकारी 257319
प्पो 257182
▁आपनाके 257150
▁تہ 256989
्ड 256949
ز 256931
▁मेल 256890
▁पट्ट 256698
5 256415
▁आइ 255879
पुर 255816
ाण 255792
ियाण् 255714
आई 255672
क्कुन्न 255295
शा 255294
▁चू 255198
वच्चु 255046
▁गृह 254897
▁+ 254838
▁کان 254786
▁केंद्रीय 254729
ुकळ 254705
ुक्कु 254493
▁व्यक्तिगत 254252
याण् 254015
▁प्रक्रिय 253857
▁ऎन्न् 253693
▁पारि 253686
्ब 253597
▁इतै 253200
▁आधारित 253128
▁नुकसान 252962
ऎस् 252791
▁बनी 252689
▁साध 252661
▁मौजूद 252638
छेन 252635
▁नीति 252515
ॆयुं 252436
▁शाह 252369
नां 252153
प्पि 251960
▁पिर 251851
▁पाठ 251474
ात्त 251399
▁आवश्यकता 251206
▁क्ल 251117
▁याव 251113
नं 251056
s 250999
▁हलो 250806
नल्लि 250695
▁सा 250676
्रि 250646
ऱिय 250376
▁वाला 250299
▁एते 250298
क्ष 250249
▁कर्युं 250197
▁तेमणे 250155
ाके 250154
▁नरेन्द्र 250130
▁तुहानू 249882
▁ऎक्कुव 249759
ुत्त 249699
प्प् 249634
▁तुम्ही 249585
▁विदेश 249574
▁घायल 249468
िरुव 249462
▁देओय़ा 249460
ाई 249372
सन 249254
▁रिहा 249203
न्ड 249027
▁प्रय़ोजन 249024
िंचडं 249017
▁जीत 248822
क्कुन्नत् 248800
ये 248763
ानुं 248707
▁नष्ट 248478
▁बाअद 248047
▁कत 247883
▁रोज 247873
▁इन् 247461
▁बोल 247438
ितो 247300
▁मंचि 247274
▁होत 247271
▁शरू 247207
ाज 247199
▁तेमनी 247076
▁तब 246957
9 246697
ङ्कळै 246552
ंतो 246527
▁सेना 246465
▁अभ्यास 246434
▁हत्या 246376
▁विध 246363
▁हूँ 245952
▁उनका 245895
्च 245889
▁घणा 245883
▁80 245683
▁کریں 245535
ण्ण 245422
▁बंने 245353
▁उत्पन्न 245152
आर 245121
▁अमित 244827
▁وقت 244727
ारी 244683
▁لاء 244620
ڈ 244599
▁ची 244596
▁हय़ेछिल 244578
ियुं 244360
▁लागि 244312
▁पक्षॆ 244254
▁तुंबा 244248
▁गु 244004
▁त्यामुळे 243979
छिल 243195
▁दॊड्ड 243062
लाम् 243057
▁कर्यो 243031
▁جس 242983
▁पर्यन्त 242832
▁हाथ 242646
▁ऎनि 242629
▁केटलाक 242560
लकु 242516
ोग 242505
▁किछि 242493
ंतॆ 242459
▁क्रम 242305
▁देखील 242248
▁अंग 242043
▁बड़ा 241794
ॆन्न् 241713
▁तम 241651
6 241611
▁आरंभ 241466
▁जाती 241437
▁होना 241379
▁साधन 241373
▁आव 241349
▁दानि 241331
▁लाल 241292
▁नाङ्कळ् 241221
▁पहली 240977
▁ऎंब 240937
▁तखन 240901
▁कऴिञ्ञ 240850
▁क्यों 240847
▁चेसिन 240558
▁चॆल्ल 240330
▁प्राथमिक 240191
▁26 240073
▁कोण 239875
▁आला 239767
▁पिछले 239661
▁करवानी 239610
रॆ 239505
▁कुऱ 239418
▁आद्दरिंद 239372
▁200 239256
▁अभिनेत्री 239234
क्ट 239100
▁पालन 239094
▁मास 239061
▁लगता 238968
▁28 238926
▁आस 238911
गळिंद 238704
▁व्यवहार 238437
▁असीं 238329
▁व्यवस्थ 238194
▁जहां 238165
▁तपास 238094
▁दिल 238034
▁पऱ्ऱि 237995
▁जानते 237710
▁पद्धति 237481
▁मग 237344
मुम् 237256
▁नही 237253
ियुटॆ 236951
▁रात 236747
▁मोदि 236621
ुन्नत् 236616
▁2017 236424
▁एत 236313
▁कू 236309
प्पुडु 236227
बर 236195
्री 236078
ळे 235999
▁किसे 235895
▁कठिन 235790
▁S 235781
▁रह 235742
▁स्क 235585
रिक्क 235339
▁न्याय 235338
▁मार्च 235289
▁मरि 235137
िकॆ 235098
▁अगत्य 234788
▁नए 234294
▁बनाने 234288
ेन 234172
ङ्कळिल् 233995
▁गॆ 233458
▁अंतिम 233342
ित् 233260
▁अध्ययन 233196
▁अम 232990
कारी 232972
▁अल्लॆङ्कि 232803
▁बिषय़े 232630
द् 232506
▁मिश्रण 232469
ताक 232364
▁वेबसाइट 232328
▁सुमारु 232295
▁दिए 232294
▁कूट 232190
य् 232159
▁उद्देश 232038
▁जात 231836
▁गिरफ्तार 231705
▁इन्तिय 231675
▁मुत 231481
▁मिक 231418
▁प्रधानमन्त्री 231292
▁हइ 231279
ग् 231121
▁जरूरत 231044
ालकु 231012
▁याद 231012
▁23 230916
ुकयुं 230892
▁मिला 230603
▁तुम 230299
िस्ट 230156
गागि 229952
य्क्क् 229820
िसिद्दारॆ 229792
▁स् 229792
▁अच्छी 229766
▁भिन्न 229595
▁ला 229518
▁तरफ 229348
▁विषयं 229348
▁पड़े 229335
्रा 229326
▁भाबे 228949
▁उसकी 228705
▁चले 228642
▁तप्प 228616
िलुं 228552
▁इल्लि 228530
▁इप्पो 228361
ुमायि 228192
▁आगामी 228108
▁ऎऩवे 227941
▁पदार्थ 227718
▁समुद्र 227678
▁नॆ 227667
ार्कळ् 227304
▁खरीद 227166
▁चाहते 227053
▁इरण्टु 226720
ताऩ् 226624
▁निर्देश 226577
िके 226554
▁तहत 226278
▁इरुक्किऱतु 226251
▁बै 226174
▁बिहार 225764
ियाक 225555
त्तिऱ्कु 225549
▁चट्ट 225482
ाल्लो 225345
▁भविष्य 225291
▁धन्यवाद 225258
▁त्यारे 224899
▁सामग्री 224879
सार 224778
▁लभ्य 224724
▁आकार 224698
▁2016 224672
त्थ 224669
▁बिशेष 224570
▁पॊंद 224541
▁बहळ 224520
▁पोल 224354
▁चर्च 224258
▁वेळ 224235
▁करीने 224106
▁निर्दिष्ट 223672
्म 223669
र्स् 223666
▁सृष्ट 223487
▁लगा 223465
▁पेर् 223416
ङ् 223389
कों 223311
▁हृदय 223272
▁आम् 223233
▁पंजाब 223128
D 223032
सर 222786
▁नेर 222509
▁चित्रं 222411
ुकळुं 222305
▁मोबाइल 222219
िनी 222139
▁शकाय 222096
▁री 222043
ात्मक 221957
िसिदरु 221886
▁रल्लि 221620
▁کرتے 221599
ांनी 221443
▁शुधु 221440
▁कोल 221358
▁विधानसभा 221120
▁सकदे 221047
▁करबेन 221043
▁यात्रा 220944
त्ता 220821
▁छबि 220417
वार 220354
▁स्थिर 220144
▁सुरू 220044
▁आबार 219860
▁उल्लेख 219726
▁ओइ 219709
▁दिते 219655
ुकिऱतु 219542
▁कडिमॆ 219384
▁मैनू 219268
▁रि 219001
िलेक्क् 218982
▁लेख 218865
▁सम्पर्के 218819
▁प्ले 218796
▁मैच 218704
▁याबे 218623
गो 218457
ुळ्ळार् 218419
▁उंटायि 218327
▁मॊत्तं 218176
▁जाय 218035
▁कार्रवाई 217981
▁अतिरिक्त 217956
▁यही 217937
▁प्रकरण 217770
सं 217766
▁करबे 217756
,000 217687
ांत 217622
▁आद्य 217497
▁70 217470
▁B 217455
▁वरै 217250
▁परि 217204
धी 217194
▁इरुन्तु 217046
▁पेर 216887
▁तसेच 216660
▁चिन्न 216302
▁जाएगी 216193
तुं 216094
▁ज्ञान 215990
▁मतो 215937
▁सबचेय़े 215780
▁वॆळ्ळ 215576
ुत्तारॆ 215562
▁एकइ 215554
▁गेल 215462
▁لیکن 215288
▁जानि 215128
▁I 215031
▁बच्चों 215013
ट्स् 214991
▁लोकां 214973
▁तैरि 214740
▁न्यू 214730
▁तीव्र 214546
▁मात 214486
▁कण्ट 214467
▁निर्म 214423
पे 214412
ल्स 214348
ोज 214296
ोट 214120
▁सात 214109
▁निजेर 213988
▁इरुन्त 213888
▁पॆद्द 213817
्युं 213659
▁बना 213548
टिर 213395
▁ग्राहक 213239
▁टॆ 213180
▁रुपए 213115
फो 213059
▁मऱ्ऱ 213021
▁इरुन्ततु 212986
ाललो 212677
▁असते 212580
▁तरुवात 212537
▁गेछे 212483
▁चॆप्प 212409
ाह 212167
▁त्याला 212164
▁वऴ 212096
▁देव 211792
▁मेरा 211467
▁हिसेबे 211353
▁इविटॆ 211261
ियिल् 211060
▁वय 210946
ब् 210792
▁बढ़ 210657
लं 210621
▁लक्षण 210568
▁मॊदटि 210442
- 210378
▁कॊळ्ळ 210212
निंद 210074
▁बोर्ड 210070
▁असर 210039
ड़ा 209894
मल्ल 209825
दॆ 209626
▁दिनों 209548
▁कट्ट 209239
ांची 209212
▁किस 208797
▁काबट्टि 208756
▁सेर 208748
▁ट्र 208700
ावी 208505
▁त्यांच्या 208501
्ड् 208118
▁माल 208113
्यु 207925
▁चॊल्ल 207907
▁27 207904
ौ 207858
▁D 207640
▁सार्वजनिक 207592
▁इदे 207549
▁रॆ 207489
▁समझ 207474
▁खुद 207407
▁इं 207349
▁कश्मीर 207331
▁तिन 207324
▁होंगे 207318
▁लागू 207188
▁जोड 207175
▁P 207166
▁سان 207084
ट्लु 207013
▁संरक्षण 206970
▁चेय़े 206823
▁2014 206726
▁रक्षा 206547
ाट 206387
ुळ्ळतु 206297
▁इप्पुडु 206247
▁500 206124
गु 206116
▁بعد 206110
▁समग्र 206087
▁करीब 205674
▁सीमा 205672
ँ 205661
▁माता 205473
च्चत् 205368
▁इलाज 205352
▁निर 205339
ॆयिंद 205131
▁प्रसिद्ध 205125
▁शकता 205112
▁मित्र 205028
▁ताङ्क 205020
▁जनता 204962
ांच्या 204883
▁सक्षम 204815
▁जेम 204713
▁महान 204699
▁31 204620
ॆगळन्नु 204599
▁दिके 204555
▁उलक 204423
▁गुजरात 204289
▁साले 204217
▁डिग्री 204090
▁سی 203906
ंच 203890
य़ा 203681
▁डा 203470
▁तु 203437
▁अऩैत्तु 203400
बेन 203267
गत 203171
बल 203114
▁करछे 203080
▁राख 203080
▁मक 202887
ऱु 202871
▁क्षेत्रे 202812
त्तिलॆ 202653
▁विज्ञान 202641
▁ग्रहण 202479
▁सार 202361
▁کسی 202341
▁उय 202309
तिय 202183
▁भाब 202105
▁उपचार 202027
▁वळ 201813
ळ्ळ 201800
स्थ 201752
▁बिश्बास 201552
▁माझ्या 201524
▁सिंग् 201517
िता 201450
▁करदे 201365
▁प्रधानि 201365
ञ्च 201348
▁दरकार 201301
▁हमेशा 201271
▁संख्य 201165
▁मजबूत 200988
▁शेषं 200972
▁फैसला 200951
हरू 200838
▁मिली 200768
▁सुन्दर 200722
▁अभिवृद्धि 200452
▁श्रेष्ठ 200408
▁चॆय 200383
▁पेश 200290
▁आए 200158
रण 200083
▁द्बारा 200069
▁पोलीसुलु 200035
िस्त 200017
ातील 199845
प्पिक्क 199742
▁पूरे 199619
▁जेमां 199471
र्न 199436
▁पड़ 199427
िय़ 199421
▁ৰ 199138
▁वेल 199030
एल 199010
▁हमने 199003
▁मिळ 198892
ियन् 198860
▁کچھ 198800
▁इतिल् 198759
▁शव 198645
▁विश्वविद्यालय 198597
▁संग्रह 198488
िरिक्क 198472
गि 198414
▁आवशे 198403
▁झ 198349
▁सुलभ 198274
▁रच 198272
▁کم 198214
▁एखनओ 198213
▁तेमां 198115
ओने 198102
तायि 197932
▁पीएम 197826
ड़े 197612
एम 197604
▁मृत 197577
▁पयऩ्पटुत्त 197572
▁रु 197484
▁35 197455
▁राजस्थान 197443
▁90 197435
▁पात 197430
▁मिकच्च 197394
▁R 197378
िरिक्कुन्नु 197357
▁अपेक्षा 197222
▁वर्ग 197195
ुत्तवॆ 197087
B 196982
▁म्हणजे 196942
▁पुर 196567
▁यखन 196495
हि 196483
▁हय़नि 196360
▁इन्नू 196319
▁नाव 196274
ॆये 196229
▁अमेरिकी 196162
▁नंबर 196111
▁बड़े 196090
▁अफ 196089
▁रक्ष 195944
▁पाओय़ा 195899
▁वस्तु 195878
ारो 195802
िक्कुन्न 195771
▁बाकी 195653
ुटऩ् 195544
▁उङ्कळुक्कु 195400
▁समयंलो 195140
▁ऎं 195012
▁फार 194901
क्कागि 194880
▁जल्द 194788
िलाण् 194766
▁हॊंदिदॆ 194755
▁मुक्त 194705
सो 194523
िरुन्नु 194522
▁सहयोग 194410
▁2015 194335
▁कंटे 194329
▁बर 194311
▁F 194008
▁तुम्हाला 193861
िऱ 193837
तम 193741
▁گے 193618
▁दें 193606
नाय 193596
▁रकम 193556
ावे 193548
ळो 193493
▁आपणी 193381
▁असेल 193339
▁सौ 193339
▁आव्यो 193317
▁आपी 193291
▁कप 193243
▁स्कूल 193116
िय़ार 193079
▁कीमत 192936
▁हॆच्च 192803
▁डॆ 192798
▁अद्भुत 192676
ऱ्ऱु 192642
▁ہن 192396
▁प्रभावित 192382
▁देय़ 192355
▁बलते 192089
▁असं 192041
▁निन 191944
▁आदि 191752
▁समिति 191741
▁अय 191635
▁ग्राम 191632
▁गाय 191599
▁V 191552
क्किय 191474
▁इदर 191432
▁जनरु 191329
▁लगातार 191276
▁बिल 191254
ॆस् 191166
▁वन्त 191006
▁करदा 190980
यं 190917
▁ऎप्पटि 190806
▁लग 190637
िंचंडि 190565
ॆयाण् 190383
▁वाय 190322
िलि 190266
▁प्यार 190173
द्देनॆ 190166
▁शे 190041
▁तिर 189998
▁फिलहाल 189967
▁इति 189720
▁G 189703
्यां 189642
ल्प 189638
▁जग 189604
▁स्वयं 189492
▁उळ्ळऩ 189481
▁पाटु 189421
▁इसी 189408
खिआ 189401
▁वातावरण 189287
▁करेगा 189029
▁मरिंत 188993
ास् 188953
T 188952
▁सम्भब 188860
▁शक्त 188737
▁उण्ट् 188716
हा 188576
ाही 188534
▁नटत्त 188527
गू 188294
▁चेयडानिकि 188236
▁रीतिय 188200
▁मुटियुम् 188086
P 188017
▁बयान 187985
▁वापर 187965
▁छोट 187883
▁हिस्सा 187656
▁भारतीय़ 187639
िसुवुदु 187614
▁देखे 187574
ासाठी 187499
▁دنیا 187335
▁29 187304
▁صرف 187278
▁ہر 187109
S 187103
▁फोन् 187078
▁नीड 186720
▁डॉक्टर 186695
▁करछि 186627
▁आव्या 186495
▁विवाद 186353
र्व 186333
ाकु 186242
▁लेखक 186242
▁माडुव 186233
▁ताहले 186048
▁मारी 185877
▁अवरुटॆ 185834
िस्तुन्न 185790
▁جا 185757
▁छात्र 185684
▁भर्ती 185559
▁दोष 185551
▁इच्छा 185510
▁नम्प 185473
्कळ् 185455
▁इऩ्ऩुम् 185409
▁कारन 185359
▁अधिकारियों 185248
▁भुल 185208
▁वापस 185113
▁लॆ 185089
ामा 185029
▁ऒरे 184864
▁आश 184850
▁و 184830
▁बिना 184825
प्पटुम् 184782
▁भोजन 184781
▁वहां 184742
▁टो 184686
▁आश्चर्य 184598
▁सिर 184497
त्ते 184420
▁गर्न 184294
▁कोशिश 184203
▁दीर्घ 184175
▁सुर 184114
▁कन 184086
▁तापमान 183949
िलुम् 183891
ुमे 183849
▁کوئی 183753
▁पाट 183714
▁पुत्र 183371
▁सबाइ 183304
▁हेले 183203
धि 183127
▁निर्वह 183105
▁अतऩ् 183103
▁असा 182939
▁तग्ग 182913
▁कानि 182902
▁मुंदु 182902
त्तिय 182806
▁ऐसी 182747
▁सफल 182731
टॆ 182712
▁करण्यासाठी 182706
▁चो 182650
▁آہن 182566
▁T 182362
▁आत 182301
▁आद 182229
▁भू 182226
दिन 182200
▁सम्मान 182183
डिय 182149
▁तॆ 182045
चु 181934
ॆगळ 181752
▁अपराध 181699
▁उन्नारु 181696
▁नल्लि 181667
ोने 181482
▁धन 181469
िप् 181378
▁मॊ 181262
▁आड 181240
▁दरमियान 181056
िंचि 181031
▁हॊर 181002
द्दारॆ 180938
्कु 180822
▁आसले 180727
▁आपे 180696
▁बच्चे 180582
▁कोविड 180505
▁सेव 180444
टानिकि 180415
द्दरु 180393
▁विद्या 180337
▁जास्त 180268
▁मळी 180194
प्पॆट्ट 180147
ळी 180112
▁टीवी 180019
▁सिद्धान्त 179991
▁यात्र 179968
▁वर्तमान 179964
ेरा 179884
▁तमारे 179868
ॉ 179865
पणे 179721
▁लेने 179647
▁चान 179449
डॆ 179424
शो 179367
▁वंटि 179270
▁तॆगॆदुकॊळ्ळ 179258
▁स्थळ 179241
▁मॊदलु 179238
िल्लै 179183
ियिऩ् 179086
िक्कुक 179050
▁फै 178944
▁राय 178840
▁आवश्य 178825
ङ्ङळॆ 178753
िसबेकु 178738
▁उन्नत 178647
▁छेः 178605
▁کام 178583
षं 178579
▁पहुंच 178550
िस्तुन्नारु 178411
चं 178336
▁बला 178293
▁सिर्फ 178291
▁निन्नुं 178281
▁ൽ 178273
▁शेयर 178235
▁चरित्र 178100
▁E 178099
ॆल् 178088
▁वाढ 178062
वर्कळ् 178014
▁स्वीकार 177821
▁नवीन 177816
▁नव 177806
▁न्यायालय 177794
▁जोवा 177700
▁आया 177672
▁इद 177603
▁नोड 177564
ेट 177552
▁हिसाबे 177547
▁32 177536
▁थइ 177489
▁आसान 177481
ैयाक 177335
क्कार 177316
▁जिल्ला 177314
▁कह्युं 177300
एफ 177286
▁वजह 177237
▁पूर्ति 177213
▁गुरुत्बपूर्ण 177121
▁धारा 177119
▁ओरो 177113
▁श्रद्ध 177072
▁सलाह 177050
▁बागा 176984
▁शीर्ष 176980
गुलिर 176934
डर 176911
ेली 176881
▁आवेदन 176847
▁रन 176746
र्म 176666
ुतुंदि 176616
▁अलागे 176610
▁वरिष्ठ 176590
▁शिकायत 176564
▁तर्हां 176467
▁ऎटुक्क 176421
▁ब्यापार 176156
▁भिडिओ 176010
▁अभियान 175875
▁धरे 175870
▁दींतो 175835
ामु 175763
ैकळै 175651
▁स्थाप 175605
▁ڪری 175591
डल 175482
▁रह्यो 175414
▁अन्यान्य 175347
▁नेतृत्व 175271
▁टा 175211
▁मऩ 175155
▁बु 175070
▁हजार 175023
▁प्रचार 175005
▁वैद्य 174937
ण् 174934
▁M 174927
▁केरळ 174922
▁देशों 174894
▁आलोचना 174759
▁जय 174746
▁دیا 174708
▁अतनि 174683
▁अवरिगॆ 174636
▁सेखाने 174585
▁वरॆ 174550
▁चेसिंदि 174539
▁अप्प 174461
फि 174438
▁पॆरिय 174396
ॆट् 174395
क्र 174323
▁नै 174312
▁सर्कार 173997
▁उठ 173950
ातु 173905
▁अदालत 173860
▁साइट 173811
▁भारतेर 173793
▁ब्य 173765
▁चेर्त्तु 173764
▁طرح 173718
▁सांस्कृतिक 173711
गॊळ 173615
▁कदम 173576
▁संगठन 173536
▁ढ 173448
सिआ 173336
▁रहिछि 173303
ुतुन्न 173228
▁गे 173133
▁प्राण 173128
▁इस्तेमाल 173078
▁करशे 173072
तक 172961
▁ऎऩ्पतै 172711
▁उत्पाद 172700
▁کرنا 172671
▁कराया 172669
▁जगह 172566
▁जम्मू 172489
▁कर्नाटक 172472
▁करिबा 172460
मन 172390
▁संस्कृति 172347
ियाग 172319
▁मनं 172309
ीं 172280
▁देते 172277
▁भय 172252
▁केवलं 172234
▁बने 172229
▁फेसबुक 172110
▁رہے 172050
▁सप्ताह 172035
▁मक्कळ् 172027
▁निऱ 172009
▁सकल 171881
रुम् 171826
▁पहिलां 171805
▁जॊतॆगॆ 171771
▁विकल्प 171705
▁समेत 171668
▁नां 171515
▁नाना 171507
▁ऱिप्पो 171476
▁मक्कळ 171452
▁इंका 171222
▁सक्रिय 171220
▁भूमि 171164
शि 171105
ूप 170834
▁اہو 170822
▁जिसके 170743
▁सामे 170623
नर 170570
▁नीरु 170508
बु 170423
शील 170375
ुको 170214
▁प्रभुत्वं 170202
▁उद्देश्य 170127
▁साहाय्य 170114
▁परिगण 170061
▁लें 170044
ठ 170003
छिलाम 169980
्रो 169958
▁पथ 169912
▁N 169838
▁फे 169704
्न 169608
▁बेहतर 169568
▁सिस्टम 169527
िऩ् 169509
▁परीक्षण 169464
▁दिली 169324
▁प्रकट 169271
▁घणी 169191
▁تمام 168955
▁सिद्ध 168926
▁ग्र 168906
▁थशे 168802
▁चेर 168785
G 168751
▁चाहीदा 168722
▁पॆऱ 168684
▁गरम 168668
▁कर्मचारी 168647
ावा 168584
▁ऒकटि 168584
िरुत्तदॆ 168583
▁लिये 168512
र्क 168449
▁ऒव्वॊरु 168425
▁ऑनलाइन 168209
▁चिन्त 168200
प्पा 168159
त्व 168041
▁मल 167844
ङ्ङळुटॆ 167720
▁होग 167645
▁भेज 167630
▁सड़क 167599
ांचा 167564
▁والے 167548
▁सुविधा 167497
प्पै 167493
▁ڪرڻ 167435
▁वृद्धि 167421
कल 167366
▁विवाह 167314
▁आण 167256
णार 167238
▁संस्था 167177
▁हमारी 167099
▁हशे 167095
▁चालक 167094
▁ट्वीट 167082
ंटे 167071
▁ब्या 167042
▁स्बास्थ्य 167041
ॊन्नुं 166951
▁कानून 166765
स्क 166639
▁उऱ 166599
▁विशिष्ट 166538
गिन 166516
▁पोलिस 166505
▁अण 166386
▁नायक 166314
प्पॆटुत्त 166198
च्चि 166148
▁औषध 166146
▁स्वल्प 166107
▁बाबा 165963
क्सि 165836
जाब 165825
श् 165777
▁एसे 165774
ऩा 165723
20 165664
▁खुश 165647
▁हेळिदरु 165642
िनो 165623
▁सेवन 165503
▁बंध 165302
▁फि 165274
▁बाजार 165159
▁इल 165142
▁खुबइ 165114
▁ऒक्क 165081
▁आपवामां 165035
▁दृश्य 165019
▁प्रकारं 164954
▁रहने 164946
▁स्थल 164854
प्पट्टतु 164742
▁शक्य 164708
जा 164658
क्के 164600
सिन 164564
ुळ्ळऩर् 164500
रल्लि 164484
▁साकष्टु 164367
▁रात्रि 164308
▁व्यवस्था 164285
▁शारीरिक 164186
▁मुटियातु 164050
▁अनेदि 163996
▁अंतर 163972
▁कौन 163922
ङ्कि 163908
▁जर 163655
▁चिक्क 163623
ंदु 163607
मार 163597
▁माझे 163532
ीर 163494
▁संदर्भ 163490
▁होए 163461
▁निरवधि 163459
▁वल्ल 163447
▁घटक 163437
▁वधारे 163379
▁मऱ्ऱॊरु 163275
िरा 163264
नाण् 163262
▁त्यात 163218
▁नाहीत 163184
▁माध्यमे 163128
▁लोकसभा 163062
▁प्रतिदिन 162946
▁अतिक 162878
▁तेम 162849
▁कूटातॆ 162841
▁माहिति 162828
▁حاصل 162821
▁लाग 162793
▁फर 162718
▁डॉ 162714
▁संदेश 162686
ुटॆ 162684
▁इव्व 162681
▁मूलम् 162639
▁अंदर 162564
▁सामना 162516
सह 162499
▁प्रणाली 162469
▁राजा 162362
▁शांति 162328
▁राह 162245
▁चुकी 162231
▁मंत्रि 162151
▁राजधानी 161990
▁घटन 161981
▁ताहा 161680
▁बाध 161650
▁स्थानिक 161595
वां 161550
▁ऎन्नॆ 161530
िला 161524
▁अशी 161484
▁अली 161474
ादि 161437
▁पोताना 161346
▁जिसे 161291
मायिरुन्नु 161270
▁खरेखर 161130
▁खराब 161110
द्ध 161052
स्तुंदि 161052
▁अधिकृत 160968
▁शिक्षक 160919
▁डर 160883
▁सेरिसि 160867
▁कऴ 160838
▁कह 160714
▁अनु 160707
▁किछुइ 160661
▁ہوئے 160625
▁नवा 160560
▁तरी 160535
िकळ 160475
▁सर्वात 160435
▁اگر 160431
मिल्ल 160297
▁पिऱकु 160293
तां 160264
▁बॉलीवुड 160261
विट 160228
▁आयोग 160228
▁येथे 160169
▁चला 160070
▁उपरे 160031
▁मुक 159999
▁हैः 159998
टर् 159932
▁केबल 159922
▁اپنی 159887
▁ऎंदरु 159819
िनल्लि 159818
▁अभियोग 159813
▁चिंता 159768
▁आव्युं 159652
▁उण 159647
▁चॆय्या 159603
▁ऎन् 159590
▁खाद्य 159542
▁त्रण 159422
▁संशोधन 159398
▁सिं 159372
▁करून 159336
▁किसानों 159238
न्ने 159194
न्ऱ 159191
▁पिऩ्ऩर् 159186
य़ेर 159094
▁मरो 159075
▁सूर्य 159026
▁अन्न 159011
▁भाई 158948
▁ईग 158884
िनुं 158849
▁गुर्त 158829
▁बेहद 158695
▁टे 158661
▁चूड 158604
▁रोजु 158600
िरु 158538
▁बिरुद्धे 158369
▁करणे 158357
▁अक 158339
▁इरुक्किऱ 158309
▁थीं 158302
मर 158280
▁माऱ 158253
▁मूरु 158217
प्पट्टुळ्ळतु 158172
▁सामान्यवागि 158171
▁यात 158041
▁अवरतु 158023
▁स्मार्टफोन 158022
▁चालु 158008
▁मदत 157948
▁X 157941
M 157917
गार 157777
▁भारती 157736
▁एज 157715
▁भारतद 157682
▁بات 157671
▁सुरक्ष 157571
▁एकटु 157492
▁जातीय़ 157473
▁अवि 157445
▁प्रस्ताव 157420
▁साफ 157390
▁सुनिश्चित 157361
▁रा 157358
▁= 157283
▁माने 157217
▁जाणकारी 156990
▁तॆलिपारु 156948
▁तारपर 156923
▁ہونے 156873
▁जोके 156795
ुकळि 156780
▁येन 156704
▁मंदिर 156657
▁तेनो 156612
▁करतां 156579
▁پی 156550
▁H 156540
▁कहना 156484
ळुं 156377
▁आमे 156356
ॆङ्किलुं 156263
▁लिखा 156198
खी 156185
▁आकुम् 156076
▁मारे 156001
णॆ 155981
▁अभिप्राय 155909
▁स़ 155904
▁मोटा 155900
टल 155891
▁त्यानंतर 155742
▁ऎंदुकंटे 155727
▁थयो 155681
▁सुख 155546
▁अमॆरिक्क 155504
▁تھی 155498
▁खात 155464
▁s 155462
▁पाक 155378
▁इदक्कॆ 155375
▁एमि 155371
▁स्थापित 155352
▁वेलै 155350
हर 155347
▁होइआ 155322
▁असतात 155309
▁पॊलीसरु 155309
यिलॆ 155206
▁धरनेर 155167
चार 155133
▁सर् 155131
▁व्यापक 155073
र्लु 155024
ामे 155023
▁तोर 154923
▁डेट 154820
▁مجھے 154693
▁हओय़ार 154535
▁स्वतंत्र 154527
▁पिन्नॆ 154369
▁मूडु 154359
▁अला 154353
▁कॊण्टु 154337
▁दुःख 154290
वानुं 154253
ऩि 154222
▁क्लिक 154173
ाती 154165
▁बंगाल 154078
▁पॆऱ्ऱ 153928
▁ऎल्लां 153836
▁विरुम्प 153659
▁جب 153650
▁दोन्ही 153641
▁کرتا 153555
▁300 153483
▁किभाबे 153436
▁मुताबिक 153435
▁ضرورت 153379
टार 153284
▁संविधान 153203
▁L 153197
▁शा 153131
▁उसका 153121
▁45 152983
▁तय 152954
स्ट् 152838
तै 152681
िको 152652
ांमध्ये 152604
▁आठ 152539
▁डिस 152453
ुत्तेनॆ 152386
▁संभावना 152369
▁करवुं 152211
▁लिआ 152171
▁परत 152138
▁हात 152084
▁ञ 151980
टिंग 151979
▁ऒप्प 151908
▁सेट 151871
▁बइ 151823
▁जेल 151822
▁तिळ 151766
रै 151690
▁परिबर्तन 151655
▁माजी 151649
▁स्नेहित 151641
ांचे 151515
er 151478
जो 151472
▁गेम 151451
▁हादसे 151437
▁कला 151365
▁घरे 151301
▁थाक 151297
▁लगाया 151262
▁कऴियुं 151256
ैयिऩ् 151247
▁मऱ्ऱ् 151241
▁आण्टु 151196
▁सैनिक 151142
▁जिससे 151071
▁पंतप्रधान 151071
▁मुख्यमंत्रि 151007
▁जिला 150985
▁सूची 150915
▁شامل 150805
▁सध्या 150775
▁निर्भर 150774
▁پہلے 150766
▁चाहता 150699
▁दर्श 150618
क्को 150570
▁नदी 150472
▁रोक 150468
भाग 150321
टिय 150251
▁आपकी 150219
L 150213
▁समयदल्लि 150154
▁सां 150109
▁ऎङ्ङनॆ 150071
▁आयोजित 150056
▁अप्पटि 149976
पूर्ण 149922
▁अमेरिक्क 149900
▁मुलाकात 149899
▁शातं 149860
▁प्रवास 149845
▁त्याच्या 149809
ुवतु 149808
▁अङ्ङनॆ 149800
▁अवरन्नु 149784
▁2012 149694
▁महिलाओं 149674
▁बिश्ब 149662
▁मीण्टुम् 149633
▁ٿو 149477
ुप् 149459
वल्ल 149438
▁करतो 149413
ान्त 149270
▁देता 149204
▁आळ 149112
▁चुके 149087
▁मुक्किय 149083
मत 149012
▁प्रोग्राम 149006
ॆयागिदॆ 148969
▁करेछि 148932
▁रेल 148931
▁शाख 148929
▁सुयोग 148926
ंदा 148855
▁जांदा 148790
माने 148644
गर 148634
▁आत्म 148598
▁हले 148483
▁अशा 148453
c 148422
▁प्रयोजन 148365
▁तट 148350
▁भाजप 148317
▁थाकते 148316
▁महीने 148291
▁युव 148275
टुत्त 148202
▁बहार 148158
▁देशेर 148130
▁मानुषेर 148049
्ता 148035
▁अंटे 148033
▁ऎण्ण 147996
द्दरॆ 147983
▁आगिदॆ 147922
ामि 147884
▁उम्मीद 147876
च्चिट्टुण्ट् 147851
▁अं 147787
▁निर्धार 147763
▁कय़ेक 147750
▁मट्टुमे 147568
▁اسان 147521
ॆंट् 147484
▁फ्री 147457
▁सके 147403
▁आन 147351
ॊक्कॆ 147344
▁ब्ल 147337
▁प्रकाशित 147311
▁कटन्त 147278
ल्या 147244
▁पुल 147211
दान 147188
▁फिरे 147160
▁अवन 147070
▁in 147052
▁भल 147032
▁साम 146902
▁अतिना 146897
▁कां 146868
ळै 146820
▁सतत 146796
▁तेज 146715
▁भेट 146700
▁भगवान 146604
तील 146555
▁द्बितीय़ 146554
▁सलमान 146548
▁मऩित 146542
▁دو 146484
▁असल 146446
▁आइन 146425
कं 146395
नार 146320
▁अबश्यइ 146177
س 146155
वल 146103
ियागि 145992
▁स़ुरू 145982
▁कोहली 145888
आर् 145879
▁जाए 145861
ड्स 145819
▁सृष्टि 145799
▁تھے 145773
▁विर 145699
▁तुहाडे 145598
प्पटुकिऱतु 145552
िरुक्क 145532
ुवि 145371
▁राज्यों 145313
▁वाटिनि 145291
▁शकतो 145263
▁विदेशी 145199
▁नियमित 145171
ट्टॆ 145149
▁तुलना 145123
▁प्रशासन 145088
▁जिले 145010
तिन् 144983
00 144962
ट्टिल्ल 144945
▁प्ल 144945
▁उपयुक्त 144942
िसलागुत्तदॆ 144939
ऎं 144880
▁2013 144846
▁धन्यबाद 144824
▁एफ 144801
्ट् 144795
तिर 144664
▁अक्कड 144641
▁गौरव 144613
▁आय्कॆ 144599
▁लागत 144575
त्र 144553
▁अळ 144535
▁अतऱ्कु 144527
िंचवच्चु 144473
▁साग 144409
▁सू 144388
▁ओफ 144382
▁तिरिगि 144355
▁कूट्ट 144309
▁थयुं 144292
▁आयोजन 144248
▁ज्यां 144223
▁याइ 144120
ेले 144077
ियाऩ 143963
▁अरु 143959
वानो 143953
▁द्रुत 143875
▁थया 143867
▁आपल्याला 143791
टं 143721
तिक 143678
िंग 143597
▁खेळ 143490
▁वजन 143488
▁मगर 143390
▁माडबहुदु 143362
▁इनि 143305
▁रण्टु 143272
िक्कु 143204
▁पडॆय 143148
▁वरुकिऱतु 143103
▁ऎन्ताण् 142981
▁शानदार 142866
▁ऒळ 142850
▁मॊत्त 142781
▁परिवर्तन 142764
टै 142746
▁प्रतिक्रिया 142738
ोप 142716
▁جائے 142699
▁रखने 142661
▁भय़ 142652
▁वन 142650
ियाद 142626
▁तऩतु 142453
▁भार्य 142452
▁رہا 142296
िंचाडु 142178
▁कोइ 142151
िकल 142119
▁शकते 142100
▁ای 142096
सल 142038
हो 142021
▁पछन्द 141999
▁گی 141993
ंब 141939
▁विस्तार 141879
▁कर्या 141836
ुवु 141826
▁आहत 141814
▁निते 141692
▁परिमाण 141679
प्पॆट्टु 141651
▁होतो 141548
یوں 141527
▁नोट 141520
▁समुदाय 141510
▁गळ 141492
▁शिशु 141425
ीत 141370
▁कोर 141345
▁ہوا 141315
▁साहित्य 141212
▁एं 141054
▁गेले 141051
▁परामर्श 141043
▁शिक्ष 141005
▁दान 140973
▁ٿی 140936
िस्तारु 140925
▁लोकप्रिय 140888
▁दुटि 140881
ंदर 140770
लिल्ल 140712
▁चॆंदिन 140709
▁पडशे 140690
▁बनाए 140673
ॎ 140655
वत 140647
▁देह 140567
▁स़ामल 140558
▁अरचु 140549
▁तक्कुव 140532
▁महत्व 140518
▁समज 140509
▁ऐदु 140501
ेत 140495
▁विकसित 140447
▁मार्किन 140440
▁ह्या 140367
▁केळ 140338
▁विट्ट 140304
▁पेच 140223
▁उंच 140145
लाई 140118
▁سکتے 140094
▁समये 140076
▁छोटे 140056
▁हमले 140024
▁लग्न 139913
िकर 139824
▁शुल्क 139786
▁जीवितं 139776
▁इळ 139643
▁बण्ण 139579
▁दीनि 139556
▁ऊर्जा 139526
▁नुहेँ 139499
▁तऱ्पोतु 139498
ैक 139460
णु 139458
▁पाया 139387
▁اب 139385
ागुत्तदॆ 139372
ियं 139364
▁रखा 139364
▁संसद 139359
▁शुभ 139344
ओमां 139320
ियन 139254
▁स्वागत 139173
ांश 139143
हे 139130
▁असून 139106
ोनो 139103
वन 139003
▁राजनीतिक 138931
▁विळ 138907
▁पुनः 138905
▁योगदान 138876
ॆन्न 138841
िरिक्कुन्नत् 138808
▁पय 138798
िक्कुन्नत् 138769
▁सण्ण 138707
रिंद 138671
▁बछरेर 138656
▁150 138646
▁कौणसि 138591
▁होइ 138478
▁चॆप्पारु 138431
▁ग्रामीण 138430
्लि 138410
▁नम्मुटॆ 138381
▁हासिल 138324
ग्रस् 138304
▁स्थापन 138301
िकळुं 138254
R 138202
▁अनुकूल 138098
ग्र 138015
लाम 137990
▁अन्नारु 137988
▁येत 137970
▁दाम 137951
▁कीते 137940
▁करछेन 137934
▁उभय़ 137930
▁नमगॆ 137868
▁जु 137848
▁नन 137844
▁75 137842
▁x 137834
▁बाग 137810
▁उंडालि 137793
ट्र 137787
ओनी 137738
▁यहाँ 137723
x 137722
ायो 137714
▁प्रधानमन्त्रि 137641
▁वऴङ्क 137625
▁उट 137593
▁मुऱै 137536
▁जुड़े 137523
▁इनमें 137466
▁प्राचीन 137465
▁सेवॆ 137377
▁यादव 137334
▁दृष्टि 137328
▁ऒब्ब 137312
▁पार्क्क 137057
▁सिनेमा 137054
▁ऑ 137047
▁डाउनलोड 137042
▁कात्त 137019
o 136955
▁संतोष 136933
▁अनुमान 136922
▁उप्पु 136854
▁सीट 136798
▁गोल 136714
▁बेर 136707
▁लु 136701
▁स्थानीय 136692
▁वर् 136654
ळं 136596
ुकिऱेऩ् 136577
ہ 136574
▁कोईपण 136564
हार 136545
▁वरु 136490
▁एक्स 136412
▁2008 136398
धार 136390
▁जण 136375
▁गण 136364
▁वित 136347
्य़ 136287
▁ओळख 136194
▁بارے 136154
▁काव 136081
▁कीभाबे 136044
▁दशक 135972
ंतह 135938
▁गोष्ट 135936
▁पोऩ्ऱ 135904
पाल 135893
▁पुन्हा 135883
▁स्टेशन 135866
▁मतलब 135798
▁दूसरी 135795
▁तॊटर्न्तु 135782
▁आलोच 135732
▁निर् 135704
▁2011 135690
स्प 135629
▁टका 135600
▁येमन 135575
▁काश्मीर 135447
त्तिल 135426
▁करुत 135375
▁हओय़ा 135370
▁खु 135313
▁हलवारु 135286
▁कूऱ 135263
▁रेलवे 135249
▁मोड 135245
▁टै 135200
▁एकॆंदरॆ 135175
▁इङ्के 135172
▁अऱ 135116
▁मामलों 135077
▁मोटी 135046
▁प्रती 135030
▁ब्यबस्था 134981
▁अमॆरिक 134980
▁बराबर 134977
▁& 134946
ऱै 134888
▁गॊ 134852
▁दिशा 134797
▁एऩ् 134778
▁समाचार 134730
▁मोट 134719
▁यांच्या 134693
▁अप्पो 134654
▁होईल 134627
▁पान 134614
▁वेग 134611
▁चित्रपट 134577
▁شروع 134548
▁टाका 134536
▁गति 134469
ीर्कळ् 134420
ांग 134417
▁देखि 134403
▁चॆय्युन्न 134366
▁सामर्थ्य 134350
▁वायरस 134249
ियुम् 134237
▁शक 134229
▁तेवै 134208
▁मरु 134161
सॆ 134152
िआ 134091
▁آئی 134083
▁विडुदल 134057
ऩम् 134016
▁चिर 134004
ऩे 133977
ेंट 133916
▁फाइल 133884
▁यान 133881
ियम 133878
ोर् 133866
▁जमा 133861
ेंगे 133850
ुकळै 133844
▁बोध 133821
ोमां 133737
ंक 133664
▁नया 133655
▁यॆ 133644
ॆल्ल 133635
▁शेख 133632
▁गलत 133582
▁पड़ा 133524
ैये 133502
▁संस्करण 133433
▁राव 133405
▁भारत् 133316
िक् 133314
▁प्रभुत्व 133304
▁पैसे 133290
▁मून्न् 133283
▁उंट 133235
▁स्वच्छ 133209
▁जोर 133165
▁तोन्न 133123
▁प्रयाण 133047
▁मुल 132995
▁एड 132932
टिक 132924
▁देना 132878
▁انہوں 132741
गॊंड 132707
▁चॆल 132664
▁कार्यालय 132623
▁गयी 132598
▁शासन 132574
▁जरिगिंदि 132515
▁पेरु 132415
▁चिऱन्त 132365
▁कल्प 132325
▁पहेला 132318
षि 132312
▁गुर 132309
▁ठ 132302
ातॆ 132299
▁इन्हां 132241
▁समाचारं 132238
▁स्टे 132218
▁कान 132185
भर 132173
▁किसान 132153
▁वास्तविक 132091
▁योच 132017
▁دی 131988
िबि 131955
▁फले 131797
▁चोक्कस 131788
िऱतु 131748
▁छाड़ा 131729
▁अवकाशं 131719
▁करब 131712
▁वेण्टिय 131693
▁جاتا 131624
▁मंजूरी 131616
ीय 131589
▁संभवि 131559
िरे 131550
▁क्षेत्रों 131548
▁ملک 131509
▁रै 131481
▁मीद 131463
्ताऩ् 131432
प्पॆट 131351
▁अमॆरिका 131304
िलिरुन्तु 131256
▁बारिश 131256
▁परिसर 131218
▁ब्यांक् 131160
▁रक्षण 131121
▁नटि 131113
▁पिऱ 131095
ल्स् 130987
ष्टु 130882
▁بہ 130809
▁पेट्रोल 130765
▁डाल 130749
फा 130745
▁आपणा 130726
▁हिंदू 130717
▁अटक 130663
▁अवधि 130622
▁परस्पर 130531
्यात 130502
ुत्तिदॆ 130487
▁योगायोग 130410
▁आकाश 130399
ाति 130395
▁आण्ट 130378
▁उत्पत्ति 130316
▁घटे 130297
िच्च 130135
▁बारि 130086
▁आक्रमण 130056
यर 130032
▁इदरिंद 129987
▁कुमार् 129974
गळिवॆ 129942
▁चिकित्सा 129915
▁पर्यावरण 129908
▁श्रेणी 129874
पण 129854
▁आरु 129854
▁ڪیو 129839
▁रहेशे 129822
▁पोलिसांनी 129820
ल्ले 129798
▁पहला 129797
छिलेन 129617
ॅ 129604
▁अतिल् 129553
▁फेल 129496
टिंग् 129494
▁बनाया 129463
▁चूप 129457
▁वधीआ 129445
धर 129360
▁स्टार 129346
प्पटुत्त 129345
▁पाइ 129341
▁एकमात्र 129320
जर 129316
▁विकेट 129267
▁आग्रह 129263
▁तेबे 129219
विल्ल 129207
कां 129180
द्र 129179
▁सभा 129149
▁अगले 129111
▁ڈی 129084
्वे 129069
▁माडुत्तदॆ 129059
▁तळ 129058
प्पॆटुन्नु 129016
▁} 129009
▁गरज 128942
ुलतो 128920
▁शुरुआत 128869
जार 128830
▁ऒऩ्ऱु 128810
▁सहायक 128777
र्ट 128776
▁वद्द 128744
था 128733
▁वेऱु 128687
पत्र 128650
▁साधारणंगा 128641
▁हेब 128552
▁उपाय़ 128544
▁अविटॆ 128499
▁मात्रा 128497
▁स्ब 128481
▁निजी 128386
▁ऎऩ्ऩै 128325
▁मिलियन् 128311
▁सांसद 128259
▁कॊटुक्क 128228
▁वित्त 128206
▁ऎंत 128156
ङ्कळुम् 128149
ुकयाण् 128138
▁वध 128138
▁असाधारण 128119
▁मतदान 128096
▁आराम 128045
▁सैन्य 127860
▁ऐतिहासिक 127819
▁गीत 127812
▁तॊ 127796
▁सम्पर्क 127795
▁कुऱित्तु 127784
▁वीण्टुं 127768
ियतु 127753
ियम् 127694
क्कम् 127630
▁कखनो 127591
न्नू 127452
▁कार्यङ्ङ 127439
िंचालि 127427
▁किर 127352
▁दिवसं 127343
F 127335
▁एसब 127285
▁हाई 127278
▁बाळको 127258
▁संघटन 127225
▁रह्युं 127176
▁हेळिद्दारॆ 127140
▁नक्की 127124
▁होणार 127076
ङ्कळ 127065
▁सिंग 127008
स्य 126957
ोंडि 126938
▁पाप 126934
टाइ 126930
▁सम्पूर्ण 126883
▁अल्प 126869
▁इप्पटि 126863
▁تم 126855
▁तलै 126841
▁चिन्ता 126829
▁इप्पोतु 126800
▁बोलि 126798
▁तुमच्या 126754
ंड् 126743
▁पैसा 126578
▁शांत 126566
धान 126510
▁देन 126451
▁जनरल 126438
▁बळिक 126423
▁वैरस् 126420
▁गॊप्प 126398
▁एने 126388
▁आधिकारिक 126343
▁क्रि 126342
▁हजु 126332
▁पहचान 126325
▁{ 126300
▁ऎऩ्ऱार् 126299
तात 126286
▁रख 126253
▁आगळ 126229
फी 126184
▁बर्ष 126160
▁गोष्टी 126158
▁शीघ्र 126158
▁दावा 126144
▁साइ 126059
▁ऎंदुकु 126036
▁समय़े 126036
ोटु 125984
▁गान 125945
▁यदिओ 125936
▁ट्रेन 125865
▁चलते 125785
▁संकेत 125762
▁वऴि 125758
▁तेणे 125698
ुटैय 125689
▁चरण 125663
▁कुरितु 125656
▁एरपर 125605
मुण्ट् 125582
ऩाल् 125572
र्ल 125563
▁चॆय्युन्नु 125559
▁फी 125516
नीय 125492
▁ट्विटर 125438
▁त्याचा 125407
▁इला 125384
रन्नु 125376
▁मुख्यमैन 125363
ूल 125341
▁पहेलां 125266
▁शिव 125235
ुनि 125231
▁चेसे 125219
▁देखने 125187
▁नेट 125166
▁گئی 125119
जु 125112
▁एकदम 125056
▁कहे 124999
▁माडिद 124942
िलुळ्ळ 124913
▁सोच 124873
टन 124858
▁वाट 124810
ुमु 124807
▁पोतु 124780
रिय 124752
▁कही 124713
▁भार 124712
▁करोना 124708
विदॆ 124682
▁याच्छे 124599
▁पत 124587
्त्त 124586
▁खोज 124578
ोना 124553
ंलोनि 124516
माड 124508
िकॊळ्ळ 124508
▁नारी 124480
▁मीतु 124459
▁रीति 124381
▁ऒदग 124366
▁उपरांत 124333
▁वेण्ट 124315
▁गयो 124256
▁सच 124240
▁युक्त 124191
▁परिहार 124167
क्कुकयुं 124123
▁प्रशिक्षण 124102
▁कूटि 124037
र्च 123975
ाको 123962
▁बेरॆ 123939
िरलिल्ल 123921
▁पोयि 123875
ुतो 123865
GB 123818
▁कॉ 123770
▁यारु 123760
▁400 123753
▁श्रम 123735
कळ 123714
▁खेला 123690
▁भाइ 123687
▁आहोत 123586
निय 123563
▁पैदा 123550
ाकर 123420
ऩ्ऱु 123360
▁एंड 123348
I 123304
▁मऱ 123283
▁طرف 123259
▁नौ 123254
▁संक्रमण 123245
▁सबु 123194
▁तदन्त 123158
तेइ 123093
ुकि 123085
▁आन्लैन् 123079
ञ्ञ 123069
फे 122955
▁हिंदी 122940
▁پاکستان 122912
▁मृत्यू 122904
▁विवरण 122894
▁अ्याप 122887
एन 122870
▁गुणवत्ता 122870
द्देवॆ 122827
▁खाते 122792
ादेर 122780
माण 122773
▁पौ 122733
▁पऴ 122711
▁• 122697
▁बदलाव 122652
12 122620
▁चेस्तुंदि 122616
द्दी 122601
▁पक 122592
▁वक्त 122501
त्तिलाण् 122481
▁مختلف 122474
▁प्रॊ 122454
▁मोत 122432
तन 122405
▁अंगे 122403
▁परिबार 122397
▁वॆच्च 122361
इल 122360
ढ 122350
▁पऱय 122292
▁बीजा 122260
▁म्या 122258
ामध्ये 122253
▁अच्छे 122214
▁कारवाई 122212
▁शादी 122096
▁युऎस् 122090
▁उण्ट 122086
प्पतु 122052
▁थाकबे 122017
▁डो 121979
▁छात्रों 121973
ादरू 121967
▁शेर 121941
▁देशीय 121913
▁पारबेन 121905
▁धीरे 121876
▁उंटे 121866
▁काळ 121841
▁पहुंची 121773
खे 121757
▁चैन 121749
▁बेक 121749
▁विस्तृत 121743
▁सारवार 121721
परि 121713
▁देर 121708
▁खो 121699
▁हालत 121692
▁48 121681
्वा 121640
▁اسے 121567
▁विराट 121567
▁चंद्र 121540
ूट 121517
त्तिनु 121512
▁वखत 121491
▁पिन्नीट् 121467
▁इम 121408
▁सिनिम 121387
▁बळकॆ 121373
▁प्रकृति 121367
▁चमूक 121339
▁मिले 121334
▁तेमज 121198
▁कोथाय़ 121151
▁बुझते 121117
▁जापान 121090
▁गठन 121060
यु 121044
▁विष 121032
▁दिले 121029
अर 121023
▁गल्प 121017
ुल्लो 121012
▁बल्कि 121010
▁संग 120931
जॆ 120877
लेन 120864
िय़ान 120834
▁घोषित 120833
▁of 120821
▁पर्याप्त 120789
षण 120778
म्मि 120775
▁सुपर 120760
▁पनिचे 120711
▁रचना 120640
्यास 120613
▁دن 120552
▁राजनीति 120544
▁हलवु 120493
▁धार्मिक 120476
वाल 120410
▁जाति 120408
▁हवाई 120402
▁एवुं 120400
क्कप्पट्ट 120396
▁पठ 120384
▁आसे 120379
▁अत्यन्त 120364
▁अवऩ् 120329
ऱ् 120298
▁अधिकांश 120279
▁स्वरूप 120274
▁कोड 120254
▁कखनओ 120207
▁مطابق 120196
▁विद्य 120092
चर 120068
▁नाट 120060
▁अत्युत्तम 120053
क्किंत 120026
▁मत्तॆ 120002
▁इऱ 119982
▁उङ्कळ 119982
▁लैंगिक 119979
िक्कुं 119965
▁तेजी 119932
▁चाह 119889
ट्टुक 119861
▁असतो 119754
ुक्कुम् 119601
▁अल्लि 119529
▁मूऩ्ऱु 119529
▁ऎऴुत 119504
▁अर्ज 119484
ुमॆन्न् 119467
त्तुं 119453
C 119442
▁अवळ 119395
▁संघर्ष 119316
▁2009 119301
▁बता 119165
दो 119155
▁कोट 119075
ऩार् 119071
▁अंतरराष्ट्रीय 119042
जनक 118997
▁अवरॆ 118972
डू 118931
रिक 118904
▁स्वतः 118887
▁कहते 118877
ाली 118866
▁بی 118852
▁प्रांत 118831
0 118830
ाऩ् 118809
▁पोतानी 118783
माऩतु 118730
▁दादापु 118727
▁इप्प 118723
▁सहायं 118655
▁शिल्प 118634
खो 118573
▁مون 118538
▁मुंदिन 118527
▁मुऱ 118500
प्पट्टु 118418
▁प्रचुर 118411
▁अथबा 118407
▁ऎल्लाम् 118401
▁आरोपियों 118332
िकी 118328
▁रोहित 118309
▁रोल 118302
▁चेयडं 118296
ुद 118286
▁बय़स 118283
आइ 118254
टेड 118229
▁बांलादेश 118213
▁विचारण 118202
ारॆ 118167
र्ड 118166
▁उण्मैयिल् 118165
▁परिचित 118133
▁करु 118117
▁सुप्रीम 118076
▁अया 118068
ुकळुटॆ 117987
▁अनुसर 117950
▁आभार 117935
▁किंमत 117913
A 117897
मय 117866
▁33 117841
▁समाप्त 117768
ुळ्ळऩ 117724
▁कलिसि 117714
▁2010 117705
मिक 117702
निगॆ 117687
▁नेरम् 117677
▁बळस 117662
▁तॆलुसु 117607
▁चेसि 117602
▁अवै 117553
िन्त 117539
इन 117480
V 117418
▁नेटवर्क 117400
▁व्यत्यस्त 117331
कर्ता 117329
▁कारु 117315
▁सेल 117314
▁जम्मु 117308
ंप 117287
▁चोट 117260
रक 117258
▁वल 117227
▁अपील 117211
▁पर्यटन 117193
▁रहस्य 117167
▁केम 117143
▁मिस 117117
य्क्क 117115
▁वास 117086
▁पण्य 117055
टिव 116972
▁ग्रुप 116972
▁سکتا 116925
▁निक 116903
▁व्य 116875
▁नक 116871
▁बन्धु 116858
▁कॊनसाग 116809
▁लेखन 116700
▁बिन 116694
व्व 116682
▁बाब 116673
्ति 116627
▁मिलियन 116623
▁अनिल 116614
▁क्षण 116597
▁पॆट्ट 116591
ुवॆ 116567
▁धरावे 116556
▁कैमरा 116505
▁करेछिलेन 116437
▁आलोचन 116428
▁दुआरा 116424
▁कुऱ्ऱ 116377
▁परिश्रम 116371
िंचबडिंदि 116360
▁एहाकु 116351
ीक 116324
▁कल्पना 116317
▁बृद्धि 116246
क्षण 116245
▁अंक 116244
▁राहत 116230
▁कॊल्ल 116223
िसितु 116219
ण्टु 116215
▁ब्यापारे 116208
शास्त्र 116197
▁इंदुलो 116189
▁बास 116181
▁लोड़ 116164
▁स्थापना 116138
▁मिलने 116110
▁कौ 116017
ष्य 116012
▁पडे 115989
▁इन्तिया 115959
बड 115921
▁व्यायाम 115902
नॆय 115893
▁मेडिकल 115876
▁इतऩाल् 115866
▁زندگی 115834
▁केवळ 115831
▁पॊतु 115828
▁तन्ऱॆ 115783
पू 115777
▁बिषय़टि 115760
▁चेस्त 115746
▁पुत 115740
▁जू 115722
▁छेले 115698
▁करिथिले 115621
ुकय 115612
ील 115607
िकळै 115535
य़ार 115528
▁چھ 115527
▁करनी 115520
▁फ्र 115465
▁लभ 115423
ियिंद 115382
ललो 115303
▁कर्म 115288
▁तरु 115288
▁होऊ 115279
▁पऱञ्ञ 115257
रुत् 115246
ियल् 115227
▁O 115193
▁सल्ल 115191
▁कल्याण 115105
ॆयाग 115102
▁उळ 115092
▁आरम्भ 115066
ॊंदु 115047
▁प्रजलु 115029
ाका 115016
▁करिछन्ति 115010
▁नडुवॆ 114996
▁K 114894
▁ऎदुर 114892
लॆ 114890
िति 114865
ूर् 114857
चित 114847
▁निर्बाचन 114843
▁छतां 114830
▁किवें 114827
▁आपका 114803
ङ्ङळाण् 114783
मेन्ट 114745
▁सक 114744
b 114714
▁पऱयुन्नु 114698
▁कलाकार 114679
न्ति 114658
ङ्ग 114633
ऱुक 114627
्ये 114610
▁गि 114589
▁इन्नु 114588
▁मजा 114565
ड्ड 114521
▁अंतर्गत 114451
▁ऎटुत्त 114381
गळॊंदिगॆ 114369
▁रहि 114349
ट्टा 114320
▁फीसदी 114275
▁कब 114273
▁शकत 114273
▁तॆलुसुक 114256
ामल् 114138
वीं 114125
▁हों 114082
पॆ 114064
▁امریکی 114063
▁एखनो 113989
ॆन्नुं 113954
▁नाटक 113951
▁ऐप 113941
▁वच्चिंदि 113938
भार 113929
▁करेछिल 113926
▁सहायता 113909
कॆ 113901
▁ऎंपिक 113895
▁बर्तमाने 113884
▁उम्मीदवार 113871
▁बलेछेन 113844
▁आदमी 113836
▁हवा 113832
▁مدد 113827
▁हॊंदिरुव 113822
ओना 113817
▁धारणा 113779
टिक्क 113752
▁खा 113650
ॆङ्कि 113620
▁च्या 113530
▁जानान 113517
त्तिलुं 113493
▁कंप्यूटर् 113478
▁प्रतिरोध 113372
▁चॆन्नागि 113367
बद्ध 113312
▁ऑस्ट्रेलिया 113243
▁चरि 113193
ں 113124
▁वरुम् 113105
▁अतिशय 113088
▁चाहु 113075
▁चेयवच्चु 113060
ड़ि 113053
▁कधी 113027
E 112990
▁W 112863
▁विद्यार्थी 112836
धा 112809
▁मौसम 112806
▁नमुक्क् 112751
▁एहार 112739
▁बय 112730
▁वैत्त 112722
▁जातीय 112701
▁मत्तिय 112697
▁संबंधिंचिन 112681
▁प्रतिक 112626
▁अनुक 112617
▁बद 112547
▁शि 112545
▁इतऩ् 112480
▁पाहिजे 112453
▁चेक 112433
वाय 112375
ाऩ 112360
▁नमोदु 112355
O 112339
▁संसारि 112331
▁नाळ् 112330
िरुन्त 112310
▁मोर 112268
▁तॆरिवित्त 112266
▁पेट 112227
ट्टिय 112206
ृ 112197
▁अवरै 112116
लां 112100
▁बातचीत 112059
▁पार्क 112054
▁बेड 112047
▁# 112030
देश 112000
ियू 111971
▁प्रकृत 111921
▁थिला 111914
▁प्रिय 111906
▁सठिक 111867
च्छि 111856
▁विक 111834
▁सहकार 111815
▁एटाइ 111766
लक 111760
▁मेय़े 111753
▁वार्षिक 111742
▁अछि 111741
▁त्याने 111737
▁दवा 111690
▁क्व 111597
▁36 111586
▁वेण्टि 111559
▁नोकरी 111545
ियाव 111543
▁ایس 111494
▁माना 111478
▁पार्त्त 111464
▁तप्पु 111445
▁मुद्दे 111428
▁इप्पटिके 111423
▁बिश्बेर 111374
▁कमरे 111312
▁महिळा 111277
▁संगति 111243
ات 111214
▁ऎऩतु 111213
▁निय 111179
▁सफलता 111171
▁दीनिकि 111170
▁64 111161
▁यथा 111151
▁तलाश 111150
▁अमै 111139
वरि 111131
▁परिस्थित 111107
▁नंब 111106
▁गल 111105
▁ताकि 111075
▁वाणिज्य 111055
▁बेटी 111030
▁अतिन्ऱॆ 111004
▁सरि 110972
▁मिनिट 110965
थि 110955
▁एच 110947
▁मळे 110889
▁रूम 110873
ाकि 110865
▁अर्थं 110747
▁त्याची 110709
f 110706
ुम्पो 110685
▁इतुवरॆ 110679
▁इंड 110671
▁जै 110661
▁होतं 110552
ुमिल्ल 110541
▁चुका 110541
▁खंड 110294
▁ऎरडू 110209
▁नर 110198
▁ग्रह 110197
स्ऱ्ऱ 110145
ानुळ्ळ 110144
▁भावना 110102
▁कार्यं 110051
▁निधन 109971
रिऩ् 109915
▁ताते 109915
▁अदक्कॆ 109907
▁हरियाणा 109838
▁پیش 109807
िकॆय 109782
▁इलावा 109765
▁आय्क 109755
्ले 109704
▁छन् 109692
▁मूड 109614
▁वैयक्तिक 109592
▁अवनु 109542
किय 109537
▁बनाव 109517
▁अड 109424
▁माट्लाड 109366
▁सहा 109364
नाम 109337
▁यारा 109334
▁पोलॆ 109333
न्ततु 109306
▁उपाय 109271
▁नल 109260
▁बदले 109239
▁गये 109165
▁कप्तान 109158
▁غیر 109149
▁अवळ् 109146
▁ऎंद 109132
▁बुझ 109128
िनु 109116
ालय 109103
▁काट 109094
त्य 109085
▁हेउछि 109082
▁बरामद 109075
खा 109053
▁निलवि 109016
▁उससे 108962
▁एबार 108962
य्य 108922
▁हासपाताले 108898
▁अ्या 108882
▁अभिनय 108847
▁वाद 108834
धन 108806
▁अज 108773
ॆयुळ्ळ 108772
▁जाहेर 108748
▁नाक 108744
▁भा 108741
▁आबेदन 108677
चो 108611
▁सन्तान 108556
▁मांस 108527
▁दिखाई 108520
वान 108510
राक 108449
▁दळ 108440
▁सानू 108438
भव 108409
िलै 108408
ंपै 108390
▁पदक 108388
ॆयि 108371
ऱुं 108354
▁सेरा 108324
▁a 108304
▁भुगतान 108295
▁विन 108285
ल्ला 108266
▁करेगी 108264
▁वाच 108263
▁युवा 108260
▁थोडा 108247
▁भौतिक 108242
▁वॆब् 108232
▁इंट 108213
▁जमीन 108211
▁साडे 108174
▁ऎळुप्प 108101
्राय 108100
▁तारीख 108056
िसुत्तारॆ 108003
▁शी 107950
▁कव 107942
▁मालिक 107933
▁मळशे 107924
▁याचा 107920
▁वच 107919
▁खोल 107910
रुक्कु 107884
▁कंपॆनी 107877
▁निऩै 107853
▁परिषद 107851
भि 107842
▁बह 107841
▁विश्लेषण 107825
▁अर् 107734
▁पोलीसे 107658
दिदॆ 107647
ङ्कळुक्कु 107621
y 107620
▁वर्षे 107585
▁लगे 107548
▁इउ 107541
▁नटत्तिय 107538
▁2000 107535
▁प्रतीक्ष 107527
▁देण्यात 107495
▁यि 107483
▁वैश्विक 107471
▁गिय़े 107466
▁इंटरनेट 107443
▁बेटे 107430
▁शुभेच्छा 107429
्यान 107419
▁लाइन 107397
ाइन 107379
▁खान् 107371
▁उद्धार 107364
▁हॊंदि 107343
▁औद्योगिक 107291
र्ग 107287
▁युग 107283
▁कानूनु 107282
ुडु 107271
▁वर्ल्ड 107247
▁सिब्बंदि 107230
प्पॆटुन्न 107159
▁एमिटि 107119
ण्टो 107116
▁उल 107099
▁तन्नॆयाण् 107089
ंस 107084
ियर 107071
ासं 107047
▁इवर् 107038
▁ब्रिटिश 107032
▁प्राकृतिक 107025
▁अभ 106995
▁प्रेसिडेन्ट 106986
डक 106928
▁कूऱिऩार् 106882
▁इतऱ्कु 106880
क्कुऱिच्च् 106870
▁आदर्श 106847
▁भेटि 106847
▁वीडिय 106834
▁ओफ् 106825
▁दुर्घटना 106766
▁मुस्लिम 106765
▁गमन 106748
▁क्रेडिट 106737
लोनि 106700
▁ऎंबुदु 106658
▁34 106607
▁सीमित 106606
▁विजयं 106601
यू 106584
▁पॆरु 106579
▁प्रथमे 106455
लिंग 106434
▁वायरल 106396
▁डिजिटल 106392
▁सत 106380
ेंदुकु 106377
▁तेव 106368
ुमो 106365
▁मंद 106339
▁सन्द 106304
▁चक्र 106269
न्नॆ 106253
्याल 106230
▁गुरु 106218
कट 106184
▁यावागलू 106162
▁कॉलेज 106140
▁जदों 106135
▁निर्धारित 106107
▁दिला 106089
▁पहु 106086
ब्ब 106070
▁खुशी 106049
▁विरोधी 106038
▁आसपास 106000
▁देशे 105992
▁ओपर 105976
▁ऒंदे 105932
▁इथे 105912
▁प्रभाब 105910
▁مان 105893
ेइ 105892
▁जिनिस 105875
वें 105843
▁आं 105842
बद्दल 105827
चन 105826
▁मिश्र 105767
▁निर्माता 105755
ऎफ् 105740
▁दरम्यान 105728
▁सांगितले 105674
▁उत्त 105660
▁डिजाइन 105658
▁सूत्र 105644
▁जणे 105632
िंपु 105597
▁लॉन्च 105536
▁पीछे 105514
▁याक 105513
ुत्तिरुव 105483
वरॆगॆ 105472
ुकॊळ्ळ 105448
▁समर्थ 105389
ुकिऱ 105382
ुन्नायि 105359
▁حکومت 105356
▁इद्दरु 105307
ळव 105293
▁एबे 105284
▁सुरु 105261
▁अनुरोध 105235
ुतु 105211
निक 105134
▁करीए 105125
▁नडॆय 105087
ॆल्लां 105082
▁इंत 105072
ेक 105060
्वि 105040
▁कुऴ 105017
ामी 105011
▁देशद 104986
▁सालेर 104975
क्ल 104974
पूर्वक 104838
▁नॆल 104796
▁विन्यास 104769
▁जुन 104742
▁सभ्य 104732
▁पोय 104696
▁तंत्रज्ञान 104673
▁कृष्ण 104643
▁یہاں 104592
▁आन्तर्जातिक 104570
▁जोलि 104522
N 104445
▁केसु 104415
▁वायु 104397
▁ऎङ्कळ् 104390
मनि 104389
▁माराट 104379
▁अंदुबाटुलो 104361
त्तिन 104358
▁साध्यविल्ल 104346
▁नन्नायि 104334
पोतु 104318
ालनि 104310
▁नेताओं 104303
▁बळ 104302
▁बिजली 104192
▁पऱ 104174
▁याचिका 104152
▁जिन 104125
▁ऎत्र 104118
▁मुख्यमन्त्रि 104113
▁वर्षगळ 104113
▁संवत्सराल 104103
▁ममता 104052
▁ہوتا 104014
▁बधी 103962
▁मानिल 103948
ट्टे 103944
▁जून 103941
▁हैदराबाद 103928
▁बयस 103920
मू 103918
▁जर्मनी 103909
▁जैसा 103854
▁फायदा 103847
करमाय 103829
िसलायितु 103811
तॆय 103753
▁नाकि 103742
▁रहते 103727
ाइड 103692
▁i 103646
▁पहिली 103646
्तो 103614
त्तुक्कु 103601
▁कोणत्याही 103560
▁नीण्ट 103546
ण्टि 103497
▁निन्न 103467
▁शक्यता 103448
▁निवेश 103439
▁नेशनल 103432
▁मास्क 103424
▁प्रतिटि 103419
िलु 103356
▁ऒन्नुं 103330
▁जाऊ 103321
ध्य 103293
▁कनुगॊ 103264
▁मात्रमल्ल 103238
▁عام 103222
▁ऒरा 103211
▁عمل 103165
▁फॆ 103165
▁प्रत्यक्ष 103150
ेरी 103132
डुव 103111
प्पिच्च 103097
न्नारु 103093
▁आणखी 103089
▁सत्यि 103050
▁इवॆ 103037
▁रोड 103015
▁कोविड् 102990
m 102977
▁मिलेगा 102967
▁कं 102958
▁कुटुम्प 102958
ाइट 102934
▁अऱियिच्चु 102929
ुकयायिरुन्नु 102928
गण 102923
▁विधि 102921
▁माहित 102917
▁जम 102906
▁> 102903
▁भूल 102892
मधील 102871
▁मइ 102854
▁ज्या 102838
▁इङ्कु 102823
ुन्नारु 102822
लू 102810
ری 102783
ल्लां 102780
▁तंड 102711
▁اہم 102702
▁महामारी 102691
▁शु 102664
▁खाली 102640
▁कानू 102601
▁वीर 102503
ालतो 102497
▁मुंबै 102496
ॆय् 102425
▁सकारात्मक 102380
▁اے 102373
▁म्हणाले 102345
ुत्तिल्ल 102327
▁आफ्रिक 102313
क्कायि 102311
ियिट्टुण्ट् 102304
▁Google 102295
▁संदर्भदल्लि 102292
▁येखाने 102236
▁करवानुं 102160
▁नडॆद 102153
▁निजंगा 102149
ाबे 102123
▁पटेल 102069
▁निऱैय 102068
▁गुरुतर 102057
▁पृष्ठ 101995
▁चीनी 101994
ुलि 101990
न्नी 101984
▁चॆय्युं 101875
्टि 101860
ुकुन्न 101856
▁पीठ 101841
ास्ट 101836
▁प्रकल्प 101836
▁निषेध 101793
▁हाजर 101786
▁कळॆद 101782
▁विस 101757
▁तिला 101751
▁वर्षद 101751
ेल् 101748
▁तीसुक 101743
ॊक्क 101710
▁टू 101662
▁निलै 101641
ार्ड 101596
▁नटक्क 101551
▁समस्यॆ 101453
▁जीबी 101447
▁चम 101428
▁स्कुल 101417
▁हिं 101415
▁सेरिदंतॆ 101393
▁केट्ट 101349
▁तेमन 101339
▁صدر 101276
▁कऴिय 101241
▁पोस्टमार्टम 101237
▁دوران 101226
क्कां 101195
▁समारोह 101179
ग्ग 101175
ावतु 101156
▁समृद्ध 101149
▁यश 101136
▁कसे 101120
▁ण 101084
▁ईश्बर 101081
▁हिंदॆ 101077
▁शैली 101054
▁मुऴुव 101051
▁करिबाकु 101028
▁होम 100947
▁अजिहा 100945
च्चिरुन्नु 100911
्ह 100880
▁हय़तो 100842
▁आवुं 100840
▁ऐस 100815
▁कालं 100783
▁इवै 100765
▁एथिरे 100743
▁प्रि 100727
▁चुव 100719
▁चेस्तुन्न 100711
न्नाण् 100689
▁فراہم 100681
▁मार् 100680
▁संजय 100647
फ़ 100643
ियत 100641
▁امریکہ 100625
▁पिरतमर् 100584
▁गैर 100544
▁एके 100543
स्स 100510
▁आंतरराष्ट्रीय 100497
▁जटिल 100478
▁2007 100445
▁ऎन्नु 100406
▁पूर्ब 100387
▁क्यान्सर् 100323
▁अक्क 100301
▁पटि 100298
ोनी 100293
ٹی 100261
▁ऎंतो 100258
▁एट 100235
न्ऱ् 100233
़ 100208
▁मुश्किल 100198
▁कौशल 100197
▁प्रतिनिधि 100177
▁لوگوں 100155
▁कॅ 100120
▁अबस्था 100084
▁भवन 100065
▁گئے 100032
▁मनोहर 100002
▁खिलाड़ी 99968
▁जॊतॆ 99903
धे 99897
▁युनैटॆड् 99882
बेडि 99876
ियर् 99848
ेरु 99833
▁वारिकि 99831
▁मन्त्री 99824
▁नेओय़ा 99815
▁महसूस 99814
▁पुरो 99802
▁मूळ 99729
▁यार् 99698
िरिक्कुन्न 99674
ञ्ञु 99573
▁पुढे 99572
▁इवि 99560
▁जावेगा 99539
ियल 99507
▁65 99426
▁जाएंगे 99410
▁हॆसरु 99404
▁पूर्तिगा 99393
▁ऒऩ्ऱ 99373
▁राहुल् 99351
▁परिशोधन 99341
▁ویب 99340
▁सवार 99338
▁पोर्ट 99295
▁खाराप 99292
▁बच्चन 99264
▁याची 99260
्यासाठी 99225
▁शर 99187
▁युवक 99181
▁लगी 99152
▁मते 99151
▁लाव 99112
स्ट्र 99090
▁नार 98980
पट 98975
च्चा 98962
p 98957
▁अवर्कळ 98944
▁वस्त 98934
▁इद्द 98921
▁अधिनियम 98902
▁सभापति 98886
▁जानेन 98878
▁फ्ल 98850
्यान्ड 98739
▁होइछि 98721
▁पुऱ 98687
▁ऎऩ्ऱुम् 98682
▁विधंगा 98656
▁प्रकटन 98651
▁सत्यिइ 98602
▁मार्क 98552
▁कारणमाक 98529
सुक 98485
▁बीजी 98462
▁कुऴन्त 98451
▁मात्रमाण् 98436
▁अन्वेषणं 98399
▁आनन्द 98391
रिच्च 98386
▁भागं 98361
▁इंटर्नॆट् 98359
▁लोकोने 98291
▁हिरासत 98282
▁मीटर 98269
▁बीज 98186
▁सबार 98185
▁तुऱ 98152
▁वैद्यकीय 98140
▁मॊबैल् 98138
▁गुल 98137
▁तिळिसिद्दारॆ 98135
▁हण 98124
▁स्थानीय़ 98090
▁पऱ्ऱ 98069
िलूटॆ 98050
▁रण्ट 98047
▁बिजेपि 98026
▁व्यत्यास 98024
▁तेव्हा 98020
X 97939
▁दश 97897
▁وزیر 97864
▁हॊ 97860
▁लीग 97855
▁पुष्टि 97851
▁कय़ेकटि 97844
▁अपाय 97839
▁सुतरां 97837
▁अऱिव 97830
▁افراد 97821
▁संकट 97802
▁ٹی 97781
▁नोक्क 97775
▁ऎंबुदन्नु 97773
▁अप्पुडु 97728
▁समीक्षा 97722
ड़ी 97673
सम 97654
▁इरुव 97631
▁शतमानं 97620
▁पुनर 97611
▁कुर 97605
▁चॆऱिय 97588
▁करुत्त 97548
/ 97540
▁इलाके 97535
ळ्ल 97530
भा 97501
▁विधायक 97478
▁ग्रे 97455
▁सीबीआई 97455
▁मणि 97443
▁दरज 97439
द्दॆ 97425
▁स्वस्थ 97419
10 97406
▁पूजा 97384
▁उनसे 97383
ाप् 97381
▁केस् 97363
▁ताह 97338
▁हक्क 97313
▁आसक्ति 97289
▁प्राणी 97259
▁स्थ 97258
रस 97241
ाटु 97191
▁क्ष 97178
▁पृथ्वी 97176
▁प्रसार 97084
▁करवो 97071
▁हंमेशा 97049
t 97031
▁तोमाके 97027
▁स्नेह 96970
▁बिश्बबिद्यालय़ 96945
▁मुद्दा 96912
▁वयतु 96901
▁अटिस्थान 96884
▁अवरुक्कु 96869
त्तिलुळ्ळ 96867
पासून 96861
ूं 96851
▁एऱॆ 96848
ऩुम् 96817
in 96782
च्छ 96772
▁प्रोजेक्ट 96760
▁ट्रे 96712
▁रात्र 96700
▁جن 96699
▁इतना 96675
▁پاس 96662
▁मातनाड 96637
ेरे 96632
▁अस्तित्व 96609
▁शिक 96609
▁महिळ 96606
▁हित 96583
▁वालों 96509
क्टर 96481
▁लेखा 96471
▁साबित 96468
▁घटनॆ 96452
▁सूचन 96445
▁आऩालुम् 96415
तल 96413
▁फ़ 96408
ट्ल 96352
▁मध्य़रे 96327
▁विवरङ्ङ 96291
▁000 96250
टिक् 96207
▁रह्यां 96182
▁स्टेट 96153
▁देण 96137
▁ऎक्कुवगा 96132
▁मध्यम 96110
▁राशि 96100
प्पिल् 96066
▁अनिवार्य 96066
▁आंतरिक 96060
e 96042
▁ऒळगॊंड 96042
▁अमेरिकन 96029
▁ट्रम्प 95986
ओय़ 95948
▁नटन्त 95915
ायितु 95901
▁उद्यम 95899
▁किलो 95863
▁निद्र 95859
نے 95817
▁पल्वेऱु 95816
ॆन् 95813
▁दीन्नि 95777
ट्टै 95756
▁मऴ 95755
▁ईगागले 95723
▁परिजनों 95721
▁उण्म 95706
ात् 95694
▁तस्वीर 95687
▁अरब 95635
▁ऎल् 95601
▁तुर 95587
▁राखते 95562
▁असलेल्या 95542
▁बाकि 95526
▁एयर 95515
ऊ 95490
▁तत्व 95478
▁लिंक 95463
▁प्रवाह 95441
▁जोई 95434
▁पाच 95421
बडिंदि 95410
▁बीमारी 95404
▁खाबार 95389
▁ऒंद 95361
▁तेचिय 95300
▁जागतिक 95260
ेश 95245
▁श्रमि 95240
▁प्रार्थना 95220
▁जारि 95199
ांसाठी 95160
▁जवान 95148
▁दंड 95141
▁वैज्ञानिक 95129
▁मृतदेह 95119
ॉल 95091
▁लांबा 95085
तः 95084
▁किलोमीटर 95079
त्तिनुं 95059
▁दाबि 95050
▁रिंद 95042
स़न 95013
▁प्रा 95009
▁पाँच 94991
▁हाजार 94987
▁कहानी 94975
▁ड्र 94947
▁प्लान 94916
▁तॆरियुम् 94832
▁नाळ 94796
▁जरिगिन 94751
▁ऎल्लाव 94736
▁अपर 94624
▁38 94570
▁इल् 94466
▁कंडु 94444
▁मौजूदा 94419
▁رہی 94407
▁मट्टुम् 94407
ون 94404
▁घोष 94371
▁सत्र 94356
▁फेर 94329
▁بار 94323
ालन 94310
लेट 94299
▁हिंद 94289
▁सन् 94276
▁अनुमत 94273
ातून 94268
▁अङ्कु 94252
▁पूछ 94231
▁तीरुमान 94215
▁संभवं 94213
िसिकॊळ्ळ 94209
▁फ्रान्स 94198
कारि 94193
▁यत 94184
ुतल् 94145
नल 94142
▁आग्रहि 94137
ासे 94128
▁चेयालि 94084
▁सूक्त 94063
▁डोक्ट 94037
▁व्ह 94036
ुत्तेवॆ 94029
बेक 94020
▁वर्त 94011
▁अन्तत 94006
▁पोटी 94003
▁तृतीय़ 94002
▁एना 93999
▁फैसले 93974
▁नहि 93968
मॊ 93962
▁مزید 93950
▁हाक 93917
ऒ 93899
▁सिद्धांत 93896
▁असम 93894
▁तयारी 93891
▁यामुळे 93875
▁جاری 93856
▁जेने 93820
▁भेजा 93807
ंदो 93762
▁توہان 93762
▁दय 93760
▁नका 93729
▁छह 93727
▁मळ 93685
▁अल्लदॆ 93682
▁फा 93672
▁स्रोत 93670
▁इऩ्ऱु 93649
▁केमन 93645
▁त्यांची 93605
बारदु 93557
द्य 93556
▁सर्ब 93546
▁हाइ 93504
▁करवानो 93491
ुत्तिद्दारॆ 93472
▁उपयोगी 93468
▁हामी 93460
▁हमला 93412
त्तक 93407
▁निमिष 93371
ासि 93368
िरुक्किऱतु 93337
▁मान्यता 93300
ुकॊ 93292
▁हक्कु 93286
्ला 93280
▁ब्यक्ति 93279
▁पॆंच 93270
▁सिरफ 93256
▁ज़रूरी 93233
कम 93231
▁इते 93208
नेट 93201
्प्प 93188
▁इय 93172
▁आपनादेर 93165
क्षन् 93162
▁दूसरा 93159
िरिक्कुकयाण् 93125
▁आम्हाला 93098
▁वॆळ्ल 93074
▁केटलीक 93072
▁माग 93055
▁मोठ्या 93043
▁सहाय़ता 93041
▁ویو 93028
▁ऎन्नि 93010
▁वेळॆ 93006
▁धार 92982
▁ऒट्टु 92953
W 92946
▁फरार 92884
11 92838
▁नूतन 92805
▁क्यारेय 92804
िपो 92765
ैक्कु 92758
▁होवेगा 92756
.5 92748
▁करतात 92743
▁तेओँ 92695
▁तयारि 92662
▁केळ्व 92621
▁प्रापत 92584
▁वकील 92584
ियागिदॆ 92580
سی 92570
▁निवास 92537
▁पातुका 92514
▁दलेर 92509
▁भरपूर 92477
▁अमरीका 92464
चिय 92449
g 92408
कै 92384
ैक्क 92382
▁परिचय 92378
▁विट्टु 92364
▁पैगा 92273
▁उण्टु 92268
▁होटल 92265
▁थाका 92258
▁अनुयाय़ी 92254
ानोर 92231
▁चलछे 92225
▁ञङ्ङळुटॆ 92184
▁पिल्ल 92153
▁ل 92129
▁दूध 92075
▁पर्याय 92075
ङ्ङि 92064
▁सम्मेलन 92041
ऩिल् 92033
▁बाड़ि 91975
▁मट्ट 91967
▁यात्री 91958
نگ 91956
▁लिमिटेड 91953
▁निर्धर 91948
▁میرے 91935
▁स्ल 91934
ुतायि 91929
▁म्याच 91928
▁द् 91908
▁प्रतिबंध 91907
▁एवी 91900
वागिरुत्तदॆ 91882
िसुत्तेनॆ 91882
▁जीबनेर 91872
▁इन्ऱ 91798
▁कायम 91798
▁55 91789
वरॆ 91781
▁d 91769
▁चर 91759
▁मेल् 91744
▁रीत 91706
▁तीर 91675
▁तुटङ्ङिय 91674
▁कहिछन्ति 91648
▁शुद्ध 91617
▁त्याचे 91608
▁गांव 91573
▁प्रशंसा 91562
▁काळजी 91542
▁बॆंबल 91537
ऎल् 91523
▁अत्र 91501
▁तिरिच्च 91470
▁अभिज्ञता 91463
▁उत 91425
▁मक्कळु 91421
▁उमेरो 91408
▁आछेन 91371
▁आपने 91359
▁किट 91336
▁आना 91334
ट्टुं 91333
▁मुजब 91328
▁रिस 91319
र्ट् 91263
▁विद्युत् 91259
ाविऩ् 91258
कडे 91257
वडं 91231
▁ज़रूरत 91226
▁भि 91208
▁अरे 91203
िंप 91152
वुमायि 91143
▁भक्षण 91143
▁पदक्षेप 91131
▁करवी 91108
ुक्कळ् 91105
▁डॉलर 91102
▁घाल 91087
▁पंच 91078
कू 91056
ियाय 91040
▁इणै 91007
▁लिख 90991
▁नान 90974
▁ओय़ 90965
▁रखें 90946
لی 90924
िरुन्नत् 90921
िवु 90917
▁44 90913
▁निम्नलिखित 90893
▁राजनैतिक 90889
िक्कुकयुं 90883
वडानिकि 90851
▁कन् 90825
▁आदाग्यू 90820
▁तंत्र 90818
▁संचार 90815
ीस 90805
▁पेय़े 90799
्कळै 90796
ेस 90787
▁ऎत्त 90784
▁नये 90774
▁बॆलॆ 90758
▁नऩ्ऱाक 90745
▁चिकित्सॆ 90735
ुन्नुण्ट् 90676
▁कोच 90634
▁सुस्थ 90616
▁तैयारी 90614
▁अनुसंधान 90600
▁37 90586
ाकुं 90575
▁नृत्य 90550
▁उम्मीदवारों 90536
▁नेत 90480
▁करण्याची 90477
▁U 90465
वारु 90430
▁तिच्या 90372
▁रोजगार 90370
▁हेतु 90366
▁हंत 90357
▁राखा 90344
▁अक्षय 90283
▁मैक्रो 90275
▁2006 90269
ण्याची 90258
▁कोटति 90253
ादार 90244
▁पंद्य 90230
▁m 90206
▁अवुगळन्नु 90188
▁याब 90173
▁स्मार्ट 90171
▁तिआर 90163
▁आकॆ 90135
▁कुऱै 90102
क्सी 90088
▁संवत्सर 90083
▁نام 90053
تی 90031
▁तिळिद 90021
▁पाए 89984
▁नऩ्ऱि 89966
िरबेकु 89960
▁आळुक 89954
▁अल् 89950
▁आवा 89936
▁चॆय्व 89911
▁जाम 89911
▁पतिल् 89910
▁स्वीकर 89908
▁मुंदॆ 89905
▁निरंतर 89852
▁बिलकुल 89845
▁सेन 89834
▁हैंः 89811
▁कूटिय 89796
▁रूस 89708
▁والی 89656
▁एर्पाटु 89645
▁रद्द 89632
करा 89626
▁षा 89622
▁विशाल 89615
▁बधाई 89598
▁शकतात 89595
▁ऊपर 89578
▁साझा 89516
▁मौ 89484
▁पाशापाशि 89458
▁मिक्क 89452
▁चांगले 89441
▁भूम 89439
क्ट् 89425
▁बेल 89425
▁दिल्लीः 89390
▁ब्यक्तिगत 89372
▁क्रिकॆट् 89363
▁रॊम्प 89362
▁भारते 89354
दॊंदिगॆ 89333
▁निराश 89308
▁उतव 89305
खण 89302
▁सिटी 89302
▁चेर्क्क 89289
▁छोड़ 89260
चना 89259
▁एकत्र 89255
▁धो 89240
▁क्यां 89232
▁डाक 89231
▁यांना 89219
▁पतिवु 89201
▁आफ 89195
▁मेगापिक्सल 89164
l 89150
▁आंदोलन 89142
िसिद्द 89097
डिनि 89079
▁माडबेकु 89075
▁जेवा 89040
ऱ्ऱुक 89037
ुवतऱ्कु 89024
न्म 89013
▁विटामिन 89005
र्त 89002
▁चाय़ 88997
▁हेठळ 88995
▁पहुंचे 88941
स्व 88917
▁अतिन् 88901
▁ऒप्पंद 88890
▁सुरुवात 88890
▁कुऱञ्ञ 88888
▁मिशन 88887
▁ہمارے 88868
▁होक 88867
▁ताङ्कु 88858
▁अमिताभ 88855
ालुम् 88853
▁जीवि 88853
▁वीट 88847
▁स्टोरेज 88824
▁पडी 88815
▁आकिय 88806
▁कण्ण 88798
ुमुळ्ळ 88770
▁जेथी 88765
▁सहोदर 88752
िरबहुदु 88730
िरुन्निल्ल 88713
ेरि 88712
▁करॆ 88704
▁नाय 88700
शु 88661
▁नटत्ति 88656
▁चेयंडि 88653
▁दाय़ित्ब 88651
▁इस्र 88650
▁स्वंत 88620
▁रहेगा 88616
▁नामे 88591
▁पवित्र 88588
▁तोमादेर 88575
▁परेशान 88573
▁बस् 88558
▁मरुत्तुव 88525
▁सिहत 88517
▁उल्लंघन 88511
िकार 88508
▁योज 88506
▁आत्महत्या 88475
▁पानि 88474
िक्कुन्नत 88424
्याने 88423
▁ट्रंप् 88408
आय 88400
▁एदैना 88390
▁भु 88373
ुक्काऩ 88363
▁रहती 88362
▁छान 88349
म्ब 88346
ुतारु 88337
50 88326
ا 88316
▁भीषण 88282
▁बिश् 88277
▁करायाइछि 88263
किंग 88252
▁मुयऱ्च 88249
ड्र 88248
ृत 88217
ुकॊण्ट 88204
▁रक 88171
▁अमेरिक 88155
▁नियुक्त 88131
▁इसलाम 88092
▁परिबारेर 88079
▁आलो 88043
U 87969
▁पऱ्ऱिय 87947
▁मति 87944
▁हागॆ 87887
▁आजे 87879
on 87870
▁معلومات 87863
▁सफळ 87858
▁कॊनुगोलु 87850
▁उमेदवार 87834
▁पोस्ट् 87828
▁संपूर्णवागि 87803
▁करणार 87794
ण्यात 87776
यिलाण् 87769
पन 87761
▁ऎलांटि 87760
▁वॆब्सै 87754
▁आयिरुन्नु 87718
▁42 87708
▁तुले 87683
▁موجود 87664
▁छु 87654
▁कद 87643
▁कोर्स 87629
▁थेकेइ 87616
टक 87594
▁यथेष्ट 87587
ुरा 87564
▁जनर 87558
▁लगाने 87551
a 87532
▁परिष्कार 87479
▁चॆय्यप्पट्ट 87461
▁उणवु 87443
▁हिन्दु 87439
ासी 87426
▁पक्क 87423
बाट 87411
ंगी 87404
▁स्टार् 87374
▁अगदी 87373
िस्तायि 87362
▁केरल 87330
▁ऎष्टु 87329
▁अवसान 87328
ज्ज 87321
▁त्यांचे 87318
▁प्रगति 87313
▁बाइ 87290
▁साम्पत्तिक 87265
▁निजवागियू 87233
ुमाय 87230
▁बांग्लादेश 87224
ण्यासाठी 87213
▁कॊड 87187
▁ऎङ्किलुं 87181
▁वाऴ्क्कै 87138
▁प्रवक्ता 87136
▁बं 87129
▁दीपिका 87123
ङ्ङळिलुं 87116
▁टु 87068
▁संवत्सरं 87035
▁दिख 87024
ुतोंदि 87008
▁बिग 87008
▁चॊऩ्ऩ 86996
▁ऎन्नाण् 86973
K 86944
▁क्लास 86941
▁फरी 86937
▁आछि 86917
▁पोष 86912
▁टाइम 86889
दन 86859
ैकळिल् 86859
वरिगॆ 86848
H 86843
▁कटि 86776
कत 86757
▁कहि 86755
▁आशुपत्रियि 86722
ुत्ति 86711
▁दुख 86697
वागित्तु 86666
▁अडि 86663
▁आन् 86636
▁पंप 86626
▁ताँदेर 86622
िंचबड 86610
मल 86598
▁दीनिनि 86588
▁यौन 86587
गन 86585
▁आत्महत्य 86496
ंदनि 86492
▁द्वीप 86484
▁बाबत 86474
ानॆ 86446
▁आल्लाह 86438
भूत 86432
▁सीएम 86425
▁हिंसा 86401
▁अप्पट 86400
ाकार 86390
लतो 86373
▁प्रीत 86373
न्द 86366
▁वरतों 86360
▁नय 86341
भे 86333
त्तन 86306
▁शूटिंग 86301
▁भाषण 86220
▁कलेज 86219
▁राखे 86185
ातो 86170
▁ज़ि 86162
▁मन्त्रि 86141
ावां 86140
▁सीटों 86126
टुक्क 86106
▁वितरण 86097
▁ओरा 86078
▁निम्न 86006
▁तयारु 85967
▁अंड् 85957
▁आयि 85955
▁n 85938
▁सदस्यों 85936
▁वही 85910
वागुत्तदॆ 85893
त्ब 85889
▁ग्ल 85888
▁2022 85860
ळिऩ् 85821
▁माकु 85820
ंतर 85815
▁उण्टा 85809
▁स्क्रीन 85805
▁न् 85804
▁बावजूद 85801
▁भारतमां 85787
▁चॆय्ति 85743
نا 85741
19 85736
▁कंग्रेस 85736
मुळे 85731
▁उटल् 85729
▁ऎतुवुम् 85721
▁स्वभाव 85712
ंता 85706
क्कवुम् 85679
▁अऩैवरुम् 85663
ैप् 85653
▁रूपॊंद 85652
▁कठोर 85640
ुवे 85609
▁स्नान 85552
▁निर्देशक 85539
▁अल्लाह 85468
▁क्षमा 85384
च्छे 85375
▁संवाद 85364
▁इच्छ 85361
▁دے 85356
▁निहत 85355
▁दिय़ेछे 85353
▁अमित् 85352
▁वाल 85344
▁अर्ध 85325
▁ः 85323
ाज् 85302
▁सन्तोष 85289
▁इप्पट 85280
▁परिशोध 85279
▁एक्ट्रेस 85222
▁आमच्या 85209
▁बनाववा 85192
▁त्वचा 85163
▁\ 85152
▁ताँके 85146
▁हमारा 85141
▁अवस्थ 85136
▁राज्यपाल 85116
▁कहीं 85098
▁अंग्रेजी 85097
▁चलच्चित्र 85069
▁अङ्क 85049
▁केजरीवाल 85039
▁नोडि 85031
▁इन्न 85015
▁लड़ 84996
▁तॊट 84983
▁वॆळ 84975
▁मीडिय 84946
▁सोषल् 84945
▁सैट् 84939
▁ऎल 84922
▁न्यायाधीश 84918
▁निकट 84908
▁इदरल्लि 84888
▁अऩैत्तुम् 84882
ुन्नत 84870
▁थियो 84865
▁वेब 84862
▁कुटुंबं 84856
▁अभिनय़ 84815
▁गर् 84811
▁وجہ 84776
ائی 84766
▁उहनां 84766
▁घेतला 84754
▁प्रियंका 84750
▁सरकारेर 84750
क्केण्ट 84738
िक्कुम् 84731
▁विश्वसि 84729
▁पावर 84715
▁शोक 84712
▁प्रस्तुतं 84704
▁एटले 84673
▁सदा 84670
ین 84658
▁खुल 84653
▁चॆय्युन्नत् 84650
▁कुट्टिक 84637
नू 84628
▁बां 84613
▁याहा 84607
▁ऎन्नी 84578
▁साव 84569
टुत्तु 84568
▁वच्चिन 84566
▁वॆब्सैट् 84565
िकळिल् 84560
▁तेनुं 84547
▁साथी 84537
धिक 84506
▁डोनाल्ड 84488
▁खेतर 84482
त्ताऩ् 84466
▁जणाव्युं 84451
▁शक्तिशाली 84441
▁ऎप्पोतुम् 84398
▁जिसका 84390
▁आहात 84389
▁स्पर्ध 84380
▁क्षति 84362
▁मौका 84349
▁निरीक्ष 84268
▁कॊंत 84263
▁पाय़ 84237
सुं 84223
▁नटन्न 84218
▁ज़िआदा 84205
दगी 84192
کی 84155
ोत 84155
▁कार्यवाही 84150
▁कनीसं 84148
▁बिमान 84140
▁250 84135
▁पॆण् 84064
बेर 84062
▁कऩ 84062
बाद 84056
सट 84037
ंट् 84031
یا 84028
▁प्रबंधन 84016
पल 84009
िस्तोंदि 84004
▁विंडो 84000
▁परियोजना 83988
ायिरुन्न 83966
▁औ 83955
▁कारोबार 83952
▁निर्देशन 83946
ن 83940
▁अनुव 83938
▁परिकर 83936
▁पेज 83913
▁शीत 83912
ऩिऩ् 83896
▁नील 83893
▁वखते 83890
▁प्री 83882
ित्ततु 83870
▁सल 83870
م 83859
िनि 83843
▁तेट 83833
▁the 83801
▁बाइरे 83798
▁इंतह 83772
▁प्राय 83756
▁हाग 83752
ायला 83730
▁निऱुवऩ 83704
▁माण 83688
कळुं 83686
▁कनिष्ठ 83685
▁काढ 83674
▁वेतन 83647
▁नज़र 83644
▁पातुकाप्पु 83636
▁सत्ता 83632
▁राश 83546
▁अग 83526
▁آ 83511
ाविल् 83510
▁वॆंटने 83495
रेट 83485
▁लिखे 83482
▁گھر 83476
▁वॆळ्ळं 83476
▁निङ्ङळॆ 83442
▁परिब 83423
▁सोनिया 83421
ांवर 83411
▁मान्य 83403
ing 83396
14 83388
त्वं 83384
▁تیار 83384
▁सम्पादक 83380
▁इऩ 83370
▁तुं 83348
▁उत्साह 83333
▁लिखित 83330
▁गेल्या 83314
▁आमिर 83247
▁नोक्कि 83237
▁अंदाज 83235
▁बचाव 83230
▁चाप 83201
▁दैव 83148
सिंदि 83144
▁मौल्य 83128
ळिय 83099
▁بن 83086
▁तालिका 83081
तं 83071
▁इतिन् 83059
▁इन्तप् 83050
▁शायद 83048
ॉन 83043
▁ताहार 83040
▁परिकल्पना 83038
▁ऎंच 83016
▁माझा 83003
▁आद्यं 82994
▁घुम 82992
▁किती 82964
▁शास्त्र 82955
▁शैक्षणिक 82942
▁کار 82914
▁जोल 82883
चॆय्य 82848
▁कार्ब 82836
و 82826
▁रीतियल्लि 82826
लिदॆ 82825
▁घन 82824
्थ 82803
▁फलितांश 82802
प्पुडू 82796
▁सुशांत 82783
سٹ 82782
▁स्री 82739
▁रहो 82731
▁गड 82700
▁स्टोर 82690
▁خلاف 82689
▁नेपाल 82682
▁चॆलुत्त 82640
▁रहता 82624
▁ट्या 82612
केर 82598
▁कार् 82560
▁ओवर 82558
च्चिट्टिल्ल 82537
▁पित 82487
िसुवुदिल्ल 82483
क्त 82459
▁हैछे 82418
▁फुल 82404
▁शिख 82400
ङ्कळिऩ् 82391
यन 82373
▁त्र 82373
यिल 82369
ैयाऩ 82359
ट्टुण्ट् 82347
▁मिक्स 82347
ंदे 82320
▁ऒके 82312
निस 82305
▁तिऱ 82288
▁इंग्लैंड 82261
▁आजि 82246
▁माजि 82243
▁पट्टि 82241
▁अऴ 82226
ان 82191
▁वृत्त 82173
▁मोहम्मद 82153
ेण्ट 82144
▁हतां 82142
ॆर 82118
▁मिर 82107
▁माय 82070
िसिद्दरु 82066
▁गिर 82061
▁मऱ्ऱु 82060
▁नाल्कु 82059
▁آج 82042
▁परिवहन 82023
▁विमाऩ 82020
▁ओछी 82015
▁कॆट्ट 81990
▁वार्ता 81977
ऱिन्ऱॆ 81962
ऩ्ऩ 81944
पाटु 81932
▁प्रदर्श 81896
ोव 81894
▁प्रसाद 81894
▁नन्नु 81871
फर 81864
▁अवर्कळै 81848
▁सम्प 81842
ाणॆन्न् 81836
▁रचन 81806
▁एन्ड 81794
क्काऩ 81789
ाणु 81761
▁वरुट 81761
▁ओछा 81757
टिते 81724
▁अप्पोतु 81720
▁दिने 81715
र्कळिऩ् 81685
▁चीज 81677
▁वधारो 81672
▁टाटा 81661
▁बिडुगडॆ 81655
शाल 81654
कृत 81633
ओए 81603
▁मच 81590
▁रिलीज 81581
▁मुऩ् 81573
▁परिशील 81568
▁घ्या 81555
िऱेऩ् 81543
▁हत्य 81542
▁उपभोग 81535
ऱ्क 81534
▁छोटी 81513
▁जरिए 81512
िरुक्कुम् 81509
िंचालनि 81508
▁खुँजे 81487
▁चेसुक 81461
▁लिस्ट 81446
▁दोस्त 81421
प्पुकळ् 81405
▁थोड़ा 81401
ामो 81384
▁बदलावणॆ 81362
▁अमॆरिकन् 81358
▁तुंब 81350
▁इंदु 81335
▁आचरण 81334
▁सिग 81325
▁उदाहरणॆगॆ 81310
▁पद्धत 81304
▁हालात 81297
▁देय़ा 81284
▁कनिप 81267
विक्क 81254
ुत्तिद्द 81237
▁2004 81228
▁अमारा 81221
▁मनॆ 81171
▁किउंकि 81160
▁2005 81145
▁चयन 81135
▁सद 81133
▁39 81058
▁गुरुत 81044
स्थान 81040
▁वृद्ध 81021
▁ٿا 81010
▁याबाबत 81000
▁ऋण 80986
▁चिऱ 80973
▁मुं 80967
▁संबंधी 80945
▁सारुं 80941
▁आकर्षक 80927
▁बढ़ाने 80925
▁वर्ण 80897
वेल 80895
▁कथित 80880
▁ऎय 80875
▁जाय़गा 80869
अल 80864
▁प्रक्रिय़ा 80860
स्तारु 80857
▁अवर्कळुक्कु 80852
▁شہر 80833
▁अवु 80827
▁अपेक्ष 80797
▁पेते 80781
नात 80752
▁सीरीज 80749
वादी 80746
▁तङ्कळ् 80732
▁दारुण 80710
▁बड 80707
▁वेणं 80696
▁वॉ 80673
▁खरच 80667
▁दिक 80563
▁येणार 80560
▁वाऴ 80547
▁ट्रंप 80546
▁आफ्रिका 80539
ाग् 80538
▁पूर्वी 80514
▁मुकाबले 80481
▁पहिले 80472
▁सबकिछु 80471
र्ब 80466
माकुम् 80453
▁आवड 80453
▁मुश्केल 80420
▁बाळक 80411
▁विवाहं 80390
वय 80379
▁मुंद 80356
▁उइ 80351
▁होइथिला 80345
▁जनप्रिय 80318
मुण्ट 80313
▁नडॆस 80308
▁आय़ 80306
ुकॊंड 80288
▁तॆलिसिंदे 80266
कन 80255
▁अर्जुन 80251
▁मुतलिल् 80251
▁अटि 80243
▁बान 80241
िरुत्तवॆ 80240
▁खुशि 80231
▁केन्द्रीय 80214
▁अधीन 80211
▁समीप 80206
▁बीमा 80204
▁अहम 80196
▁प्रय़ोजनीय़ 80190
वास 80186
▁पोलुं 80178
▁हालमां 80173
▁गाड़ि 80158
▁तानु 80138
ुके 80073
▁डै 80071
▁खर्चु 80064
▁सरल 80054
▁वित्तीय 80036
▁माडिदॆ 80031
▁जैसी 80028
ुकळिल् 79998
सब 79968
▁लड़की 79942
रत 79930
▁मन्तब्य 79879
▁अचानक 79868
▁विपरीत 79858
▁इन्त्ययि 79796
▁निजेके 79789
▁नकर 79783
ुल् 79779
▁प्रसिडन्ऱ् 79768
▁बू 79762
▁आर्ट 79745
▁हाते 79729
▁इप्पोऴुं 79717
▁ऒरिक्कलुं 79685
▁वीट्ट 79663
کس 79653
▁युरोप 79641
▁कांगरस 79640
▁सेमाने 79639
करमैन 79636
▁सरैन 79630
▁माडिद्दारॆ 79614
टरी 79608
▁बाह्य 79578
▁एकेबारे 79556
▁हट 79542
▁صحت 79514
ागुव 79508
▁रॆंड 79506
मेंट 79493
वेण्टुम् 79473
▁अत्यधिक 79467
▁येईल 79467
ुत्तीरि 79447
▁माडिकॊळ्ळ 79446
ुमुण्ट् 79440
▁रास्ता 79428
▁चूक 79427
▁प्रे 79426
ट्टिल् 79410
र्कळुक्कु 79391
▁ऒळ्ळॆय 79390
▁अच 79381
▁घटनाय़ 79336
▁ज़ 79316
▁टिप्पणी 79308
▁ऎरडने 79286
▁बाय 79283
▁चॆऩ्ऱ 79282
ुललो 79280
▁आदरू 79250
▁ایسا 79223
▁सुप्रीं 79208
न्सि 79190
▁प्रभावी 79187
र्ज 79177
ाल्सिन 79173
ॆंदरॆ 79171
▁ओके 79146
▁तेच 79142
k 79139
▁वच्च 79105
▁शाहरुख 79104
▁इतुवरै 79088
एँ 79066
▁अतिथि 79049
▁دیگر 79023
▁विडियो 79016
▁कारणंगा 79000
▁धोनी 78995
▁विअकती 78982
▁प्रब 78980
▁इंडियन 78969
▁पौर 78964
▁एप्रिल 78953
▁ट्रेड 78937
▁कार्य्य़ 78924
ेंद्र 78907
▁ऎवरु 78903
ाणो 78900
▁हाकि 78899
i 78892
▁उनमें 78890
▁महिल 78884
▁बर् 78871
▁सॊ 78855
▁आउट 78817
▁नइ 78802
▁पहिला 78763
▁समय़ेर 78763
▁ऎत्ति 78758
▁ञान 78756
▁पॆय 78749
▁साब 78728
▁सतर्क 78712
▁इनकार 78707
ाय़े 78650
▁इन्न् 78640
.8 78634
▁जानिय़ेछेन 78612
▁सामूहिक 78605
▁मोठा 78603
▁प्रेरित 78600
▁मुऴुवतुम् 78589
▁कॊण्ट् 78586
शिप 78550
▁वाड 78543
णिय 78540
▁अर्थव्यवस्था 78534
▁मोटे 78516
हरु 78505
▁संस्कृत 78465
▁जिंदगी 78453
▁व्या 78448
▁करण 78423
▁परिबेश 78418
. 78417
▁وڌیڪ 78362
▁हीगॆ 78356
▁रण्टां 78354
▁विलुव 78354
▁नालुगु 78348
▁हवामान 78323
▁पाव 78292
▁सुबिधा 78290
र्प 78289
▁अंतह 78288
▁तरुण 78283
र्कळै 78279
▁माइक्रो 78276
▁मैदान 78242
▁नुं 78225
▁अरचियल् 78214
ৰৰ 78202
ुवंतॆ 78188
▁चूंटणी 78184
▁मुग 78181
▁बाळ 78138
▁तलुप 78093
▁कराई 78092
▁पणि 78086
▁सर्वोच्च 78081
▁बहुतेक 78055
▁इन्तियाविल् 78031
न्य 78026
चै 78019
▁आसि 78007
चों 78005
▁49 77995
▁कारणम् 77990
म्स 77969
▁आपले 77965
नक 77951
▁लागु 77945
▁मुर 77940
▁साध्यवाग 77924
ोनुं 77919
▁ऎल्लवू 77908
▁ताजा 77901
▁पाय 77899
▁दस 77890
▁ऎल्लावरुं 77886
कम् 77882
बडिन 77876
▁चौ 77871
▁खत्म 77843
▁इवर 77824
▁शान्त 77823
تے 77819
▁तुरंत 77801
▁कमेटी 77787
▁काट्ट 77786
▁लेकुंडा 77763
▁खातरी 77714
▁मना 77706
▁वट 77703
▁पॊरु 77651
es 77648
▁व्यावसायिक 77635
▁भाग्य 77632
▁रुचि 77618
▁चोदि 77617
▁व्यक्ती 77609
▁मनु 77587
▁करॆय 77559
▁इवु 77558
▁प्रश्नॆ 77554
ऩतु 77533
▁किन्त 77513
▁अनुसरण 77489
▁थोडी 77489
्स् 77488
▁साय 77487
▁वेण्टाम् 77460
▁जीबने 77426
▁निजानिकि 77420
▁अंतर्जातीय 77416
वाई 77397
▁ऎऩ्ऱाल् 77396
ाइआ 77385
खाने 77384
▁विव 77378
प्पिच्चु 77377
▁थिले 77360
▁अक्सर 77346
▁शरूआत 77341
ट्लो 77339
▁43 77339
गुलोर 77333
▁to 77327
▁لائن 77327
▁پھر 77301
▁कण्टॆत्त 77284
▁अग्र 77276
▁परवानगी 77266
▁लंबे 77258
गड 77257
▁किरदार 77247
▁माझी 77240
्कि 77239
▁जाग 77215
ुपु 77203
▁असू 77201
▁विजेता 77194
▁कॊळ 77183
▁आदाय 77178
▁मुम्प् 77174
▁जन्मदिन 77173
▁कदाच 77158
ंज 77128
▁नन्दि 77122
▁ब्रिटेन 77086
▁कवऩ 77084
▁वरदि 77080
al 77078
वऩ् 77077
▁सूक्ष्म 77032
▁सप 77024
▁ایم 76998
▁चॆय्युक 76996
▁तोमरा 76987
▁तॆलंगाण 76970
प्पटिकी 76967
व्ह 76966
िंचुको 76962
▁त्यासाठी 76952
▁काजे 76936
▁माऱि 76935
▁آر 76926
▁निवड 76914
▁सरबराह 76914
ऱे 76900
क्कॆतिरॆ 76886
▁सबसमय़ 76886
िरुन्न 76876
ुक्काक 76871
ॆंदु 76864
ाकवुम् 76852
गिर 76845
▁आशय 76842
पर्यंत 76840
▁चुमार् 76817
تا 76803
वाऩ 76795
▁अन्य़ 76795
पर् 76783
▁चेत 76783
▁आघात 76766
रिक्कुं 76744
▁अभिनंदन 76741
▁नहय़ 76727
▁पार्ट 76715
▁किताब 76701
▁रहमान 76698
▁लू 76690
▁प्रमाद 76680
▁परमाणु 76657
ब्ल 76656
▁नम 76655
▁عمر 76650
ीय़ 76644
विर 76636
द्दरू 76634
▁c 76633
▁कंड 76630
▁उम्र 76627
▁चीना 76612
ल्य 76606
▁देखुन 76597
▁कुऱिप्पिट्ट 76587
िकळुटॆ 76583
▁अग्नि 76573
योग्य 76572
▁चाहती 76570
▁घरेलू 76554
▁अमारी 76536
मक 76533
▁अन्यतम 76501
▁जरुग 76490
▁चैना 76471
▁तकनीकी 76470
सार्लु 76466
▁निलनि 76454
▁सेबा 76439
▁हीगागि 76423
ٹس 76421
▁फरक 76416
▁दास 76395
▁120 76394
ट्टी 76389
ङ्कर 76384
▁ऒऱ्ऱ 76374
▁چین 76363
में 76337
करु 76327
▁विषयंलो 76326
प्पटुकिऩ्ऱऩ 76316
▁बदलाय 76281
▁वधी 76281
▁इरुत्तदॆ 76269
▁चेस्तुन्नारु 76261
▁श्वास 76257
क्कळ 76248
▁कड 76244
▁नव्हते 76242
▁इष्टपड 76240
▁कुऱि 76233
▁भारतात 76232
▁सुन 76228
▁सोन 76207
▁भरोसा 76175
▁करोड 76173
▁अच्च 76171
▁पलु 76163
▁काले 76143
▁कराने 76137
▁फिल्मों 76127
ालुगा 76125
▁तरीका 76124
▁न्यायमूर्ति 76121
म्स् 76117
वाना 76109
सिन्ऱॆ 76101
▁शिवसेना 76092
दल 76090
▁दोषी 76082
▁पॆरुग 76082
▁नेरत्तिल् 76064
▁चार्ज 76057
▁सहमत 76055
▁ह्याँ 76055
▁केलं 76032
▁हू 76004
▁नियंत्र 75999
क्कुळ्ळ 75997
▁समर 75996
▁देओय़ार 75983
▁47 75976
▁इत्यादि 75971
▁कोप 75970
▁अन्वेषण 75967
▁पूछताछ 75966
▁सदी 75948
▁गैस 75932
▁पैन 75923
▁घड 75919
▁आकर्ष 75876
▁اللہ 75869
घर 75858
▁आलादा 75847
▁पेल 75843
ठे 75841
न्सी 75834
▁J 75806
ॊळ 75787
िकु 75770
िरुन्ततु 75748
▁चॆय्तत् 75745
न्नुं 75734
▁तकवल् 75704
▁उण्मै 75701
▁कैतु 75695
▁निउ 75692
▁एऱ्ऱ 75691
▁उं 75668
▁بین 75658
▁रंदु 75647
लिल् 75630
▁चोण 75576
पोल 75557
▁पाड 75557
▁यहो 75555
▁प्रतीक 75552
▁थाना 75547
▁कॊटुत्त 75532
▁आयु 75516
ء 75509
▁बाहेर 75506
्यव 75472
▁पह 75436
▁स्ट्र 75429
▁सफर 75428
टम् 75427
▁कीऴ् 75423
▁पिल्ललु 75400
▁तरल 75399
वण 75385
दल्ल 75383
▁फाइ 75380
▁आटो 75370
▁तॆलियदु 75363
▁पारबे 75356
▁हय़ेछेन 75348
▁हाउस 75335
▁ताङ्कर 75316
▁अमल 75313
▁निकाल 75310
▁तिने 75280
▁स्टो 75278
ब्र 75274
▁बाबे 75274
▁बाइक 75251
दं 75214
लागिदॆ 75211
क्कर 75210
▁ऒऴिवा 75185
▁घेतली 75144
▁वेळी 75140
▁रेड 75128
तॆयन्नु 75105
▁तॊटङ्क 75089
ic 75087
▁लॉ 75084
षक 75051
▁जरग 75044
▁पटम् 75044
▁एप 75036
▁अऱस्ऱ्ऱ् 75031
▁दिनेर 75025
ित्तार् 75015
▁दू 74990
ेंस 74988
योग 74955
▁इन्त्ययुटॆ 74952
▁फुट 74944
▁वयस्सु 74939
▁मिलेगी 74934
▁स्वातंत्र्य 74934
▁पत्रकार 74891
▁अध्यापक 74883
विल् 74867
▁ٹ 74859
वळ 74856
▁छिलाम 74854
▁آسان 74852
▁मूवी 74841
▁नीडुत्तदॆ 74827
▁विम 74826
▁ग्री 74822
▁सम्म 74818
िसिकॊंड 74817
▁دونوں 74812
शय 74811
▁चुल 74810
▁जुलाई 74808
ुन्निल्ल 74801
▁कंपनियों 74800
ळिक 74799
▁नीर् 74791
▁कृतज्ञ 74774
▁उळिद 74697
▁नोंद 74682
▁एकबार 74669
▁लहान 74659
▁पयण 74634
▁पीड़ित 74629
▁निन्नु 74596
▁अजून 74592
▁लड़ाई 74590
ुक्कळ 74583
▁गोटिए 74583
▁रकाल 74575
िरुवुदु 74553
▁t 74541
▁संख्यॆ 74536
िपि 74534
▁अतिनु 74533
▁आपवा 74533
▁डालें 74530
▁कोर् 74523
▁बसे 74506
▁पाकिस्तानी 74485
ार्स 74475
▁सरकारने 74456
▁टॆस्ट् 74454
▁मंच 74445
▁चुन 74440
▁عالمی 74435
ताना 74433
▁समय़रे 74423
▁इतऩै 74393
▁ऎत 74382
▁प्रवृत्ति 74374
▁अद्भुतमैन 74370
ान्स 74367
रिंग 74363
▁लोन 74342
▁परिस्थिती 74332
▁तस्वीरें 74328
▁अनलाइन 74323
▁बातें 74307
▁इक्क 74304
तुम् 74303
▁बन्द 74292
▁देवु 74271
जण 74260
▁कम्प 74253
ड्स् 74241
▁अज्ञात 74237
▁जातो 74195
▁प्रतिष्ठान 74185
▁इऴ 74181
मेर 74165
▁یو 74144
▁डिझाइन 74126
त्तुटऩ् 74117
फ्ट 74117
▁नैसर्गिक 74108
िक्कां 74107
डन 74100
▁मुक्कियमाऩ 74071
▁आरम्प 74054
शेषं 74050
▁आमिओ 74010
▁ऒप्पं 73988
▁बिल्कुल 73978
▁उद्योगस्थ 73957
बान 73935
▁वयस्सिन 73927
▁विनियोगदार 73913
▁p 73904
▁एगिय़े 73878
▁त्यांचा 73869
▁तुटङ्ङि 73848
▁साधारणत 73842
▁वाङ्क 73841
▁मेळव 73835
▁नड 73818
चिआं 73807
▁किये 73807
▁तॊलि 73791
▁सद्य 73791
ाव् 73777
▁उण्टाक 73749
z 73742
▁यासाठी 73742
▁अनुष्ठित 73739
फै 73736
ॆयू 73733
▁खुले 73728
▁रवि 73728
▁यावेळी 73693
▁पिऩ 73670
▁परमेश्वर 73652
निर 73635
हीन 73628
▁प्रदर्शित 73625
▁अॅ 73621
▁होणा 73621
▁शतमान 73618
▁ا 73609
ोस 73607
ात्र 73585
▁संबाद 73581
▁तुटङ्ङ 73579
▁गुन्हा 73575
▁स्टी 73574
▁टक्के 73558
▁एव 73543
▁ऎफ् 73539
ीर्कळा 73526
▁b 73511
▁ऎङ्ङ 73502
▁अवलंब 73501
▁लागी 73499
▁आयुक्त 73461
▁यंत्र 73447
▁सिनिमालो 73411
त्तदॆ 73386
▁नाऩुम् 73383
▁कौर 73376
च्चयायुं 73370
▁हीरो 73364
नाथ् 73358
जों 73345
त्तिलुम् 73312
मिंग 73306
▁नम् 73297
बडि 73295
▁कॆळगिन 73280
▁देशं 73248
▁वजों 73239
▁ओर् 73229
नागि 73223
▁अयिना 73223
▁भारतदल्लि 73222
▁उठे 73206
▁धिआन 73206
▁جانے 73201
▁संक्षिप्त 73196
▁पुनरु 73195
▁कम्पिउटार 73178
▁स्वप्न 73168
यिंदि 73162
▁अतो 73136
▁काफ़ी 73135
▁and 73126
छो 73119
त्तैयुम् 73112
▁बर्तमान 73088
▁خاص 73087
▁खोराक 73083
▁जन्ये 73068
▁कड़ी 73060
▁पड़ता 73047
▁ऎप्पुडू 73040
हन 73007
▁فیصد 72990
▁अरि 72976
केइ 72975
▁सकदी 72943
▁छेड़े 72935
िच्चु 72925
्ली 72922
ागिद्दारॆ 72915
▁अंता 72906
▁लागेल 72898
▁वन्नु 72884
▁कक्ष 72874
▁चॆंद 72862
▁पाबेन 72852
▁कंई 72841
्याची 72826
▁याओय़ार 72804
▁सोशियल 72783
▁लख 72776
▁स्थळीय 72768
▁PM 72762
▁तॊलग 72751
▁यावर 72750
▁स्वकार्य 72748
▁बणाउण 72747
▁राज् 72721
▁मद 72718
ल्लिरुव 72709
▁संस्कार 72704
▁ऎन्नत् 72701
▁हार्ड 72690
च्चे 72686
▁वाटते 72671
▁तनिखॆ 72670
▁वाटत 72665
▁एऩॆऩिल् 72656
▁पस 72655
▁शैल 72648
▁दान्नि 72635
▁मेळवी 72635
▁मनो 72626
▁वीट्टि 72617
ुतू 72595
▁तीनों 72594
▁विजय् 72591
▁अङ्ङ 72583
ओनो 72578
िदरु 72558
▁प्रमाणे 72558
▁संभ 72556
▁माडुवुदु 72540
िस्तू 72531
▁असल्याचे 72529
▁माट 72520
्ष 72510
▁वॆऱ्ऱि 72510
▁उमर 72501
▁संयोजन 72493
्किऱेऩ् 72446
विल 72445
▁जाईल 72442
▁विश्वद 72430
▁मत्तॊंदु 72420
▁नीट 72417
▁ओल 72395
▁प्रौद्योगिकी 72393
▁मुम्प 72392
▁रेखा 72386
▁जनसंख्य 72377
▁कन्नड 72369
▁मुह 72358
मैनदि 72351
▁मंत्र 72333
▁सफळता 72325
▁अयिन 72321
▁पऱयुन्नत् 72315
▁ہوئی 72314
▁क्क 72301
रागि 72282
▁एमी 72245
▁दोघ 72241
▁संचालन 72237
▁ऎन्तॆङ्किलुं 72225
ऩ्ऱ 72221
▁कलन्तु 72210
▁ब्लू 72210
▁بہترین 72178
▁नाग 72166
प्पॆ 72163
▁दैनिक 72161
▁रहें 72151
ॊंद 72142
▁सेटि 72129
▁मेऱ्पट्ट 72100
▁प्रभु 72096
▁अथ 72090
▁नौकरी 72088
त्तिर 72086
▁खाने 72082
▁1.5 72080
्नल्लि 72061
दरु 72049
▁आब 72045
▁खेले 72044
▁अभिमान 72026
▁मुक्ति 72023
▁आरा 72020
ावि 72009
गुलिते 72003
▁होल 72002
▁इडी 71995
▁तलैवर् 71976
चित्र 71958
▁संभवत्ति 71947
▁अड्ड 71920
ावु 71914
▁केसि 71914
▁बललेन 71910
▁फिल 71906
▁गूगल 71896
ऩ्प 71865
▁पयऩ्प 71851
ऱ्प 71846
▁घट्ट 71842
▁अप्र 71839
▁खच्चितंगा 71836
▁तुला 71827
▁دوسرے 71823
ر 71821
▁अद्याप 71798
▁निय़न्त्रण 71785
▁सामेल 71778
▁जेला 71767
▁पॊरुळातार 71764
िंचबडुतुंदि 71760
▁तऩ् 71677
▁नाल् 71676
▁शर्म 71674
▁बाड़िते 71671
ियऩ् 71669
▁एसेछे 71658
▁तनाव 71645
▁पारटी 71635
गळिगागि 71633
▁प्रशस्ति 71617
▁درمیان 71597
▁इंस्टाग्राम 71586
▁प्रतियोगिता 71586
▁پیدا 71580
▁مکمل 71572
▁पिल 71565
▁पुढील 71559
▁सांकेतिक 71553
▁यूपी 71537
▁उण्टाय 71533
▁او 71532
▁पडॆ 71505
ॆयो 71477
▁उंडे 71475
्याच्या 71474
▁خود 71434
▁विनोद 71430
▁पसंदगी 71425
▁गर्व 71417
▁तॆरियविल्लै 71408
िंचलेदु 71388
▁फ्या 71378
णमॆन्न् 71377
▁केट 71375
ٹر 71366
▁मरॊक 71362
त्तैप् 71358
▁बळक 71354
ूक 71349
यां 71335
▁चीऩ 71330
प्स 71326
ञ्ज 71315
▁गुगल 71314
ानं 71288
▁आत्मा 71287
▁पकुत 71282
▁तैनात 71257
▁वक 71211
▁آف 71208
▁चै 71207
▁मुटियविल्लै 71204
ور 71198
▁किंद 71196
▁अफगानिस्तान 71191
▁प्रयत्नि 71184
▁वॆळि 71178
▁بہتر 71171
▁राखो 71154
▁मोठी 71143
▁अध्यक्षुडु 71130
▁ओय़ेबसाइट 71125
▁साम्राज्य 71102
▁उद 71091
▁विना 71062
▁ताप 71060
छु 71051
▁युक्तराष्ट्रेर 71038
▁तसे 71031
▁99 71028
▁याओय़ा 70999
▁करावे 70980
▁उंदनि 70977
▁शपथ 70952
▁द्र 70942
ाळ् 70911
▁रेख 70890
▁सारीआं 70888
▁ताँरा 70887
▁धैर्य 70885
▁कब्जे 70868
ऩाक 70864
▁जोइए 70835
▁देशंलो 70814
▁अबस्थित 70812
▁भीड़ 70811
ूरु 70809
्लनु 70800
▁चरियाऩ 70800
िली 70791
सिन् 70790
▁वास्तववागि 70788
▁वन्तु 70786
ामुळे 70777
द्दीरि 70762
ुक्कुप् 70724
▁होटेल 70716
▁क्य 70712
▁रॆंडव 70710
▁मैन 70709
▁शाम 70707
▁अक्षर 70706
▁पाई 70698
▁कागा 70685
▁वैक्क 70685
▁विफल 70671
▁52 70670
श्य 70666
दल्ले 70660
▁दिग 70658
▁उपयोगिच्च् 70648
▁लेवा 70637
▁ओदेर 70634
एच 70624
िय़ाम 70618
▁रखना 70616
ावो 70611
्यांड् 70610
ेम 70570
▁टिवि 70568
▁संपत्ति 70568
▁ئی 70561
▁इन्ड 70558
▁म्यू 70552
▁مل 70541
▁प्रेस 70540
िकळुक्कु 70539
▁त्वरित 70532
▁उंटारु 70516
n 70512
हु 70512
▁इरुक्कलाम् 70500
ळक 70491
वायितु 70489
▁अ्यान्ड 70488
▁ऐलान 70481
ारनि 70476
▁स्त 70476
▁होण 70476
▁Z 70459
ॆटुक्क 70442
▁खेती 70389
▁जिवें 70348
▁भ्रमण 70330
▁उसी 70328
▁घायलों 70321
▁अवळु 70320
▁चेर्न्त 70280
▁दररोज 70278
▁नोंध 70271
▁جواب 70268
▁प्रकारनी 70265
▁मॆडिक्क 70261
▁सुबह 70258
▁माडल 70246
▁सामान 70240
चॆ 70232
▁आलं 70232
▁पुन 70229
ुतुन्नायि 70227
▁निश्चय़ 70221
▁तगिन 70218
ार्थ 70213
िक्केण्ट 70206
,19 70202
ण्याचा 70192
▁भारे 70185
ियाना 70184
▁रोजुल 70171
▁माझ 70152
सेन 70140
▁मॉडल 70140
समूह 70139
▁ब्यांक 70139
▁समाधानं 70129
▁f 70128
▁तलॆ 70121
▁این 70113
▁दिनगळ 70102
बन 70066
▁निर्मित 70055
▁हरि 70050
▁अद्देहत्तिन्ऱॆ 70044
▁ترقی 70041
▁मुटिवु 70030
▁संबोधित 70028
▁लेवामां 70027
▁सिस्टेम 70023
▁बहन 70006
▁माह 70002
▁गोवा 69985
▁उपाध्यक्ष 69974
▁कोंग्रेस 69970
ुकिऩ्ऱऩ 69968
ुविट्ट 69968
ुलुगा 69967
▁मोह 69966
▁गी 69959
▁राहु 69945
▁निगम 69937
▁जियो 69909
▁बलि 69907
▁तकनीक 69905
▁पच्च 69899
▁सौर 69869
कुल 69866
▁لے 69856
▁ताक 69850
▁बिर 69844
▁मॆच्च 69842
▁इप्पटिकी 69824
त्तुव 69820
▁नियंत्रित 69815
रूप 69808
▁सम्भाबना 69804
▁सजा 69787
प्ल 69770
u 69767
▁ताम 69765
▁قابل 69760
▁निदेशक 69752
▁विराट् 69750
▁हानि 69742
युक्त 69732
▁भे 69720
▁मुकदमा 69718
▁करिछि 69717
▁निय़म 69713
▁बनने 69712
▁ऒरुवर् 69706
▁औषधि 69680
▁کرے 69600
▁पट्टण 69590
▁बुद्ध 69590
▁लेना 69569
▁उयर 69555
▁सरासरि 69550
▁निऩैक्किऱ 69540
▁कुळ 69539
माक्क 69526
▁सोष्य 69523
वॆंदरॆ 69517
द्देश 69513
16 69510
▁खाता 69494
▁पोषक 69488
िसुत्तवॆ 69486
▁राजनाथ 69476
वॆंदु 69471
▁मज 69468
षा 69464
▁मरणं 69456
▁पेरे 69449
▁मेक 69441
▁गर्भ 69435
▁जनरिगॆ 69435
ऱ्ऱिय 69434
us 69432
त्तिनायि 69421
प्पिक्कुन्न 69420
▁अतिकम् 69413
ुरि 69402
▁थाने 69397
ांक 69394
▁ठिकाणी 69379
▁स्कू 69357
▁मार्गं 69355
d 69353
▁तथापि 69353
▁वोट 69339
डार 69332
ुङ्कळ् 69309
▁याय़नि 69308
▁अंदुलो 69296
ाननि 69294
▁आस्ट्रेलिया 69279
▁लाइ 69248
▁सूचि 69240
▁ऍ 69233
क्षा 69228
दीआं 69219
▁आगि 69219
▁माट्ट 69213
ंः 69209
ार्ट 69208
ागित्तु 69192
▁यामध्ये 69183
▁मागणी 69161
▁खर 69153
्रेट 69152
▁रहेंगे 69128
▁महा 69127
िकॊंड 69126
▁पहोंची 69118
▁विस्तर 69098
ोल् 69096
▁फलाफल 69096
▁किना 69094
▁अध 69085
▁होस्ट 69061
▁प्रमाणात 69053
▁केट्क 69041
15 69040
▁बनावी 69013
▁सर्कारद 69009
▁नकारात्मक 69005
पात 69003
▁मिलकर 68977
कुन्न 68971
▁चाली 68954
▁सांग 68939
▁हंच 68932
▁खरीदी 68922
▁अणु 68909
▁फंड 68907
▁संगीतं 68886
▁आंध्र 68879
▁संसार 68879
▁सहि 68879
▁दबाव 68873
▁चोरी 68867
18 68862
▁मासे 68855
▁प्रयुक्ति 68850
▁उरु 68847
▁गठबंधन 68845
▁एजेंसी 68812
▁जनप्रिय़ 68811
▁सपोर्ट 68809
▁اندر 68806
िव् 68802
▁चिऱिय 68801
▁हास 68800
▁پنہنجی 68797
▁काबू 68781
▁निलैयिल् 68760
▁निऱुवऩम् 68754
▁प्रोटीन 68740
ळ्लु 68739
13 68729
ॊब्ब 68725
ج 68724
▁रमत 68724
.7 68719
▁सूपर् 68719
▁पोर् 68715
▁जल्दी 68709
▁सज्ज 68707
ऱ्कु 68704
▁फैन 68695
▁शर्त 68685
यान 68679
▁इब्बरु 68679
▁फरीथी 68650
▁फु 68631
▁प्रतिपक्ष 68586
▁पूर 68576
▁तुल 68565
▁अन्वय 68564
گ 68563
▁शत 68562
▁जोरदार 68538
▁देस़ 68506
ाकुम् 68501
▁लगाए 68499
▁अजय 68496
▁दिय़ेछेन 68493
▁पत्त 68491
ाजी 68476
▁भेबे 68469
▁सर्वश्रेष्ठ 68469
▁नीडुव 68468
▁अर्जन 68448
▁बुक 68448
▁जेना 68400
▁यूरोप 68395
▁ताऴॆ 68387
▁तिरुम्प 68300
िकेशन 68291
▁एछाड़ाओ 68279
▁पिऩ् 68278
▁2003 68238
▁रेखे 68237
▁कार्ड् 68220
▁पुलिशेर 68201
▁शिश 68200
त्तर 68178
-0 68139
▁इरुवरुम् 68139
▁केन्द्रीय़ 68131
ुकळाण् 68129
क्कप्पट्टुळ्ळतु 68125
▁अर्थात 68112
▁विद्यार्थ 68102
▁अमने 68096
▁टीका 68095
▁कॆल 68076
▁टन 68070
▁केळ्वि 68067
सू 68065
▁ऎऩ्ऩाल् 68062
▁तिट्ट 68042
जर् 68035
▁प्रबेश 68033
▁सिवाय 67988
▁ऒन्न 67957
ش 67951
▁घटनार 67943
दंतॆ 67941
▁बजट 67927
▁देखें 67907
▁समां 67907
▁सकले 67906
▁रेट 67891
निंग 67883
▁अटै 67857
▁चॊ 67847
▁तण्णीर् 67846
िसलाग 67845
▁खुलासा 67830
▁आध्यात्मिक 67820
▁योगी 67818
▁उत्पत्त 67805
▁सोल 67801
▁1, 67775
प्पटविल्लै 67765
शक 67765
▁उपादान 67765
▁द्य 67760
ुंटुंदि 67758
▁विलै 67755
▁जिनमें 67695
▁तुम् 67694
पार 67674
क्कऱ 67671
▁टॊ 67658
▁वस्तुओ 67646
ङ्क् 67640
▁चेन्नई 67634
स्था 67629
▁बिसिन 67628
्ते 67627
▁मद्दतु 67619
▁पर् 67617
▁तिनटि 67602
छन्ति 67597
▁शोधी 67574
▁कलिग 67537
▁केबळ 67532
▁वरद 67527
डिया 67522
▁गणित 67520
▁मनस्स 67507
▁ऐक 67506
▁कोलकाता 67506
▁डाटा 67480
▁सफेद 67477
ुला 67462
▁घटा 67454
▁अर्जि 67443
वंतमैन 67442
डिक 67439
▁कृपया 67428
▁वपराश 67426
▁समें 67425
▁وی 67421
▁दत्त 67414
▁कुऴन्तैकळ् 67404
ायुं 67383
व्य 67378
▁निर्धारण 67376
ेलो 67350
थिले 67349
▁जनि 67347
▁कायदा 67338
वाड 67336
ाख 67324
्को 67323
▁अबश्य 67321
▁अऩुमति 67317
▁ओछामां 67316
▁ढिल्ली 67297
▁कैंसर 67293
▁स्वतंत्रता 67293
▁चुक 67278
▁उत्तरः 67270
▁झालेल्या 67269
▁स्थगित 67264
िसुत्त 67259
▁सागर 67241
▁चोद्यं 67226
▁पसार 67223
प्पाक 67209
▁आऩा 67204
▁जिन्होंने 67199
बर् 67191
▁ऎङ्कळुक्कु 67185
▁पारी 67160
▁अना 67157
▁पॆयर् 67142
गाने 67139
नायि 67138
▁आरामदायक 67122
▁कानूनी 67110
▁माडलागिदॆ 67072
▁पाह 67056
▁प्रादेशिक 67036
▁इंटर 67033
▁सस्य 67032
▁अपघात 67020
▁युद्धं 67017
▁स्टाफ 67014
▁तेति 67006
▁अवुतुंदि 67001
िरिक्कणं 67000
▁पशु 66976
▁एक्टर 66965
▁उम 66964
▁بھارت 66959
▁उतवि 66959
टऩ् 66954
▁प्रारंभिक 66951
ॆगळल्लि 66940
یاں 66937
डम 66936
▁आपनारा 66936
वश 66934
▁تین 66931
▁आसानी 66921
▁کیونکہ 66920
▁Q 66909
सै 66897
▁वर्षनी 66895
▁पोट्ट 66889
▁ڈ 66887
▁अभ्यर्थ 66883
▁कदे 66869
▁आवाज 66867
▁विचित्र 66859
वाह 66849
▁साह 66829
▁दोवें 66813
▁इष्टं 66807
▁46 66789
▁निवार 66788
▁ہوگا 66787
पनी 66759
▁दूरी 66739
▁दानिनि 66730
िय् 66722
▁ताय 66668
▁रोम 66659
▁हाँ 66655
▁हजी 66639
▁میری 66631
ऱो 66616
▁प्रीति 66595
▁बॆळॆ 66593
▁डिग्रि 66581
ैकळुम् 66578
▁अलि 66557
▁अगत्यविदॆ 66556
▁कुऱिच्च् 66555
क्कूटिय 66541
ुमॆ 66538
▁भ्रष्टाचार 66524
▁کس 66516
ख् 66501
▁इनके 66492
▁बरॆय 66479
▁मोते 66462
▁धेरै 66431
▁अथच 66426
▁نظر 66417
▁पवार 66410
ङ्किलुं 66400
▁प्रस 66391
▁इलांटि 66390
ऩैकळ् 66387
ारेर 66382
▁पॆण्कळ् 66370
▁सौकर्य 66358
▁पराम 66346
▁वाङ्ङ 66342
▁सकलो 66311
▁अनुष्ठान 66309
▁अंते 66300
▁इया 66294
पीसी 66287
्मॆंट् 66286
▁अनुवाद 66272
▁कखन 66257
▁ع 66250
शारु 66239
▁अष्ट 66230
▁नेर्च 66229
▁सुद्धा 66226
▁आंदोळन 66210
▁घेत 66204
▁डिजिटल् 66204
▁आच 66199
िना 66151
▁पाठशाल 66127
▁ब्रा 66119
ैक् 66112
▁جنگ 66111
▁बाधित 66105
▁मुख्यंगा 66072
▁रणबीर 66057
▁काक 66054
▁2001 66034
▁अभियुक्त 66029
▁प्रतिक्रिय 66025
▁अनुवदि 66009
▁वलि 65987
▁करीना 65979
▁होनी 65968
ل 65966
▁ट्वीट् 65933
▁इंच 65927
▁भीकर 65919
▁600 65891
▁निन्नुळ्ळ 65890
▁فون 65881
▁बिचार 65876
▁अमसुं 65873
▁अनिप 65872
▁गठित 65844
▁शिखर 65834
प्त 65832
दनि 65829
▁प्रज 65795
▁चर्वतेच 65792
▁निक्षेप 65792
त्तेक्क् 65745
▁मोटर 65744
▁मक्क 65716
ताम 65714
▁निल्ल 65714
▁जांदी 65710
गुरु 65698
्ती 65682
वाक 65677
▁मून्नु 65666
▁रम 65656
▁आलिया 65654
तुण्ट् 65640
▁कर्मचारियों 65598
▁गर 65598
▁इणैय 65580
▁गम 65557
▁तिरञ्ञॆटुक्क 65555
▁बन्धप्पॆट्ट 65554
▁मासिक 65538
▁ट्रक 65523
▁मध्यप्रदेश 65512
▁श्रीलंका 65512
▁जेवी 65503
▁स्वन्तं 65496
▁चीज़ 65473
▁रखते 65464
▁ब्यबहृत 65446
▁ध्यानमां 65439
▁शहीद 65429
▁पोट 65424
.9 65399
▁अनन्य 65396
▁एदेर 65377
▁एछाड़ा 65371
▁विय 65361
▁पहिल्या 65360
▁कैगॊळ्ळ 65351
▁अच्छ 65349
रिक्कुन्न 65342
▁मृति 65338
▁उष्ण 65336
▁शतक 65330
▁सदर 65319
▁کبھی 65315
▁बाप 65312
▁انہن 65296
▁किउं 65294
▁अनुष्का 65284
▁भर्ति 65279
▁आरोक्किय 65278
▁उत्कृष्ट 65278
जल 65275
▁निरापत्ता 65265
ागिद्दु 65263
▁لوگ 65258
▁गोल्ड 65254
▁गर्ने 65236
▁जानता 65229
िऱ्कु 65223
▁गयुं 65223
▁यूनिवर्सिटी 65211
▁बिय़े 65209
▁बांध 65192
▁विनियोग 65185
▁थाकार 65181
ोम 65179
▁متحدہ 65172
नाहिँ 65169
▁करलेन 65169
▁देब 65161
▁वर्षीय 65145
▁यांची 65124
or 65108
▁क्यू 65097
▁आडळित 65084
▁इङ्ङनॆ 65075
▁नव्हता 65075
ाबो 65071
विट्ट 65070
ुंटुन्न 65064
▁उऩ् 65056
▁अक्रम 65047
िद्दारॆ 65037
▁बिकाश 65035
▁बुल 65034
▁कॉल 65033
न्नाडु 65028
ष्ठ 65005
▁मनॆय 65003
ांड 64998
▁उरुवाक्क 64990
▁एकदा 64986
▁गान्धि 64986
▁एकॆ 64966
▁उद्घाटन 64965
▁अञ्च् 64962
घा 64959
िरिक्कुं 64957
▁खे 64953
▁काजेर 64942
ال 64941
▁तेनाथी 64932
चम् 64925
▁तिरु 64925
तिना 64922
▁पयऩ 64918
ास्त 64908
▁अपकट 64906
17 64898
▁मुऴु 64898
प्ट 64882
झर 64880
श्र 64871
▁म्हटले 64859
ष्टे 64858
ुकळुम् 64849
▁नव्हती 64845
वं 64842
▁हौदु 64838
▁कीलक 64830
▁दर्शन 64822
▁कुरु 64817
▁कहां 64800
▁मुन्न 64800
▁हिँ 64790
▁वेसि 64789
िंग् 64788
क्टर् 64787
▁निभ 64785
▁सबै 64768
▁मनकु 64760
▁प्रयत्निंच 64758
▁राजपूत 64752
▁मॉ 64746
▁अंगीकर 64740
▁वाई 64731
▁फेले 64720
▁1: 64700
▁उङ्कळै 64696
▁कर्त्त 64694
▁पाद 64679
क्कुव 64656
▁उदाहरणकु 64654
हित 64638
हरूको 64623
▁पङ्क 64606
▁सम्पन्न 64604
▁जगत 64601
ाबाद 64593
▁काणा 64591
▁पुस्तकं 64587
▁प्रशस्त 64585
▁नोटिस 64583
▁करण्याचा 64575
▁वीटियो 64541
▁इन्स्ट 64516
▁श्रद्धा 64505
▁बच 64500
ाबि 64499
▁एशिया 64491
स्टि 64470
▁जबाब 64451
▁डिस्क 64443
▁प्रभ 64433
▁देखभाल 64423
▁अवचियम् 64394
▁कुदरती 64389
▁फिलम 64369
ञ्च् 64359
▁मेट्रो 64358
▁کہنا 64338
▁अरजी 64337
ियाँ 64336
लाय 64324
तिल्लै 64321
▁दिसत 64279
▁नीरिन 64269
वागिवॆ 64268
▁छोटा 64259
▁जाल 64242
ुण्ट् 64241
▁छूट 64221
▁अऩै 64213
▁रष्या 64212
▁भद्रता 64191
▁पराति 64185
▁टिकट 64184
▁मत्त 64179
▁तालिबान 64178
टाओ 64161
▁जानिय़ेछे 64156
▁नॆर 64154
▁बास्त 64149
▁اعلی 64143
▁वेय 64127
▁ठाकरे 64118
▁तॆलुगु 64112
▁बढ़ा 64112
▁इक्कार्यं 64110
▁करिबे 64088
िल्लॆन्न् 64084
▁गै 64074
▁प्रत्ये 64069
▁माऱ्ऱि 64061
नीय़ 64027
िकेषन् 64026
▁खारिज 64024
▁इटम् 64018
द्दि 64015
▁याते 64015
पूर 64011
▁بنانے 64007
▁बाध्य 64005
▁गद 63996
ब्य 63973
▁केलेल्या 63968
▁मुस्लिं 63968
▁करीत 63963
क्कणं 63961
मन्त्री 63949
▁इंग्लीष् 63946
▁फार् 63943
ुळ्ळत् 63933
▁एकदिन 63931
▁देइ 63931
▁चाहे 63914
▁हिमाचल 63913
▁ट्रा 63902
▁हत 63857
तऱ्कु 63854
▁दिबस 63851
▁इस्त 63846
▁काँग्रेस 63829
▁कुट्ट 63820
▁1000 63814
▁चेस्तारु 63811
▁चर् 63807
▁جیسے 63804
टैय 63787
▁धाराळं 63786
▁बजार 63781
्रम 63778
नाव 63775
▁बिज्ञान 63769
विक 63767
r 63764
▁सरियाद 63754
▁पाब 63729
स्टर 63717
▁संपूर्णपणे 63700
▁इऩ् 63685
▁हव 63685
राज 63669
▁करेल 63669
▁آھی 63648
▁उसमें 63636
▁जळ 63632
▁शुधुमात्र 63628
िंट 63624
▁आह्वान 63624
▁अनुभवं 63615
▁चात 63603
▁پروگرام 63597
▁प्रतिष्ठित 63594
▁विद्यार्थि 63580
▁चिवरि 63574
त्तोळं 63551
پ 63550
▁भक्त 63540
विन 63538
▁जिल्ल 63538
▁ढाका 63538
ैयि 63531
▁विटमिन् 63516
▁असलु 63513
▁राजि 63481
▁आत्मविश्वास 63478
ऴ्स् 63457
▁बन्ने 63454
तॆन्न् 63452
▁नवीं 63446
ाकी 63443
▁हक 63435
▁अतऩाल् 63426
▁पढ़ 63426
बड्डायि 63414
▁चॊन्त 63392
क्ति 63382
▁मिनि 63380
िपोयिंदि 63378
▁मेने 63378
▁टिक 63370
▁आदित्य 63363
सिस 63354
▁ऎम् 63348
▁पारछि 63341
▁कपूर् 63331
▁कुटि 63328
▁कॊल 63321
▁تاریخ 63313
▁नेहमी 63312
वड 63306
▁दग्गर 63301
▁तीर् 63295
▁रैलु 63291
▁हुडुक 63284
क्काक 63279
▁प्रसंग 63277
▁तॊटर् 63276
पटि 63275
▁शिकार 63274
▁आतन 63251
िसिरुव 63244
▁निर्णयं 63236
सिंग् 63219
याळ 63215
▁इन्तियाविऩ् 63213
▁سائٹ 63199
▁डोळ 63190
▁तवण 63167
ळिटम् 63166
▁चॆयल्प 63166
▁वाप 63150
▁इतिन्ऱॆ 63146
▁उंडवच्चु 63144
रुटॆ 63135
▁महिना 63134
▁आतंकवादी 63133
.6 63132
▁अधिकारुलु 63117
▁वाऴ्व 63112
▁ممالک 63107
▁बण 63093
▁आक् 63091
▁कतै 63075
▁अशोक 63064
▁सन्देह 63058
ॊळ्ळ 63049
▁शान्ति 63046
▁अळवु 63019
▁स्मरण 63000
▁एमनकि 62984
दिद्दरॆ 62973
▁एदो 62971
▁जून् 62962
▁दौरा 62947
▁85 62945
▁त्यावर 62939
▁ہوتی 62930
▁काछ 62914
▁मूलभूत 62909
▁स्नातक 62880
▁कुऱित्त 62878
▁देंगे 62877
ुका 62874
ुतुन्नारु 62871
▁निजे 62862
▁आधारे 62861
▁पडॆयलु 62851
▁प्रतिनिध 62832
▁लव 62803
थिला 62794
▁मॊद 62794
▁सूत्रों 62791
ळिगॆ 62790
▁फाइनल 62790
ोट् 62768
िंचायि 62749
▁अधिकारिगळु 62749
ऎन् 62728
▁सहभागी 62718
▁पञ्च 62715
▁चालू 62700
ौर 62691
▁दानिकि 62683
▁नजीक 62674
▁पिटि 62659
▁निकल 62655
v 62649
▁उद्यान 62639
▁काङ्किरस् 62629
्कळ 62622
▁लुक 62608
▁दार 62600
▁मुऩ्ऩ 62587
▁नीर 62567
विट्टु 62562
▁साध्यत 62542
▁अळिक्क 62539
▁प्रशंस 62529
▁कॊट्ट 62528
▁मरिच्चु 62527
▁निति 62524
▁एग 62513
ुवुदन्नु 62512
▁तेर्वु 62512
▁शुन 62510
ण्ड 62505
▁प्रश्नं 62505
▁मिश 62496
ेलि 62481
▁देशमां 62419
▁रोगि 62412
▁कार्यदर्शि 62407
▁کن 62405
▁کمپنی 62394
▁ऑटो 62393
▁बांलादेशेर 62388
▁प्रोत्साहन 62383
▁क्लिक् 62357
व्या 62350
▁धु 62350
▁एर् 62341
▁नेटि 62334
िरुत्त 62332
ت 62327
हान 62323
▁एंटी 62323
▁कॆन 62323
▁रण 62318
▁सर्विस 62314
▁चर्यलु 62306
सिद 62294
▁जखमी 62290
▁अवसानि 62281
त्तिलेक्क् 62278
▁विद्यार्थिगळु 62274
▁छिलो 62268
▁योजन 62265
▁पणं 62252
▁स्थाने 62252
वुमाय 62239
▁जोखम 62230
▁वणिक 62220
शक्ति 62212
्तु 62209
लुक्कु 62198
▁बहुशः 62187
▁योजनॆ 62176
▁उनको 62163
▁गौ 62151
▁रेडियो 62147
▁निगरानी 62146
पद 62140
▁बज 62135
गॊ 62118
▁निम 62115
▁काहीच 62110
▁आती 62103
▁खूबसूरत 62097
▁तिळिसिदरु 62095
िसुत्तेवॆ 62086
▁लॆक्क 62085
▁जूलै 62077
▁शेय़ार 62069
िकळुम् 62056
▁किशोर 62053
▁बाङ्क् 62049
डिकि 62047
ागा 62047
.2 62044
▁इवरु 62040
ाद् 62028
▁आण्टिल् 62028
▁उक्त 62027
▁विज 62027
▁कट्टड 62026
ाद्यंत 62000
▁370 61999
▁ऊह 61971
▁अतिनॆ 61967
णां 61958
ोरा 61957
▁बॉ 61933
▁गबेषणा 61932
रुल 61930
▁हुण 61918
▁करन्तु 61905
▁किटैयातु 61899
्याचा 61897
▁लक्षं 61892
▁मोडी 61881
▁तारिख 61877
ियुळ्ळ 61860
▁विरु 61858
▁ऎल्लरू 61846
▁व्याधि 61842
▁فی 61840
▁लभिक्कुं 61834
▁मुटि 61833
▁डिसेम्बर 61821
गां 61818
ूत 61791
▁जस्टिस 61784
▁उत्पादक 61780
▁एगुलो 61773
▁जय़ 61773
▁तॊऴिल्नुट्प 61765
▁ऒत्तड 61743
गरी 61738
पति 61737
च्य 61723
ोलो 61697
▁भट्ट 61696
▁नम्बर 61689
▁चुप 61654
उण 61643
▁बिबाह 61642
▁हेबा 61641
▁नीङ्क 61637
ियिलॆ 61635
▁लेगे 61635
▁नित 61629
मित 61620
▁एभाबे 61619
▁आते 61618
▁वाऴ्त्त 61603
ज्ञ 61590
▁अरच 61587
चर् 61586
बहुदाद 61586
▁भागीदारी 61586
ंतु 61576
▁अवश्य 61572
▁ऎक्कड 61555
▁54 61551
▁शतांश 61542
▁चॆय्युम् 61533
गॊळ्ळ 61530
22 61529
▁ऒरुपाट् 61527
▁निरीक्षण 61527
▁करिते 61524
▁अंदरॆ 61516
▁आल् 61506
▁गॊत्त 61496
▁विळै 61495
▁आह 61494
▁नीडि 61486
▁कऴियुन्न 61471
▁आतंकी 61466
क्कं 61460
▁قسم 61458
▁ختم 61447
▁उप्प 61415
ायनि 61413
▁ضروری 61413
▁सेटाइ 61408
▁मळ्ली 61402
▁केल्या 61398
वेर 61391
▁सर्वाधिक 61368
▁तोड़ 61360
्कळुम् 61353
िंचेंदुकु 61350
▁जिन्हें 61349
▁संरक्ष 61348
▁संशय 61343
्त् 61322
▁तमिऴ् 61312
तवपूरन 61303
▁जुओ 61297
▁दिवसे 61294
▁विषयालु 61274
▁समयत्त् 61273
▁पुरातन 61266
ra 61256
▁करण्यास 61254
▁ओपन 61247
▁हसपताल 61230
प्पुक 61228
ियलु 61226
▁खतरा 61224
▁गभीर 61212
ावुं 61211
▁अकाउंट 61210
दल्लिरुव 61204
▁कम्पनि 61200
▁एतो 61194
▁केंदर 61192
▁ہماری 61181
▁चौकशी 61181
▁क्रे 61166
▁दीन 61146
▁निचे 61145
▁इंतजार 61139
▁कलाक 61138
▁थिबा 61132
▁विषयम् 61123
▁आईपीएल 61120
यिच्च 61119
▁अवर्कळिऩ् 61103
▁चित्रत्ति 61095
▁पाछळ 61093
▁वयस्स 61081
▁षो 61080
▁जाव 61036
MP 61029
▁थाकेन 61022
▁सिल 61007
▁सुझाव 61000
▁आपला 60994
▁آن 60993
▁पुस्त 60989
ुकॊण्ट् 60974
यों 60970
▁ऎल्लि 60967
▁टेक 60965
ॊप्पं 60960
▁नाश 60955
▁यावुद 60952
▁दौरे 60942
ुनो 60928
▁ৱ 60914
▁खिलाड़ियों 60910
▁ऎक्क 60907
▁मुसलमान 60894
▁नेरत्तॆ 60890
▁कोस़िस़ 60882
▁बेस्ट 60874
पेक्षा 60873
कॊ 60871
ہہ 60867
▁चोख 60819
▁अन्तर्भुक्त 60817
▁चुनौती 60813
▁चीफ् 60806
▁वन्न 60806
▁संप 60804
▁मिलता 60803
▁वोल 60785
मिक्क 60755
▁दर्द 60749
▁تقریبا 60748
▁प्लास्टिक 60747
▁मोद 60745
▁तीसरे 60742
▁विशेषवागि 60726
▁मोटो 60722
▁बॅ 60721
▁बास्तब 60687
▁फैल 60680
▁परेशानी 60676
▁चॆय्यान 60636
▁चूडंडि 60630
▁बाथरूम 60623
▁चौधरी 60614
▁निराकर 60611
▁लक्ष्यं 60606
▁41 60601
ल्लू 60582
स्ऱ्ऱ् 60582
▁अप् 60582
▁चन्द्र 60582
▁करबो 60574
▁स्मृति 60574
▁मरिच्च 60569
▁अमरि 60564
▁रद्दु 60560
▁स़ानदार 60555
▁तॆर 60554
▁चीफ 60549
ान्तु 60519
▁مصنوعات 60490
▁इरुप्प 60488
त्तोटॆ 60478
▁घरी 60469
िनुळ्ळ 60465
▁सग 60461
▁चांगली 60458
▁कलर 60448
ुकुंदि 60446
▁अरविंद 60444
▁हैदराबाद् 60443
▁इन्टारनेट 60438
▁मट 60437
▁पेस़ 60433
▁अतॆ 60432
▁अंदुके 60429
गद 60419
क्शन 60404
▁कामना 60393
▁2002 60389
▁लेक 60378
▁जाओ 60368
▁माडिदरु 60354
्याचे 60345
▁रोजी 60344
▁अजिहे 60337
ल्लिन 60324
▁पूछा 60323
▁भरा 60312
▁प्रतियॊब्ब 60303
▁परम 60299
▁تبدیل 60296
▁बिंदु 60296
▁निंद 60278
▁चीजें 60275
िकळि 60274
▁कक्षा 60271
▁वॆळिये 60263
▁बॆंगळूरु 60259
▁परबर्ती 60252
ागत 60250
▁अतिकमाक 60241
▁आस्त 60233
ुवुद 60231
ع 60225
फल 60216
तेन 60215
▁धारण 60215
▁मार्प 60207
▁मशीन 60201
▁लिं 60201
द्दे 60198
त्तिले 60179
▁नडुविन 60172
▁मौलिक 60166
प्पिक्का 60146
▁भने 60139
▁लैण 60138
िलेये 60129
टिके 60123
▁कण्टु 60123
▁1990 60112
▁वटिव 60112
फ्र 60099
▁बोझ 60099
▁रोकाण 60076
बंध 60069
ासन 60066
▁पाम 60065
लाक 60054
जन् 60047
धित 60037
▁जिन्हां 60035
▁आप्यो 60032
▁दीनिपै 60022
ॆयागि 60012
▁कॆलवॊम्मॆ 60001
▁न्यूनतम 59999
्रॆ 59995
▁केबे 59978
▁कल्वि 59975
▁دینے 59970
▁मोटि 59962
ैं 59950
▁इंडियन् 59946
ऱा 59944
▁दुर 59941
▁ईमेल 59932
▁कऴियिल्ल 59931
▁72 59927
स्स् 59911
▁जाहेरात 59896
▁ऎन्निकल 59892
▁एनी 59885
▁एऩॆऩ्ऱाल् 59881
▁गिरावट 59881
▁विचारणै 59880
ल्कळ् 59877
▁جان 59869
िसल 59827
▁हॆच्चागि 59825
▁पिऱन्त 59824
▁कप्पु 59823
ऱ्कुम् 59821
▁थर 59807
▁जावे 59798
स्तुन्न 59795
▁तक्षण 59773
▁سطح 59770
▁मिलते 59769
ानंतर 59768
▁लेते 59763
▁एऱ्पटुत्त 59754
ی 59748
▁चुऱ्ऱ 59745
ॆन्नाण् 59738
▁करुं 59737
▁व्याख्यान 59722
▁चन्त 59718
▁भीतर 59713
क्कुप् 59704
▁अवसरमैन 59694
▁तिळि 59688
▁गांधि 59684
▁तम्मि 59679
▁कोरुक 59673
▁संधी 59672
▁प्रिय़ 59670
▁भबिष्य 59670
▁तरीही 59657
ावै 59656
▁मिऩ्ऩ 59647
▁किमी 59636
▁चार् 59619
ुविट 59612
▁वेक 59605
▁वारिनि 59599
्याप 59596
▁वरुं 59593
▁प्रश्नङ्ङ 59592
▁फोट 59590
▁मुद्दों 59578
▁न्य 59575
िसे 59574
विय 59566
▁Y 59561
▁करलाम 59537
▁बढ़ावा 59530
▁आमेरिका 59526
▁US 59524
▁جہاں 59523
▁परिमित 59517
जिए 59511
▁रजू 59505
▁वेऱ 59505
सने 59497
काश 59490
▁कूऱिय 59476
▁रूपमा 59467
▁51 59451
▁कुऱच्च् 59446
▁by 59441
यिलुं 59438
गळू 59422
▁माणस 59422
▁बिक्री 59417
▁बनाववामां 59404
▁ध्वनि 59398
▁उठा 59387
▁व्यक्तमाक्कि 59381
▁अबस्थान 59373
▁वैरल् 59369
वाला 59366
▁रहना 59366
वागिद्दु 59364
▁जिलों 59359
ف 59346
▁انہیں 59336
▁माहितियन्नु 59328
िस्थ 59324
▁दिल्ही 59318
िरुन्तु 59302
▁त्य 59287
▁इय़ा 59275
▁तायि 59273
▁सरकारि 59267
लुं 59264
▁व्हिडिओ 59251
▁निरूप 59246
▁तूक 59240
▁आपूर्ति 59226
▁उळ्ळऩर् 59226
▁अमरीकी 59223
▁रुप 59215
▁तॆरियातु 59213
र्थ 59208
्किऱ 59204
▁पग 59186
▁स्वी 59170
बडुतुंदि 59157
वाळ 59148
▁आसछे 59132
▁अपडेट 59127
▁डाक्टर् 59122
▁जीवितंलो 59121
▁संयोग 59105
▁کیوں 59101
▁प्रश्नेर 59094
िय़ाल 59092
▁حصہ 59082
▁ऎन्नो 59080
▁ऎण्णं 59068
ैया 59060
▁कमिटी 59056
गेर 59055
▁अंतर्राष्ट्रीय 59052
▁वर्णन 59051
▁आकर्षण 59039
रुव 59037
▁तमिलनाडु 59013
▁गुरि 59002
द्धि 58996
▁वरुकिऩ्ऱऩर् 58986
▁अंतरिक्ष 58970
▁आदर 58967
▁भक्षणं 58942
▁सचिब 58938
ादन 58937
्ग 58937
▁ऎन्नुं 58936
▁केंद्रित 58933
.4 58930
▁ऎन्त् 58928
गिंत 58927
बासि 58925
▁بیان 58922
वात 58908
ب 58905
▁बनाई 58903
▁उतर 58899
▁सौजन्य 58896
▁वेर 58892
▁تائین 58891
▁अतऩै 58881
▁मंड 58870
▁वाटि 58852
▁कप् 58851
▁भएको 58851
▁रॆड्डि 58848
▁राज्यद 58841
▁रिकॉर्ड 58831
▁पोर 58823
▁फोर 58810
▁चिक 58808
▁पळ्ळ 58799
सद 58795
थाए 58783
▁झालं 58770
▁डिस्प्ले 58768
▁गिणती 58764
रिगू 58756
▁निदान 58748
▁کوشش 58732
ाइल 58730
न्मा 58729
کو 58715
▁एप्रिल् 58703
▁साङ्केतिक 58701
▁झडपथी 58693
▁واپس 58692
▁लोकांना 58682
▁उग्र 58679
▁خیال 58675
▁मॆरुग 58669
▁फैल् 58666
▁कवि 58656
▁टेबल 58649
▁गर्म 58645
ंदुकु 58638
▁जाणो 58637
▁सहयोगी 58633
मेन 58625
▁उत्तरं 58625
▁संदर्भंगा 58620
▁सिक्क 58620
सिल 58615
▁ताल 58615
▁800 58612
▁राम् 58610
▁एतॆङ्किलुं 58609
▁आपली 58608
▁स्ऱ्ऱ 58607
▁पडॆद 58589
▁चद 58573
▁पाकिसतान 58572
तिनॆ 58564
▁हस्ताक्षर 58564
▁शाखा 58561
▁ک 58552
یو 58551
ादु 58539
▁तॊऴिल् 58536
▁दम 58535
▁नाऩ्कु 58535
▁वाह 58530
▁हाद 58527
▁तव 58519
▁निजेदेर 58519
▁विमर्श 58518
▁वरि 58516
▁बेशिरभाग 58508
ळ्ळु 58505
ायं 58502
▁बाजु 58499
िलेन 58497
▁कोट्ल 58492
▁निर्यात 58490
▁तंड्रि 58481
▁उन्नय़न 58478
▁कंट्रोल 58473
▁पड़ते 58468
डर् 58459
▁नमक्कु 58446
▁वैसे 58446
प्पन 58443
▁सारो 58437
िसिकॊळ्ळलु 58433
▁बिकल्प 58432
र्ष 58422
▁वाळ 58422
▁95 58411
▁कर्तव्य 58407
▁सबइ 58400
▁काप 58399
▁बुद्धिमु 58397
▁फुटबल 58374
▁ऎटुत्तु 58357
▁क्लब 58357
30 58353
▁बरुव 58349
▁نظام 58348
▁लड़ाइ 58347
ूम 58343
▁प्रकारना 58326
हत 58321
▁अनुसारे 58315
▁قیمت 58286
▁बौ 58285
▁राखी 58284
गॊळिसलु 58283
▁COVID 58281
▁वरुन्न 58281
▁संबंधिंचि 58273
▁पोषण 58248
▁असि 58240
▁गर्दछ 58238
▁पन 58230
▁भरण 58223
▁अनुभब 58220
▁उड 58203
▁बेशी 58201
▁वृत्ति 58201
▁पेर्कॊन्नारु 58198
कार्य 58197
▁स्थानं 58196
िकळॆ 58194
▁कळ्ळ 58193
▁ذریعہ 58187
ुक्कॊण्ट 58186
▁इत्तरं 58169
▁वैविध्य 58162
▁चोद्य 58157
▁साबका 58151
▁पङ्कॆटुक्क 58141
▁स्बाभाबिक 58136
ed 58126
ॊऴुतु 58122
ान्स् 58095
▁देवी 58091
▁अल्लदे 58081
▁दूजे 58081
▁ऎन्तु 58074
▁कपिल 58054
▁आटगार 58049
ियल्ल 58042
▁अस्वस्थ 58042
▁ری 58032
▁अत्यार 58030
▁हार्दिक 58025
▁विद्याभ्यास 58018
▁पूरण 58017
िरुक्किऱेऩ् 58016
धो 58011
▁काऴ्च 58009
▁पकुति 58002
▁लळित 57998
▁कंईक 57996
▁नाटु 57992
▁दौर 57987
िय़ाय़ 57984
▁सेवाओं 57980
▁अलांटि 57968
▁اجازت 57963
▁गौर 57953
▁पुणे 57945
▁प्रयत्निस 57938
▁नगरं 57928
▁होवा 57927
ितर 57921
▁دور 57913
मात्र 57911
▁घटनास्थल 57911
▁अणि 57906
▁विधेयक 57905
▁शुने 57900
▁प्रश्नो 57897
ॆन्नु 57892
्वी 57888
▁जड़ित 57886
िसिदरॆ 57882
▁पैर 57882
▁बेंक 57882
▁जातात 57878
:1 57876
▁शाळा 57875
▁आवक 57872
खां 57867
▁परिपूर्ण 57863
▁कालम् 57862
▁कलि 57853
▁जिम्मेदारी 57851
▁अन् 57844
▁केन्सर 57831
▁तऩ 57816
▁करायला 57813
ायत 57807
▁तॆलिय 57792
▁काहीही 57787
▁गरीब 57786
▁एकाधिक 57785
ैना 57767
▁नण्प 57764
▁चट्टं 57759
▁قائم 57757
▁बॆळॆय 57742
▁नमतु 57731
▁अगाउ 57714
▁कंट 57712
मद 57711
▁बट 57709
▁खासगि 57698
▁अमलु 57696
کا 57685
▁काणि 57659
क्कप्पट्टतु 57645
▁होसेन 57636
▁इत्त 57626
▁पठन 57622
नॆयाण् 57612
▁तविर 57600
स्तु 57599
▁विषयान्नि 57596
▁वर्षों 57591
ऴ् 57584
▁چاہتے 57581
▁युक्तराष्ट्र 57576
▁होगि 57558
▁सोड 57538
▁प्रतिनिधित्व 57532
रुक 57525
▁ہ 57497
▁स्म 57487
▁नीडलु 57484
तीत 57480
िरुक्किऱ 57475
ङ्ङिय 57466
क्की 57459
▁तेणी 57457
▁चलनचित्र 57456
▁एवा 57442
िऱार् 57441
▁टीं 57440
▁मॊऴ 57438
▁कुऱैन्त 57432
▁मानब 57431
ड्रो 57416
▁थां 57414
▁समयमां 57411
▁सथिती 57410
▁ईश्वर 57409
▁शेअर 57407
▁जर्म 57406
▁कंप्यूटर 57404
▁अधिकारि 57388
▁तात्कालिक 57381
▁स्ट्री 57373
मान् 57371
▁आसक्त 57371
▁बिस्तारित 57357
▁ओड 57353
▁मेहनत 57349
▁ऱष्य 57339
▁फ्रंट 57338
▁ہمیں 57331
▁लोके 57330
▁श्र 57330
▁सारि 57330
▁नतीजे 57326
▁स्पीड 57325
▁पक्षद 57322
ऩ्स् 57321
▁तत्काल 57311
▁उङ्क 57299
पडुतुंदि 57287
▁जाणार 57281
▁जनवरी 57280
▁त्यारबाद 57276
▁अतेसमयं 57271
▁गरेको 57269
▁अऩुप्प 57262
▁सुनवाई 57257
▁तॆरिय 57249
▁अऩ्ऱु 57237
नुंदि 57230
▁खरी 57221
▁56 57212
▁سو 57210
▁रिसर्च 57204
▁पोलीचार् 57202
▁योग्यता 57202
▁स्थानों 57199
ॆयिल् 57182
नाथ 57157
▁साक्ष 57147
▁पव 57139
▁रुग्णालयात 57137
▁प्रदूषण 57131
▁ग्रीन 57121
▁निजं 57118
िपै 57116
्यत 57070
▁उत्सव 57070
▁प्रार्थी 57065
▁मुख्यं 57062
▁सरस 57061
टिव् 57052
▁लाने 57035
माणॆन्न् 57028
ia 57027
▁प्रभावं 57012
▁बाधा 57007
ंगाने 56992
▁प्या 56992
लिद्दारॆ 56990
णय 56984
▁बहुमत 56971
▁रन् 56970
▁नह 56949
सीसी 56948
▁बनावे 56946
▁हेठ 56946
▁बेग 56944
▁करिब 56942
▁प्रार्थ 56932
▁स्मार्ट् 56924
▁बाह 56918
.3 56914
सिक 56913
▁अत्याचार 56910
▁मकिऴ्च्च 56898
▁चांगला 56893
▁अप्लिकेशन् 56886
राद 56884
वलि 56877
▁اسی 56873
बास 56865
▁तिन्न 56864
▁वस्तुंदि 56863
▁स्बप्न 56858
ङ्कुम् 56855
▁घटणा 56842
▁सचिन 56842
▁ऱो 56836
40 56831
ुकुंटुन्न 56830
▁रोकने 56812
▁मकान 56811
▁متعلق 56788
▁साहस 56754
▁सका 56744
क्च 56739
▁जोड़ 56734
▁मिश्रा 56732
▁मुऩ्पु 56724
ؤ 56713
▁रॆंडो 56705
▁थिए 56692
ठि 56688
▁कावच्चु 56687
पं 56680
▁अभिनन्दन 56666
▁राते 56664
दिआं 56656
विधान 56644
▁तल्लि 56641
ण्टा 56635
▁मार्च् 56634
▁उभ 56631
लिऩ् 56623
▁भले 56621
ॊन्न 56620
▁इन्हें 56614
▁नानी 56614
▁शेषे 56612
▁पाल् 56603
▁कीऴे 56601
वरुटॆ 56582
▁विकसन 56579
▁स्थलं 56576
▁बिस 56573
▁बिजॆप 56565
िकॆयन्नु 56560
वलसिन 56548
▁आटक 56540
▁जरुगुतुंदि 56539
▁राज्य़ 56538
▁मेले 56536
बन्ध 56533
्टे 56533
▁डीजल 56528
▁पणम् 56510
क्काण् 56506
▁॥ 56502
▁मुकाबला 56500
▁तुइ 56490
▁ऑल 56489
ुवतै 56488
▁गिय़ेछे 56488
माक्कि 56478
▁बंगाळ 56466
▁प्रचंड 56464
▁नमु 56440
▁तारं 56439
▁फरियाद 56435
▁वन्ततु 56431
▁रजिस्ऱ्ऱ 56429
▁आसा 56419
▁बिभाग 56415
▁स्वाभाविक 56410
▁बार् 56406
▁ऎप्पोऴुं 56405
▁होत्या 56397
▁इंग्ल 56389
हाल 56388
▁लड 56387
▁संविधानं 56365
▁पथे 56363
▁पॆट्रोल् 56362
▁तॆल 56353
िक्कणं 56343
▁किटैक्कुम् 56341
ैकळिऩ् 56325
▁दर्शक 56316
▁संबंधं 56316
▁व्यक्तं 56291
▁प्रेरणा 56287
▁लाइफ 56262
▁नॆट्वर्क् 56254
▁आनी 56247
ीकरण 56224
▁परिचालक 56188
▁डब्बु 56181
▁तंद 56180
▁चेशाडु 56175
▁तुम्हें 56170
▁इन्तियाव 56164
▁इंडिय 56160
▁मृत्युर 56160
▁ऱॆ 56145
▁e 56143
▁आमा 56143
▁सिस्ट 56124
▁अफ्रीका 56104
▁उत्तराखंड 56103
युळ्ळ 56094
▁वऴक्कु 56088
▁نئی 56086
▁यादी 56086
▁बाध्यत 56083
रुं 56074
▁कर् 56060
▁सलाहकार 56053
निल 56043
▁चम्पव 56040
▁شخص 56027
▁असली 56021
▁फास्ट 56015
सेर 55999
धिकार 55993
▁अनंतरं 55968
▁ب 55959
▁ऎक्स् 55951
▁छेल्ला 55951
▁एक्ट 55950
चेर 55940
▁साच 55938
▁सब् 55933
ुंटारु 55930
▁अवतरि 55930
رو 55928
▁इमरान 55923
ीन 55921
जीत 55917
▁करल 55912
िंचबडिन 55909
▁जाहीर 55897
▁माळ 55890
▁ब्यय़ 55878
प्रद 55877
▁पुरोग 55871
▁چار 55863
▁सौंदर्य 55846
▁जशे 55844
शिं 55826
▁ڪئی 55822
ॆयाद 55816
▁पैकि 55796
▁रय़ेछेन 55794
▁श्रृंखला 55775
▁करियर 55768
ुकुने 55760
▁सकूल 55757
▁ऎन्नताण् 55756
ौं 55753
ानेर 55746
▁चुकातार 55738
▁नटन्ततु 55733
▁प्रणाळिक 55724
▁जोखिम 55720
ादल्लि 55715
वुकळ् 55713
▁हस 55711
▁क्रिय 55706
▁फ्रि 55699
ोद 55681
▁टर 55672
ायेल 55664
▁राग 55656
टम 55650
्पि 55649
▁इरुवरुं 55644
िती 55637
▁मस 55635
▁लोनि 55633
द्वारे 55624
▁राब 55613
लाग 55602
▁पदवि 55600
▁بنیادی 55575
▁करले 55571
क्षित 55563
it 55558
▁बहि 55554
▁पिल्लल 55552
▁चिह्न 55540
▁झडपी 55539
▁लीधो 55536
▁II 55529
क्रम 55517
▁कालि 55500
▁अवळुटॆ 55491
▁पदे 55490
ुटॆयुं 55489
▁जनवरि 55485
▁वगर 55466
▁लक्षात 55454
▁यांचा 55453
निन्न् 55442
▁विस़व 55440
िक्केष 55439
Y 55437
जिंग् 55434
▁پہلی 55425
▁आयात 55422
▁खंडित 55405
▁नोय 55382
▁मुयऱ्चि 55375
▁بڑی 55369
▁قانون 55368
ऴि 55359
▁फळ 55356
थो 55349
▁बरं 55323
▁एन् 55320
▁प्रस्ताब 55316
.0 55310
▁एप्लिकेशन 55306
▁जुट 55304
▁पं 55301
▁खरेदी 55285
बेकाद 55280
▁ग्राह 55274
कारक 55270
▁इन्त्ययिलॆ 55259
▁आपणङ्क 55257
ंदी 55252
▁दिनांक 55252
▁लैन् 55243
▁मारिंदि 55239
▁मन्दिर 55238
ुंटे 55235
ङ 55226
▁समोर 55217
▁आतंकवाद 55213
▁بھر 55212
▁नऩ्कु 55182
▁खरं 55178
▁प्रतिकूल 55174
▁प्रस्तुति 55162
▁तपाईं 55155
दू 55154
जनेर 55148
▁सीसीटीवी 55147
▁सलहॆ 55144
▁उत्पादों 55143
▁तेदी 55131
▁1980 55130
▁लौट 55129
▁128 55122
▁भन्दा 55108
बीर 55093
▁आबादी 55092
▁अक्ष 55089
णीय 55082
▁गात्र 55082
▁खोला 55080
ळळ 55074
▁जिज्ञासा 55073
▁तोऩ्ऱ 55037
▁अद्देह 55024
▁एथिपाइँ 55019
▁उपहार 55012
▁उऱुति 55011
▁नोय् 55009
ुत्तिद्देनॆ 54994
पत 54982
▁नैतिक 54982
▁स्वि 54982
▁सरकारे 54974
▁ब्यां 54969
▁स्नेहि 54968
मैंदि 54961
▁भोट 54960
▁अनुभूति 54955
▁तिंगळ 54955
▁सदन 54946
▁पाने 54945
▁तिथे 54912
▁अतुकॊण्ट् 54910
▁सिख 54906
▁جانب 54896
en 54892
▁शक्तमाय 54892
▁पॆरुम् 54887
▁کیے 54872
▁अंट 54856
दल्लिदॆ 54852
ालुं 54833
▁इऩि 54831
▁तॊटर्पु 54830
▁स्पर्धा 54828
▁मीडियावर 54810
▁पुत्तक 54809
▁आस्पत्रॆगॆ 54805
▁चेयालनि 54780
▁उनि 54777
▁शरीरं 54767
▁کھیل 54755
▁लिंग 54754
ुवै 54753
▁ऑफिस 54752
▁फिल्ममां 54748
▁चमॎकार 54726
▁| 54715
▁साज 54713
▁मुटिन्त 54701
▁The 54691
▁कॊनॆय 54691
▁संप्रद 54684
▁मण 54655
▁پسند 54650
▁महत्त्व 54639
▁आसबे 54631
▁एकैक 54631
▁سر 54629
▁छोड 54626
िसल्प 54623
▁सौदि 54611
ार्ध 54603
▁नूआ 54603
य्क्कुं 54602
▁बहळष्टु 54598
▁रणवीर 54583
▁अतिन 54581
▁नीडिद्दारॆ 54574
ोह 54572
▁अभिषेक 54571
▁الاقوامی 54567
▁पूर्त 54556
▁वाग 54529
▁आधारंगा 54524
▁बयट 54519
▁कृत्य 54515
▁प्रामाणिक 54513
▁इरुन्ताल् 54508
▁अमॆरिक्का 54498
ुत्ता 54494
ॊळगॆ 54491
ाण्ट 54490
▁हॆच्चुवरि 54482
▁कुऴन्तै 54480
▁खरे 54466
▁जेव्हा 54465
▁मार्केट 54465
▁53 54457
ाइज 54448
▁जावेगी 54444
▁विपक्ष 54431
▁g 54426
मॆंट् 54422
ह् 54420
▁कळि 54420
▁فلم 54415
et 54401
▁मुंदुवर 54391
ॊप्प 54390
▁ईज 54382
▁व्यवस्थॆ 54373
▁ब्यबसा 54355
▁फर्म 54351
▁आप्पि 54347
▁सुनील 54346
▁लैस 54339
▁कार्यकारी 54321
▁सोपे 54308
ुंदि 54303
▁देवर 54287
▁एरा 54281
ागिल्ल 54280
▁لیا 54258
ाह् 54247
▁जागा 54245
ुंड 54229
▁दूरु 54214
▁स्तन 54213
वुमाण् 54207
ग्रे 54204
▁किळ 54204
▁शहेर 54204
▁ऐक्य 54202
▁रेकर्ड 54200
▁वां 54199
▁सम्मानित 54190
▁सचिवालय 54188
▁पोल् 54187
▁भर्त 54187
वागिल्ल 54183
▁मूलत 54171
▁स्वन्त 54169
▁अधिकतम 54162
▁ओट 54161
▁पार्प्प 54161
▁हस्तक्षेप 54159
▁आधी 54148
▁अदरल्लि 54145
▁मरीजों 54144
▁भद्र 54142
िबे 54139
▁भितरे 54138
▁स्मार्ट्फोन् 54138
▁नटन्तु 54129
▁पेस्ट 54110
▁اعلان 54109
्यावर 54108
लोकि 54103
▁देत 54101
▁कदाचित 54099
▁आशुपत्र 54093
▁محفوظ 54091
▁बेकु 54090
▁जाणे 54089
बस 54084
ुकुन्नाडु 54078
▁स्थायि 54073
▁आवास 54072
षन 54071
▁एकूण 54064
▁काँ 54064
▁59 54044
▁ह्रास 54030
▁जाय़गाय़ 54023
▁तॊऴिल 54023
▁असामान्य 54022
▁तरचुगा 54020
▁बध 54018
▁उपस्थिति 54013
ऴुं 54012
बेकॆंदु 54011
रुलु 54008
▁आखिर 53998
▁समीक्ष 53992
▁एतावतु 53981
▁खतरनाक 53975
ऩेऩ् 53970
ंडर 53965
▁भूकंप 53938
▁स्टेट्स 53938
▁म् 53936
▁संपाद 53936
▁वधुमां 53929
▁मनी 53922
▁نئے 53920
▁पार्थक्य 53913
▁गृहमंत्री 53908
ाज्य 53905
क्लि 53903
विऩ् 53900
▁r 53895
▁खाना 53881
▁स्कोर 53881
मास 53869
▁मोबाईल 53857
▁इविट 53856
र्ण 53855
िसबेक 53854
▁जीएसटी 53853
▁ग्रां 53851
ाल्सि 53846
▁नस 53842
वरॆगू 53835
िरुन्तार् 53831
▁خدا 53828
ागिद्द 53822
▁ब्रेक 53814
किऱ 53813
▁मनॆयल्लि 53810
▁वॆळियिट 53806
जीव 53796
▁4: 53788
▁महात्मा 53776
▁हेळि 53767
शुं 53754
नुसार 53743
▁विरैविल् 53738
ठी 53736
▁यारुम् 53732
▁विस़ेस़ 53732
सिंग 53722
ियिट्टिल्ल 53721
▁दृ 53719
▁हारिय़े 53719
▁राज्यत्तॆ 53708
▁बळसलागुत्तदॆ 53706
▁दशलक्ष 53692
▁आफ्नो 53687
▁अनुरूप 53678
र्द 53672
▁हेल्थ 53671
▁कोष 53663
ुवॆन्न् 53647
▁एकाउन्ट 53647
▁पङ्कु 53646
▁जनरल् 53645
▁रज 53645
▁चॆय्वतु 53643
▁हाईकोर्ट 53640
▁खून 53636
दॊ 53634
▁फॉर्म 53633
▁सप्ताहे 53626
▁चौक 53616
▁जुलै 53614
▁गुरुत्ब 53611
▁خواتین 53609
वेय 53608
▁रोहित् 53603
▁गव 53601
▁हेला 53578
▁अभिन 53575
▁इय़ 53573
▁इच्छे 53571
▁इनस्ट 53548
▁तॆलिपिंदि 53546
▁शाश्वत 53534
▁खनिज 53528
जात 53523
▁پرو 53509
▁निवस 53509
▁राजीव 53508
▁अनुष्ठाने 53506
सर् 53505
▁ऎव्वाऱु 53503
▁सौलभ्य 53493
▁ठाकुर 53491
ायिरिक्कुं 53487
किंग् 53471
▁जनङ्ङ 53465
ोलि 53462
▁आवश्यमाण् 53462
▁केसुलु 53462
▁नेटिय 53460
्कळिल् 53456
▁تعداد 53439
मुऱै 53438
▁शीख 53438
▁हिरिय 53436
▁नन्नन्नु 53435
▁सिस्टम् 53429
▁चिकिॎसा 53421
▁लेवु 53409
▁कर्मी 53406
▁इतिनॆ 53400
▁कात 53399
▁विश 53399
▁वडाप्रधान 53384
▁उपग्रह 53378
स्कर 53374
▁कॊळ्ळुङ्कळ् 53374
▁जनऱ 53367
▁स़हिर 53358
▁एरकम 53355
▁तॆरिगॆ 53350
▁चुक्ति 53346
▁घटेछे 53334
▁चोपड़ा 53319
रल 53313
▁कितना 53294
▁उळ्ळट 53279
▁सेंटर 53277
र्कळुम् 53272
▁गेला 53251
▁घाट 53245
▁माहौल 53244
▁आख 53236
▁अभ्यर्थि 53231
▁निरोध 53228
▁अऩैवरुक्कुम् 53221
▁मातम् 53218
▁ख़िलाफ़ 53216
▁जित 53216
▁संबन्धिच्च 53216
▁आद्यत्तॆ 53194
▁त्ब 53190
▁अबस्थाय़ 53187
▁लक्षणो 53173
षिक 53170
त्तनं 53166
ुकिऱार्कळ् 53162
न्नल्लि 53160
▁बलेछिलेन 53156
ुत्तानॆ 53148
▁दिवसवुं 53148
र्नल्लि 53143
▁कार्यकला 53138
el 53136
▁بتایا 53131
▁वाय्प्प 53110
▁अत्तुटऩ् 53109
ॆल्लाम् 53095
▁निर्वहण 53086
▁अवार्ड 53085
ीकरिक्क 53076
क्कुन्निल्ल 53074
▁इन्नॊंदु 53056
▁सिस्ऱ्ऱ 53055
▁इरुक्कु 53047
▁वत 53039
झा 53035
▁मई 53033
▁गायक 53029
▁पृथिबीर 53027
▁प्रतियॊंदु 53019
ول 53014
▁अवऱ्ऱै 53013
▁धाव 53012
▁ऒळि 53009
▁गिरफ्तारी 53009
ाबाद् 53006
जेर 53001
▁ओप 52990
प्पटि 52987
▁घेऊन 52985
▁खेड 52982
नै 52975
लोने 52975
▁उत्पादनो 52972
▁ताऴ 52971
िसल्पट्ट 52958
▁नीटि 52954
▁बिड 52954
▁मेर 52946
▁ऎतिर्पार् 52942
▁समस्यलु 52930
▁कुमा 52921
▁पकड़ 52909
▁होवुं 52908
▁मऱुपटि 52892
▁हान 52889
ैकळ 52885
▁रं 52879
▁देबे 52877
ऐस 52875
▁कापाड 52857
▁इरण्ट 52854
▁ऎल्लरिगू 52851
▁इवर्कळ् 52849
▁एअर 52844
▁नियमों 52844
▁परिचालना 52837
▁आऱु 52828
टेक 52825
▁बनाना 52809
▁कार्यकर 52804
▁रौ 52803
▁केर 52802
▁छैन 52798
▁स्ऱ्ऱो 52796
▁काउके 52782
▁अहमद 52775
▁अमैच्च 52771
▁पतिल 52769
▁दिनगळल्लि 52768
▁अंदिस्तुंदि 52761
▁जिसकी 52760
▁ی 52755
कालं 52752
▁होकर 52748
▁निम्मन्नु 52738
▁करावी 52734
िस्ऱ्ऱ 52732
▁शून्य 52732
▁खचितपड 52731
▁क्रिया 52726
▁यिनि 52719
▁सगळे 52718
▁कोणी 52715
▁भोग 52715
म्य 52714
▁गेली 52712
▁वेळा 52705
िस्ट् 52700
▁वास्तवानिकि 52699
्याक 52697
▁वचन 52683
▁व्यवहर 52681
कारीदेर 52680
▁अभि 52679
जिन 52677
▁ऒन्न् 52676
▁पालु 52675
यल 52673
▁क्यामऱ 52665
▁सार् 52665
▁मुट्ट 52652
भाबेइ 52649
▁کرتی 52647
▁मैचों 52647
लुगा 52644
▁تعلیم 52639
▁उन्ना 52631
▁जिज्ञ 52624
िन्तु 52616
▁एकत्रित 52598
ोरि 52595
▁1999 52592
▁गणना 52589
▁नीडिद 52589
▁58 52582
▁होवेगी 52571
▁س 52570
▁आरुं 52568
▁निरापद 52566
▁यारू 52563
▁डाइ 52562
▁हमेस़ा 52557
▁कर्णाटक 52532
▁इलाकों 52530
ित्तुक् 52527
▁محبت 52523
▁چاہئے 52523
ट्टम् 52515
▁हलेन 52511
▁स्त्रीक 52489
▁मनस्सिला 52488
यायि 52481
ॆयल्ल 52480
▁केल 52479
डिंग 52477
▁दुजन 52475
▁टाल 52474
▁ऎंदिद्दारॆ 52472
▁अतनिकि 52454
▁नेते 52443
▁दीप 52442
▁इरण्टावतु 52440
▁होराट 52439
▁माहीत 52432
▁मत्सर 52431
് 52426
▁मरी 52421
▁यात्रियों 52420
सोबत 52413
▁कप्प 52412
▁उकेल 52408
▁अवध 52405
▁आवेला 52393
,2 52392
▁बाट 52390
▁प्रजल 52385
ऩ्कळ् 52379
▁इन्तक् 52379
▁تلاش 52377
▁व्यक्तित्व 52370
नत 52369
▁पाक् 52361
▁ऎति 52354
ide 52351
▁आसते 52351
▁चिं 52350
▁प्लान् 52347
▁एय़ार 52345
▁मणिक्कू 52342
वंत 52333
▁कवलै 52331
▁ट्राम्प 52328
व्याप्तंगा 52314
गुल 52312
▁काकुंडा 52309
▁علاوہ 52306
्पु 52304
▁ग्राहकों 52303
पक्षे 52287
्ज 52285
▁उळ्ळिट्ट 52281
▁قومی 52271
▁हनः 52266
▁वर्क 52256
▁मेळववा 52243
▁सव 52242
▁डाय 52237
▁वाहनों 52235
मिन 52233
▁अवरि 52232
▁मैंबर 52228
▁माफी 52223
▁त्रास 52221
▁समर्पित 52207
▁हळॆय 52193
▁अतिकार 52189
रकम 52185
▁पिआर 52184
▁ذریعے 52177
▁इंधन 52173
▁धरपकड 52172
▁हासल 52172
▁परमे 52170
▁वस 52170
मंत्री 52168
माऱु 52152
▁वापसी 52144
▁चटुवटिकॆ 52141
▁नडॆ 52140
▁अश 52131
▁वॆऱ्ऱ 52128
▁अळविल् 52127
िरुप्प 52117
ुंट 52101
▁सोने 52100
▁ईरान 52092
▁ऎळ 52086
भाब 52080
▁अङ्के 52078
▁ऎऩक्कुत् 52076
ुकुन्नारु 52069
ागे 52054
▁मिळेल 52044
ेऱ्ऱ 52036
्लोनि 52020
▁पार् 52015
▁کل 52014
▁उत्प 52007
▁अनुच्छेद 52000
▁ह्य 51998
▁टिम 51991
▁अतिपॆद्द 51987
▁किछुटा 51978
▁कष्टं 51975
▁मुंबईः 51970
▁इरलिल्ल 51961
▁राज्यसभ 51949
▁تحت 51946
▁ठर 51937
▁इरुक्किऩ्ऱऩ 51932
▁संबंधिसिद 51930
▁गान्धी 51924
▁ल् 51921
▁असंख्य 51917
च्चॆ 51913
त्ताल् 51898
ol 51891
▁आहारं 51890
▁यस 51889
ंडु 51883
न्टे 51883
▁आरोपि 51880
▁परिच 51880
▁रॊ 51875
▁द्या 51873
िरुवुदिल्ल 51866
▁ور 51865
▁हिंदिन 51865
▁रैम 51862
ण्यास 51853
▁मोटाभागना 51853
▁नेन 51850
▁देती 51848
▁टाक 51836
ावत 51825
▁जरुरी 51821
ation 51813
माणित् 51812
▁चाक 51798
▁मूल्यांकन 51798
▁व्यस्त 51795
▁मूरने 51790
▁पाछा 51789
▁जनसंख्या 51788
▁संस्थॆ 51788
▁उॎस 51787
▁रेल्वे 51787
्लै 51771
▁सिद्धंगा 51771
ुकिऱोम् 51761
ाणि 51759
किऱतु 51755
▁अपार 51754
▁पूरक 51753
▁م 51749
▁उंमर 51748
▁पऱया 51744
▁62 51742
▁लक्षल 51741
▁इमेल 51740
▁मिल्लियऩ् 51740
▁अभाव 51737
▁सॆक्रट्टऱि 51734
▁सेमानङ्क 51729
▁खेलते 51728
▁स्बामी 51727
ध्यं 51720
ङ्कळैप् 51718
▁कॊञ्चम् 51715
▁रूपिया 51699
▁बालीवुड् 51698
▁سفر 51668
▁बळसि 51666
▁ڪم 51665
▁بچوں 51664
▁पॅ 51661
शं 51652
25 51646
▁इटली 51638
▁घणो 51631
▁बौद्ध 51630
डिन 51628
▁हागॆये 51624
▁एकदेशं 51620
▁पिऩ्ऩ 51610
क्कुऱि 51608
र्लो 51608
▁परिष्कर 51607
▁यीशु 51604
▁जुड़ी 51601
▁हागागि 51601
▁बरॆ 51599
▁इस्लाम 51598
▁पिरच्चि 51593
▁याच 51593
▁पावत 51587
▁साध्यतॆ 51582
▁नूऱ्ऱाण्ट 51576
▁मैय 51566
,4 51560
▁ادا 51557
▁तसवीर 51554
▁डोलर 51551
ट्टर् 51544
▁नागरिकों 51544
▁مقصد 51534
▁फेस्बुक् 51532
ुक्कॊळ्ळ 51530
▁जत 51519
▁साउथ 51519
▁बिक्रि 51517
▁पश्चिमी 51514
्चि 51509
.1 51507
▁किसानां 51503
ers 51502
▁प्राथमिकता 51501
ूट्ट 51498
چ 51496
िंचुक 51492
▁पूर्बरु 51485
▁ताज 51480
▁जुलाइ 51479
स़ी 51445
कडून 51437
▁पूर्णपणे 51425
▁एडादि 51423
▁तीय 51423
▁निय़मित 51417
▁ताण 51415
▁गुप्ता 51410
▁तॆरकॆक्क 51408
د 51406
▁अफिस 51405
▁प्रमाणपत्र 51394
ङ्कळैयुम् 51385
▁तम्मिलुळ्ळ 51385
▁कवित 51383
माल 51377
▁ऎन्निवय 51360
▁इन्टरनेट 51359
▁जार् 51348
▁अवुगळ 51344
▁आशङ्क 51343
▁सम्प्रति 51341
▁आरोग्यं 51335
▁सम्भबत 51332
▁जग्या 51329
▁अमैच्चर् 51325
▁जरा 51325
क्कळ् 51319
वराण् 51319
▁पुलस 51313
▁क्रीड 51311
ुकळुक्कु 51299
▁गाव 51297
▁बललाम 51285
िऱार्कळ् 51284
ासा 51283
جی 51281
▁ओद 51281
▁मृत्य़ु 51281
▁دل 51280
▁ठेव 51279
थिलि 51266
▁मांगो 51257
रं 51248
▁इमारत 51239
गळागि 51234
▁तंदॆ 51223
▁यिहो 51220
▁एनू 51216
▁प्रास 51211
मायुं 51210
▁क्री 51208
▁अंदरू 51187
▁जई 51178
▁बहिरंग 51175
तू 51163
▁चित्रद 51159
ट्लयिते 51157
▁तुहाडी 51152
▁کئی 51136
▁छय़ 51129
▁जेटली 51125
▁सेहि 51115
▁द्ब 51098
▁मुट 51098
▁रीतियि 51094
▁मुखे 51082
▁श्रमिक 51073
▁लागबे 51070
िंत 51066
▁प्रतिक्रिय़ा 51060
▁ऎङ्क 51054
▁धमकी 51046
▁बाज 51042
▁لی 51037
▁नेताव् 51033
▁सर्बोच्च 51032
▁गमे 51030
▁महिलाएं 51017
▁त्याच 51006
ट्टं 50990
▁दिग्गज 50987
▁समस्यार 50986
▁अछन्ति 50982
▁पवर् 50978
▁कटवु 50954
▁पुट 50951
ांग् 50945
न्ट्स 50936
▁पारब 50930
▁180 50925
▁इतो 50919
▁विवरं 50917
▁अप्ल 50915
▁अनुसन्धान 50912
▁एक्सप्रेस 50908
ट्टिगॆ 50907
स्तुन्नारु 50903
▁स्मा 50900
▁तेर्तल् 50893
ावुन्न 50892
▁कार्मिक 50888
▁भारतना 50878
▁चेव 50866
▁सान 50858
▁निभा 50851
▁नारायण 50850
बाबत 50846
▁जिम्मेदार 50841
षनल् 50838
ेलुं 50834
ुपो 50814
▁प्रमाणित 50808
▁उलकम् 50806
▁दक्षता 50802
▁उंडदु 50787
्यून 50782
▁सुलभवागि 50776
is 50774
▁3: 50763
▁नाण्यत 50763
▁पोस्ऱ्ऱ् 50763
▁करदी 50750
▁लेन 50749
वण्यात 50748
▁सिबिऐ 50743
▁कार्ट 50741
an 50734
▁दुसऱ्या 50733
le 50728
▁ञानुं 50728
▁इटीवल 50722
▁स्वाद 50720
त्तैक् 50716
लाण् 50712
▁अऴैक्क 50710
जिक 50705
▁तै 50700
▁तिंगळु 50675
ोए 50673
▁विश्वसनीय 50657
ुकी 50646
ऱुण्ट् 50644
▁कारणों 50635
▁वार् 50630
▁परीक्षॆ 50628
▁मुऩ्ऩाळ् 50626
th 50622
▁दुन 50622
▁ट्विट्टर् 50616
ठा 50604
▁ताजागा 50599
▁अऩ्प 50594
▁मेलिन 50593
▁बेळे 50586
▁روز 50580
▁माम 50578
न्ऱॆयुं 50576
▁ग्लास 50575
▁माप 50574
सां 50565
▁जरुरि 50562
रेर 50556
▁काल् 50556
▁उद् 50555
▁एळ्ल 50552
▁छाड़ 50546
▁वऴक्क 50546
▁नल्लतु 50537
▁क्रीडा 50529
▁फिट 50522
▁किट्ट 50521
▁वस्त्र 50521
▁अधिकारिक 50520
▁अऩुपव 50517
ायचे 50513
▁पर्वत 50513
ाची 50507
▁नटपटिक 50496
्यांना 50490
▁मेळ 50477
▁पुऱत्तिऱ 50474
▁घणुं 50471
▁फ्रॆंच् 50464
▁चर्य 50463
ानुसार 50462
▁ऒट्ट 50461
मण 50456
ोब 50454
▁तीरुमानं 50444
▁चॊल 50441
▁बुरी 50434
▁स्पंद 50433
▁5: 50426
▁उत्स 50426
▁नाट्टिऩ् 50426
▁करुत्तु 50425
▁ब्लाक् 50419
न्नत् 50410
ुकोवडं 50401
▁चित्त 50396
▁جون 50377
▁आसाम 50351
▁काठ 50350
▁आगित्तु 50342
कर्त 50338
▁परिचय़ 50338
▁निऱुत्त 50333
▁लभ्यविदॆ 50326
▁केहि 50316
ासह 50315
▁57 50312
ंगे 50311
डिंग् 50311
▁धरि 50310
ङ्ङळिलॆ 50309
▁कोरिया 50307
▁डिप 50304
▁जीवनद 50301
▁अंशग्रहण 50270
▁इताण् 50255
▁सरे 50252
▁होइथाए 50252
▁सॊंत 50250
▁धरती 50248
िकळाण् 50224
▁ड्राइ 50218
▁ब्रे 50198
▁फसल 50194
▁थाम 50183
वली 50181
न्लु 50168
▁नाट्ट 50158
▁इज 50157
▁अंचना 50150
▁वनडे 50149
▁सें 50149
▁इंटि 50143
ालपै 50122
मैयाऩ 50113
▁गाल 50111
▁अवन्ऱॆ 50105
▁व्यक्तपड 50077
▁गुम 50068
24 50058
यम् 50056
▁आगेर 50053
▁रास 50049
▁सहन 50046
▁चेसुको 50039
▁دیکھ 50030
▁संचालित 50027
ोरी 50026
▁कंप 50014
▁गाड़ी 50009
दल्लिन 50006
▁मॊदट 50006
▁जीवनमां 50003
ियायि 49998
▁बाबु 49997
▁कसा 49989
▁कुट 49980
,9 49975
▁ओप्ष 49960
▁नाथ 49956
▁कोटी 49949
▁धरा 49947
▁अवरुटैय 49946
▁पर्व 49946
मीर 49943
▁प्राणि 49941
ळर् 49939
▁डलार 49930
बॆ 49915
▁تاہم 49905
▁भारतदेशं 49888
▁घे 49886
▁जगातील 49884
▁उलकिऩ् 49882
▁इल्लात 49868
▁जीवनदल्लि 49862
▁बढ़ने 49860
स्ब 49857
▁بڑے 49816
त्तुक्क 49813
▁ऎऩ्प 49813
▁वरुकिऱ 49803
▁मागे 49799
सक 49791
िस्तान 49784
तीआं 49780
▁کون 49780
▁अजूनही 49773
टेर 49766
▁अटिप्पटैयिल् 49760
मेल 49751
▁بند 49746
▁शौचालय 49738
▁v 49730
▁ریاست 49728
▁उत्तरप्रदेश 49725
▁एत् 49721
▁करुछि 49719
गॊळिसुव 49715
ूड 49709
▁लीटर 49709
▁दर्याप्तु 49697
ट्टो 49696
वले 49694
▁66 49681
▁भारि 49679
▁ابھی 49678
करणं 49676
▁कधीच 49675
ायक 49664
▁रहेगी 49660
▁आरेक 49658
▁डु 49658
▁درخواست 49656
▁तॆरिवित्तार् 49652
▁धरणेर 49651
▁सुद्दि 49644
बू 49643
▁स्पेस 49629
प्पऱ 49624
▁किस्सामां 49624
हिः 49622
▁वहाँ 49622
िसलागुवुदु 49620
▁मस्तिष्क 49617
▁निलयि 49608
▁अंदुकु 49607
▁बलल 49590
▁कूटातु 49586
▁ब्लोग 49584
िक्कॊण्ट 49577
कळि 49576
▁हस्त 49573
▁مطلب 49568
▁व्यक्तिय 49563
▁आऴ्च 49561
▁मुसलिम 49560
▁राज्यसभा 49552
▁बढ़ती 49549
▁पाशे 49542
दिके 49541
▁ایف 49541
▁उन्नति 49541
▁मळ्ळी 49532
सिंह 49529
▁कोणतीही 49528
▁कैय 49526
▁सिन्हा 49517
ितं 49504
▁बेहतरीन 49502
▁लोकोनी 49496
▁ऎऴुतिय 49493
▁दिवशी 49484
▁शकीए 49483
ोग्य 49460
▁दीधी 49451
▁तॊटर्पाक 49449
▁स्मारक 49435
दीप 49422
▁नडॆसल 49419
▁प्रतिभा 49419
▁वकैयिल् 49417
▁प्रपंचंलो 49413
▁कंपनि 49412
اں 49409
▁अञ्च 49409
▁विदिआरथीआं 49395
▁नदि 49392
▁मेरकु 49386
द्दानॆ 49384
▁फ्रांस 49381
▁ताकत 49379
▁मादरि 49377
लिन 49371
▁उद्द 49365
▁भारतदेश 49365
▁संबन्धिच्च् 49362
▁ऎक्स 49353
चल 49345
▁न्यूड 49339
▁10,000 49335
▁सरियागि 49335
ादे 49334
▁از 49327
गलि 49323
▁सार्लु 49317
▁आछिल 49314
▁पिळ्ळ 49304
▁उरिय 49303
ुत्तित्तु 49300
▁आचर 49299
▁चॆब 49295
▁ऎदुरु 49285
▁नटवटिक्कै 49277
▁जिंक 49263
▁कास 49262
▁आक्रान्त 49259
▁सुधीमां 49259
▁कलम 49253
ाये 49251
▁प्रक्रियॆ 49251
िस्ते 49247
▁साबेक 49244
▁मुद्रा 49232
▁सङ्क 49231
▁मदुव 49227
▁रोजुलु 49226
र्य 49222
ोली 49220
▁मफत 49220
▁क्कु 49207
▁क्रॆडिट् 49198
▁चेवै 49197
▁निन्नॆ 49196
▁आसक्तिकर 49194
तय 49193
▁एमिति 49193
▁سوال 49183
▁युनिवर्सिटी 49180
राग 49178
▁दृष्टिकोण 49176
्रेस 49171
स्तो 49170
▁खरंच 49170
रुक्कुम् 49169
▁मृतक 49168
▁अरुण 49166
▁सौंप 49161
रणं 49150
▁निबन्ध 49138
प्पॆट्टत् 49123
▁थवा 49108
▁बोली 49107
▁ब्यापक 49105
िसुत्तिद्दारॆ 49101
्यता 49099
▁जाणा 49093
▁नॊ 49077
▁कमे 49074
▁चुतन्तिर 49074
शेष 49069
क्कुम्पो 49062
▁आङ्किल 49037
▁लीधी 49035
▁उयर् 49033
▁अलॆ 49030
▁कडिम 49030
▁बुरा 49027
▁पराजय 49014
▁यानी 49013
▁बक्तब्य 49007
▁حل 48996
▁वार्त 48995
▁मुति 48985
▁उण्टायिरुन्नु 48977
त्तोट 48970
▁क्रिकेटर 48958
▁दोवां 48957
▁देशात 48949
है 48948
▁समीकरण 48945
लत 48940
▁चॆय्येण्ट 48938
▁वारंवार 48936
ङ्का 48931
▁इये 48929
▁चुम 48929
▁आरोग 48927
لا 48922
▁चॊल्लि 48916
▁फूल 48912
र्कळ 48908
▁यकीन 48907
ॊऴ 48906
▁जर्मन 48903
▁गेंद 48901
▁निवारण 48900
▁बैटरी 48899
▁मार्कॆट् 48882
▁चुनावणॆ 48877
▁रिप 48877
▁बरोबर 48875
▁ब्रांड 48857
▁आगेइ 48849
परमाय 48847
ुम्पोतु 48844
वर्कळ 48838
▁किमान 48835
▁राज्येर 48834
▁पोराट्ट 48833
▁तत 48828
ुळ्ळि 48803
ऩ्च 48789
▁पुतु 48784
▁कदा 48775
▁अपवाद 48763
▁देगा 48762
प्पॆटॆ 48758
▁गॊत्तिल्ल 48747
▁उमेर 48733
▁विशाळ 48730
▁गईं 48727
▁तुणै 48724
روں 48717
▁घणां 48715
▁सीटें 48715
▁स्ऱ्ऱा 48713
मैप्पु 48702
▁हॊंदिवॆ 48700
▁ब्याख्या 48695
▁कमि 48694
▁झारखंड 48694
▁बॊ 48694
▁चर्म 48691
▁गुड 48688
उं 48683
स्थल 48679
पाट 48677
▁चोर 48676
मुऱ 48671
▁होवे 48664
त्या 48660
▁पार्व 48660
टां 48659
▁ڏینہن 48659
▁पिटिक्क 48658
▁तेवैयाऩ 48652
▁पदों 48647
▁ऒळगॊंडिदॆ 48633
▁मानना 48630
▁معیار 48624
▁संक्रमित 48617
▁एलाकाय़ 48609
▁शरद 48607
▁अगली 48599
▁मिकप्पॆरिय 48597
छा 48592
▁हिस्से 48587
ैकळुक्कु 48571
▁कर्मकर्ता 48569
▁पाण 48563
▁वारं 48562
भाव 48558
िट्ट 48554
ॊंदि 48554
ायद 48540
ऩु 48537
▁कामगीरी 48532
स्को 48528
▁अतडु 48520
▁मुख्यमंत्र 48518
डिगा 48513
देखील 48513
▁कार्यनिर्वहिस 48509
▁ऎटुवंटि 48508
▁कठीण 48492
▁پولیس 48491
▁शासक 48486
▁रखी 48481
▁हार्ट 48467
▁प्रवासी 48466
کر 48465
याऩ 48464
▁त्याग 48461
▁आघोष 48457
ायचं 48451
म्भ 48450
▁व्यक्तमा 48448
▁؛ 48434
▁शताब्द 48431
क्कप्पट 48417
▁मनमोहन 48414
▁गुंपु 48413
▁तिरैप्पट 48408
▁अदृष्ट 48407
▁1998 48401
▁बेड़े 48392
▁पालक 48366
▁स़्री 48346
▁सुल 48334
▁लक्षणालु 48322
ादरॆ 48321
▁इरुप्पिऩुम् 48308
▁लंबी 48306
ोनु 48304
▁लभिच्च 48296
▁मुटियुमा 48294
▁उपयोगं 48291
▁می 48282
▁पिरि 48276
▁सूचित 48271
▁कोड् 48251
▁दौ 48245
प्पिक्कुन्नु 48243
▁संबंधों 48241
▁स्थाना 48241
▁दायर 48240
▁ऎंदरॆ 48228
▁इंट्लो 48225
▁चिकिच्चै 48203
▁नियमं 48199
िस़ 48195
▁होस्पिटलमां 48193
▁पाल्गॊन्नारु 48189
▁ऎव्वळवु 48185
▁जिसने 48180
▁वरसाद 48179
प्पन्न 48177
▁तर्क 48177
▁ऎऴु 48174
▁काग 48168
क्कै 48157
▁शहरों 48156
ट्टुण्ट 48153
▁टुक 48150
▁ट्रान्स 48150
▁साक्ष्य 48148
▁मोठे 48141
▁आएंगे 48140
▁चेहरे 48139
▁वाटतं 48137
▁बारिगॆ 48134
▁बजे 48133
▁बॉक्स 48130
▁हौ 48128
▁किटैक्क 48127
▁इकाई 48126
▁महिळॆय 48120
▁मार्पु 48115
▁लईने 48113
ुत्तिद्देवॆ 48109
झी 48108
os 48107
▁कुनै 48101
हाक 48090
▁जीवितत्ति 48088
▁डौन्लोड् 48087
▁निजक्कू 48085
▁लवकरच 48076
▁अव्वळवु 48070
▁गरिएको 48069
▁नित्य 48066
▁परन्तु 48064
▁एऱ्कऩवे 48063
▁राक 48047
▁अक्टोबर् 48045
▁पोते 48037
शनेर 48035
▁क्रिस्ट 48014
▁गड़े 48007
▁सगळ 48007
▁अन्वेष 47999
▁मूक 47983
▁प्रकारे 47982
▁कॊलॆ 47980
▁मातु 47972
▁डिसॆंबर् 47971
▁सेक्स 47958
▁लेनि 47955
▁अदनपु 47953
▁जांदे 47948
▁हिम 47943
वरै 47940
▁आउण 47937
,3 47936
क्न 47931
प्पॆटुन्नत् 47916
▁न्यूज 47911
▁कय 47907
▁हरेक 47902
▁मनोरंजन 47900
▁इसको 47894
▁संस 47894
▁67 47889
▁मंदिकि 47879
▁सभ्यो 47875
बर्ग 47871
21 47870
▁ऒंदागिदॆ 47867
▁बेस 47856
ानाण् 47852
▁चाय 47851
प्पॆटुं 47836
▁इंजन 47833
▁निर्बंध 47833
▁कुटुंबद 47825
▁चॆन्नै 47822
▁डाकटर 47822
▁सीख 47822
▁ऎतिर् 47821
ुत्तिद्दरु 47814
त्तिलिरुन्तु 47801
▁आर्मी 47800
▁^ 47799
संग 47795
▁अञ्चल 47794
▁तेवी 47791
▁वहि 47790
▁यादव् 47782
्का 47781
▁पच 47779
्रै 47769
▁फायदे 47758
िसलागित्तु 47751
▁डिफ 47750
▁आधारपडि 47749
▁संकल्प 47749
▁साधार 47746
▁बैशिष्ट्य 47729
▁संसाधन 47716
▁चॆयल् 47712
ऱुम् 47710
▁मीडियालो 47703
▁प्रेरण 47696
निन 47692
वला 47690
निंग् 47682
▁कुऱिप्पिटत्तक्क 47682
झन 47679
▁तहित 47677
▁वॆल्ल 47673
▁कले 47671
▁वाढत 47652
▁मेऱ्कॊळ्ळ 47650
नुक 47643
▁संबंधिसिदंतॆ 47643
▁इटैये 47635
▁सफाई 47632
ाग्र 47627
▁स्क् 47627
िलॊ 47624
▁रास़टरपती 47624
▁अध्यक्षता 47623
▁उड़ 47623
▁कोर्ट् 47616
▁वृक्ष 47614
▁वॆनुक 47612
ङ्ङ् 47607
आम् 47601
िसलाद 47598
ाचा 47596
▁चलेछे 47596
याय 47592
वरुम् 47590
▁अवा 47589
▁ڇا 47588
▁ग्रेफतार 47588
▁समित 47586
▁इद्दरू 47585
▁जहाँ 47583
▁त्यावेळी 47573
▁तळ्ळ 47564
▁ल्या 47564
▁ज्यादातर 47560
वट 47549
▁सांप्रदायिक 47545
▁संप्रदाय 47543
िसिल्ल 47540
▁कम्प्युटर 47536
▁ऐरो 47532
▁वयस्क 47531
▁भागवह 47529
▁कशी 47522
▁वीटु 47521
▁रिव 47517
मवुतुंदि 47512
ुत्तिवॆ 47488
तोटॆ 47487
▁IP 47486
▁चालिय़े 47479
ताकवुम् 47477
▁مثال 47474
▁गतिविधियों 47474
▁आतापर्यंत 47471
▁करुछन्ति 47461
▁वङ्क 47461
▁आरोपित 47456
▁सॆप्टॆंबर् 47456
ैर 47448
मन्त्रि 47442
▁जाकर 47442
▁साफल्य 47441
▁मार्गदर्शन 47438
▁ہمیشہ 47435
हण 47421
▁प्रद 47415
स्बर 47411
▁नोवु 47397
▁2: 47394
च्चिन 47392
▁جیڪو 47383
▁निः 47378
ालॆ 47375
▁इनियुं 47374
▁जुड़ 47367
▁अयिनप्पटिकी 47361
▁इंरेजि 47352
▁रसायन 47352
िन् 47350
▁पुनर् 47350
▁रिफ 47346
▁रियर 47340
▁तिळिय 47338
▁दृष्ट 47336
ुकोवालि 47330
▁अभ्य 47329
▁गुं 47321
ट्टुळ्ळ 47316
▁पां 47316
▁फूड 47310
कता 47296
▁बदली 47285
▁गॆय 47281
▁बचत 47273
▁د 47269
▁मित्रो 47263
▁रात्री 47261
▁करशो 47246
▁यांचे 47245
▁अटे 47240
▁y 47238
▁नोंधपात्र 47236
पक्ष 47235
िक्कि 47235
मानङ्क 47225
▁करावा 47221
त्मक 47216
▁जमकर 47216
▁अबाक 47208
▁हिल 47196
ंडी 47195
▁पर्यटक 47195
▁कठिण 47191
▁कविता 47187
▁سڀ 47183
ऱ्ऱिक् 47179
▁खालील 47179
▁चॆऩ्ऱु 47179
▁द्विपक्षीय 47177
▁धरावता 47167
▁रस्त 47167
▁कार्बन 47162
▁फलित 47148
▁बलार 47145
▁लाई 47143
▁फ्रा 47139
हल 47129
▁सिद्धार्थ 47129
▁साफ्ट्वेर् 47127
▁जेनो 47124
ोकि 47123
▁आदित्यनाथ 47123
▁ऎन्नुवुदु 47116
▁चाप्पिट 47103
षे 47101
▁ऎन्निरुन्नालुं 47100
▁मोहन 47097
▁पती 47089
▁चिकिॎसक 47068
िसित्तु 47067
▁कुऱच्चु 47065
▁مفت 47060
दन्नु 47059
▁कुञ्ञ 47059
▁प्रधानप्पॆट्ट 47056
▁स्थायी 47056
▁चालो 47055
▁वस्तुव 47054
▁गायगॊंड 47048
▁स्को 47045
▁हिंदु 47038
▁हिस्सों 47036
▁अभिवृद्ध 47035
▁रोगं 47033
▁सैन 47033
▁कमिशन 47027
▁ब्याट 47025
र्न्त 47022
▁खुब् 47021
▁अऱिन्त 47018
▁कंगना 47014
▁गार्ड 47010
▁लीड 47008
▁काळात 47003
ऩुक्कु 46998
▁सूबे 46987
साद 46985
▁पट्टिक 46983
▁प्रबल 46981
் 46980
िनायि 46979
▁ऎडि 46971
कर् 46969
▁डिवाइस 46969
▁सलह 46967
▁तऩिप्पट्ट 46960
▁अप्रैल 46940
ुमै 46938
▁جگہ 46934
▁आइए 46932
▁गोली 46931
▁रस्तॆ 46930
▁ग्यास 46923
▁फिल् 46922
▁सेंसर 46921
मानङ्कु 46919
▁स्वीकरिक्क 46917
▁सिटि 46912
▁बिषय़रे 46911
▁कारो 46906
▁वेचाण 46906
चक 46904
दां 46903
जना 46899
▁दुटो 46899
पेर 46892
▁यत्न 46887
▁700 46882
▁माडुत्तारॆ 46882
▁प्रशांत 46880
▁मुंदुकु 46874
▁अताण् 46873
▁कार्यत्ति 46870
▁बरुवु 46866
ुकळिलुं 46856
▁ऎऴुति 46856
▁बिसिनस् 46856
▁ڪریو 46854
▁छड़िय़े 46852
▁मिलती 46852
▁हेर 46844
▁मॅ 46837
थर 46836
▁ओस्ट्रेलिय 46829
▁पुक 46813
टुकु 46812
कुन्नु 46809
ताय 46794
▁अनुम 46793
▁दाखिल 46787
ॊक 46778
▁चॆय्तिरुन्नु 46769
ऑ 46761
▁एसिड 46737
▁پانی 46732
▁सम्पर्कित 46731
▁कोरु 46724
▁पेरि 46724
▁वाटिलो 46721
▁एपरि 46717
▁गाळ 46710
▁www 46709
▁तिट्टम् 46707
▁देखी 46700
▁इरवु 46699
▁1996 46688
श्वर 46672
▁दूरे 46672
▁ओजन 46668
▁ऎवरू 46662
▁प्रधानमंत्रि 46662
नगर 46656
चुक 46650
तना 46648
क्कुन्नुण्ट् 46647
▁दुर्बल 46647
h 46629
▁हद 46629
▁गुप्त 46626
्रु 46622
▁स्थानंलो 46619
▁इल्लिदॆ 46615
मोन 46614
ुन्नतिन् 46614
▁अंत्य 46614
▁महिळॆयरु 46609
दाररु 46605
▁प्रदेस़ 46597
▁जोन 46595
▁डिस् 46592
▁बत 46592
▁हठाॎ 46586
िकॊ 46584
▁कन्या 46567
सभ 46566
▁पटै 46559
▁अह 46556
प्पुऱ 46554
▁उपभोक्ता 46553
वाण् 46550
▁दखल 46547
▁प्रतिर 46543
▁अडियल्लि 46534
▁उंदा 46528
▁मर्यादा 46527
▁नटपटि 46526
▁होव 46523
▁मद्य 46517
▁समु 46508
▁ملین 46507
▁तोम 46499
▁जान् 46497
▁मीडीआ 46497
▁मुटिव 46488
▁वयस् 46481
▁राय़ 46476
ुळ्ळताक 46475
▁वीट्टिल् 46473
▁स्टेषन् 46469
ळिक्क 46461
▁लइ 46460
जिंग 46459
▁دستیاب 46457
▁देशना 46457
▁आतंक 46456
▁रोगी 46453
▁ज़रूर 46447
▁नरम 46447
▁अनेकेइ 46446
▁उर 46439
▁बंदिदॆ 46438
रुम 46434
▁अ्याल 46432
▁वु 46431
ारक 46430
▁शास्त्रीय 46429
▁प्रै 46425
▁मस्त 46422
ोनू 46420
▁बनर्जी 46408
▁एऱ्पट्ट 46402
अम 46396
ुवाक 46393
▁कोरि 46388
▁राजधानि 46385
प्पिऩ् 46381
▁पऱञ्ञत् 46381
▁राजकारण 46372
ायी 46369
▁माइ 46369
▁ऎतिराक 46366
ढ़ 46359
कीय 46356
▁आल्ब 46353
▁इंग्लिष् 46342
ٹو 46335
▁तान 46333
▁शराब 46333
ागिरुव 46327
▁नामक 46310
▁सहमति 46305
ापक 46292
▁उयिर 46288
▁हिसाब 46288
िंदि 46275
▁हिन्दी 46275
▁फाई 46274
▁नीडलागिदॆ 46272
▁समझौते 46271
▁पैकी 46270
▁टाळ 46264
▁पटिक्क 46256
▁ترین 46254
प्पी 46246
▁गाडी 46244
▁निपुण 46243
▁क्षेत्रीय 46242
▁चिऱप्पु 46241
▁युरो 46240
▁संवत्सरालु 46239
▁शिशुदेर 46236
▁उपन्यास 46233
▁सामनो 46232
▁चेय़ारम्यान 46224
▁प्रतिषेध 46223
▁लेदनि 46210
▁बिझनेस 46201
▁बाक 46196
डां 46192
▁बिल्ल 46188
▁समस्याओं 46187
गं 46180
▁सकी 46178
▁جاتی 46177
▁वाळ्ल 46177
▁73 46176
▁याला 46167
स्थित 46153
▁दीर्घकाल 46153
▁ड्रैव 46145
▁74 46135
टिक्स 46134
चिन 46131
▁समझौता 46130
ोगे 46128
▁अन्ताराष्ट्र 46114
ुत्तु 46104
▁देखना 46102
▁पलप्पोऴुं 46098
ित्ताऩ् 46097
▁सरीर 46090
▁इतिन 46083
▁पोली 46081
▁नीडिदरु 46079
बिक 46068
▁नालु 46067
▁तेथे 46065
▁लोकोना 46059
▁मेट 46057
▁कार्यकर्ताओं 46053
▁मऱक्क 46051
डुक 46050
▁सहाइता 46047
▁बळि 46045
▁अभिनंद 46043
तान 46040
▁बदुक 46036
ाणा 46035
्यार 46033
िसिदाग 46032
▁बायो 46026
▁तुऱै 46022
▁गाने 46019
टेल 46018
▁तरलिंचारु 46017
▁اپ 46012
▁तॆरिवि 46006
तल्ल 46004
▁तॆरॆ 46004
▁لا 46002
▁औरत 45994
▁एऱ्पट 45989
िरी 45980
▁पिटित्त 45977
▁مواد 45970
▁षू 45953
▁एचडी 45950
▁कट्टु 45932
▁मन्त्र 45924
▁दुइटि 45916
▁चिकित्सक 45912
▁विद्यार्थीओ 45909
▁श्रेय 45909
▁ماہ 45907
▁मोक 45901
▁टेक्स 45898
▁बलछि 45895
▁ऊट 45891
▁कऱ्ऱ 45881
▁लोकं 45873
▁ऐन्तु 45872
▁घरों 45862
▁मित 45860
▁जवाबदारी 45857
▁पाओय़ार 45851
▁रिकार्ड 45833
ादी 45826
▁प्रमादं 45825
▁ट्रै 45821
▁वैद्यरु 45820
रिगा 45804
स्ता 45803
▁निखर 45794
▁زمین 45792
तिन्ऱॆ 45785
▁नीनु 45784
▁अ्यान 45782
ाहु 45770
▁बर्त्तमान 45767
िरुक्किऱार् 45765
▁ऎयिर् 45754
▁लां 45754
▁واقع 45749
ॆड् 45745
▁स्क्र 45745
दिनेर 45736
▁सुखी 45730
▁चाहीदी 45728
▁अत्य 45727
▁मॊट्टमॊ 45727
▁बल्लेबाज 45725
▁वार्त्त 45719
▁फायर 45704
▁उलट 45700
▁अधिकं 45695
▁शेट्टी 45694
▁पॊतुवाक 45691
at 45690
िदेर 45689
▁अवरो 45681
वाने 45677
▁ओट्ट 45673
▁सीऱ्ऱ 45667
▁कवर 45665
▁कापी 45657
▁पांडे 45650
▁पुकैप्पट 45643
क्किऱतु 45642
▁जाएं 45641
▁इयक्क 45636
▁कास्ट 45636
▁मॊबै 45631
▁पासेथी 45626
▁आरंभव 45623
▁मिर्च 45619
रंदु 45617
प्पऱ्ऱि 45609
ऱाण् 45603
▁सिविल 45603
िक्कप्पट्ट 45590
▁com 45589
انے 45578
▁सेन्ट 45561
ूरि 45559
▁कर्ज 45558
घात 45545
▁आऴ 45536
▁स्पर्श 45513
दारु 45507
▁वेदन 45506
▁जुदा 45498
▁विवरालु 45495
▁भंग 45491
णै 45489
▁ظاہر 45477
िरुत्तारॆ 45475
▁इतनी 45471
▁उत्तरी 45471
▁पर्य्य़न्त 45467
ऩिय 45449
▁ऎन्निकल्लो 45448
▁प्रत्या 45448
▁राष्ट्रंलो 45447
▁दाय़ 45443
▁कोथाओ 45430
▁पंड 45420
▁सर्वे 45417
ुमॆन्नुं 45414
▁भित्ति 45413
▁असरकारक 45406
्द 45393
▁निलैय 45380
▁इस्तीफा 45376
▁सन्मान 45369
▁पालि 45362
▁फॉ 45361
▁On 45359
थिक 45356
▁125 45356
▁स्टेट् 45355
▁तरबेति 45349
▁خدمات 45330
▁बिबेचना 45329
▁कार्यकर्ता 45328
▁देकर 45322
▁कॆट्टिट 45319
▁महासचिव 45308
फार 45305
प्पॆटुत्तिय 45304
▁क्षम 45304
शनल 45294
▁2.5 45294
▁उऩ्ऩै 45289
▁प्रतिसाद 45287
प्पतऱ्कु 45280
ट्च 45279
▁ऐफोन् 45277
▁परिषेबा 45273
पोलॆ 45272
▁कैमरे 45272
▁सजीव 45270
▁पिलु 45269
ाम्प 45238
क्षी 45231
▁वर्षी 45227
▁चक 45220
▁सबाइके 45220
▁तमारुं 45218
▁झुँकि 45217
▁एमां 45212
▁वेऱुप 45211
▁मडेल 45209
▁ओडिशा 45207
▁हटा 45200
▁Android 45196
डिओ 45192
माकवुम् 45191
वागबहुदु 45184
स्तर 45183
दिद्द 45179
▁77 45179
▁یقین 45172
ुलपै 45171
▁वैपु 45165
ेय 45163
▁माछ 45163
▁भूमिक 45156
▁ذاتی 45151
▁बेठक 45143
▁आभ्यन्तर 45137
▁घटाडो 45123
▁चट्टम् 45122
▁तांत्रिक 45116
द्दीन 45112
▁شاید 45112
▁بڑا 45109
▁साडी 45108
▁इतोटॆ 45093
ाहार 45088
▁कॊनॆ 45085
▁ब्य़बहार 45084
दों 45082
▁राखुन 45080
▁शुभकामनाएं 45069
را 45066
िकल् 45063
▁کیسے 45063
▁नब 45063
▁बादल 45060
कुडु 45059
▁नेहमीच 45057
▁शकुं 45048
as 45035
▁हाज़र 45029
▁पहुंचा 45028
▁कृत्रिम 45024
▁जीतने 45023
▁परेर 45023
▁व्याज 45019
▁टॆक् 45014
▁अतीत 45005
▁सम्मति 45003
▁शिफारसु 44997
▁ऎड 44993
▁देहद 44986
▁निजवाद 44970
▁मेच 44968
▁अमर 44961
▁स्वतन्त्र 44954
▁अमुक 44953
▁सविशेष 44940
▁اپنا 44916
हिडिय 44914
▁इतुताऩ् 44903
▁वाईट 44898
डुत्तदॆ 44895
▁ऒन्नि 44894
▁अनुस 44883
▁मुहूर्ते 44868
▁इन्स 44847
▁युक 44846
▁हल्ल 44841
▁بے 44835
▁हीरोयिन् 44833
ट्टुम् 44830
▁गलती 44829
▁ऎन्ति 44810
▁उत्तरवाद 44796
▁पक्षी 44790
▁विश्रांति 44775
▁अंतक 44773
खि 44762
▁जवा 44760
▁गोड 44758
▁रिजल्ट 44752
▁संसदीय 44749
▁कुकी 44743
▁चंद 44741
▁कार्याचरण 44740
▁मंचिदि 44740
▁डाऱ्ऱ 44733
बेल 44729
ियुळ्ळतु 44728
▁समाचारान्नि 44726
▁रचयित 44722
ऩ्म 44719
▁पाजक 44719
▁फर् 44719
ुमायिरुन्नु 44712
▁ट्विट 44711
▁हरी 44711
▁किंग 44689
▁इटत्तिल् 44684
▁दस्तावेज 44682
▁یقینی 44680
त्तॆयुं 44678
▁ओटि 44678
▁तृणमूल 44665
23 44662
▁थांब 44659
गुण 44653
▁एभळि 44649
प्पाऩ 44646
िकॊळ्ळलु 44643
ओनुं 44642
▁گروپ 44640
▁उपयोगमां 44639
▁कुळि 44637
▁पारा 44633
▁पर्यंत 44632
ूय 44631
▁डॊ 44630
त्तुन्न 44623
سن 44617
▁اسٹ 44616
▁वीक्ष 44606
▁सुना 44604
,7 44602
▁یاد 44599
▁ऎऩ्ऩुटैय 44599
▁घेतले 44596
▁इल्लामल् 44592
▁बिलियन् 44580
▁130 44572
गळागिवॆ 44570
▁رات 44570
▁जानी 44557
▁कालेदु 44552
▁नडॆसि 44552
दागि 44549
▁पहेली 44549
▁ऎंदिगू 44547
▁उड़ान 44543
▁रिक 44533
▁निर्मला 44528
▁सोमवार 44524
▁अन्न् 44523
ٹنگ 44521
ण्टायिरुन्नु 44520
फ्ट् 44520
ुदे 44516
▁थाकुन 44515
▁राखवामां 44512
▁घेर 44511
▁मुच्च 44510
▁रान्ना 44508
▁आवृत्ति 44496
▁राहीं 44494
▁बंधन 44479
डीए 44476
▁हणवन्नु 44476
▁चोटु 44473
▁बरेच 44473
▁ऎदुर्कॊ 44472
▁ऊटक 44469
ाववा 44461
▁कान् 44454
▁आश्रय 44450
प्पिट 44446
मुक 44441
▁महत्त्वपूर्ण 44441
ुण्ट 44432
▁चिऱप्पाक 44430
हां 44428
▁राजकुमार 44427
ख्य 44424
▁अनुदान 44423
▁नमक 44415
दम 44407
▁न्यूजीलैंड 44407
▁ऎऩिऩुम् 44405
ट्टिदॆ 44402
▁निजस्ब 44396
▁आबश्य़क 44394
▁प्रत्य 44392
▁आरोपों 44385
▁चलता 44382
▁اعظم 44375
▁नाहीये 44365
िसुवंतॆ 44360
क्षि 44351
न्नो 44351
देशं 44346
▁तन्त 44346
▁रैली 44346
वित 44343
▁सीऎं 44343
म्पि 44332
▁दृढ 44325
वंतंगा 44323
ुकिऱार् 44319
▁खूपच 44318
▁कार्यों 44317
न्द् 44314
िऱोम् 44313
▁میرا 44312
फर् 44310
डीओ 44308
▁फटो 44294
▁मिड 44287
क्षक 44280
्कळिऩ् 44272
डनि 44270
पैकी 44269
▁संरचना 44267
▁पाठानो 44265
▁यातॊरु 44263
ैयैप् 44262
ोष 44260
▁फेरफार 44260
▁हकीकत 44255
भीर 44254
प्पॆटुत्ति 44250
▁اچھا 44249
ुमार 44247
▁चीजों 44244
▁صارفین 44243
▁एनो 44243
▁ऒऴ 44242
▁इत्तु 44241
▁उऱ्पत्ति 44241
▁वैशिष्ट्य 44222
▁बॉलिवूड 44220
▁63 44218
▁रासायनिक 44218
लोक 44217
ण्य 44210
▁6: 44208
▁विजे 44206
▁तॊंदरॆ 44203
▁गुजरात् 44196
वर्कळुक्कु 44185
▁तास 44177
▁पहुंचने 44171
▁पोराट 44165
▁مگر 44163
▁प्रतिभ 44161
ुमॆन्नाण् 44160
▁येथील 44158
▁ڈالر 44156
▁होवी 44151
▁मानक 44150
▁सुत्त 44150
▁कॆळगॆ 44149
▁सबूत 44134
▁बलिउड 44129
मव 44119
ुविन 44115
▁तीर्मान 44106
▁भाषाय़ 44096
ड्न 44093
▁پ 44085
▁राज्यत्त् 44076
▁आयुष्य 44075
्लॆ 44063
▁कॊठडि 44060
▁दौड़ 44057
अन 44055
▁तक्रार 44054
▁समा 44052
▁भव्य 44051
▁अङ्ङनॆय 44050
▁आमॆकु 44046
▁शिर 44042
▁साहचर्य 44039
▁होट्ट 44039
▁कट्च 44036
▁यी 44029
▁दारि 44028
▁विद्यालय 44027
▁पऱयुन्न 44019
नें 43995
▁क्रिस 43993
▁यकीनी 43985
▁इलेक्ट्रिक 43983
▁तंडद 43974
▁آیا 43969
▁नष्टं 43964
▁स्टेडियम 43946
ावस्थ 43939
▁ہونا 43928
▁पृथिबी 43927
लिक 43924
▁ऒऩ्ऱुम् 43924
▁नम्पिक्कै 43922
ुमति 43921
▁कस 43920
▁जतॆगॆ 43917
चॆय 43912
▁बछरे 43907
▁आसन 43897
▁फ्रान्स् 43895
िटम् 43894
▁हत्तिर 43876
▁69 43871
झे 43870
▁कूऱि 43867
्याला 43866
▁तामसि 43866
ar 43860
ोक्त 43860
▁दक्ष 43858
सेट 43855
ान्ति 43854
▁संकीर्ण 43854
▁मर् 43850
बक 43845
▁किम्बा 43844
▁मोज 43843
ار 43838
तिल् 43833
▁घंटे 43826
▁चिऱितु 43822
▁बृहत्तम 43816
णमॆन्न 43810
▁कृष 43809
▁नहोती 43809
▁आपरे 43799
▁सीईओ 43799
धक 43795
▁एथ 43794
▁सीधे 43790
ेंड 43777
▁जाणवा 43771
▁अतिकमाऩ 43765
▁इंडस्ट्री 43762
▁चित्रंलो 43761
▁नीडिदॆ 43761
▁मादक 43757
▁समस्ते 43752
▁करताना 43749
दरू 43747
▁हृद 43741
बाज 43737
▁सम्बन्धे 43727
▁बिरोधी 43721
ळित 43717
▁आसार 43717
▁PI 43715
▁पॆरुम्पालाऩ 43715
▁पीड 43714
▁आऱ 43713
ड़ो 43711
▁निवासी 43710
▁फीचर 43708
▁चॆय्तिट्टुण्ट् 43707
राज्य 43703
▁गणनीय 43696
्किऱतु 43695
▁डालर् 43680
▁सामरिक 43680
▁बाँच 43679
ळम् 43677
▁اہی 43673
▁कुठे 43668
ाजनक 43664
▁चॆय्त् 43660
▁दलों 43658
▁बन्धप्पॆट्ट् 43643
▁इनकी 43640
▁बिजनेस 43636
60 43635
▁प्रेक्ष 43635
▁बिभागेर 43632
▁दोस्तों 43630
▁क्रिस्त 43629
▁चिऱु 43627
▁ब्लैक 43627
▁एश 43623
▁उत्साहित 43619
▁गुजर 43612
▁خوش 43604
▁प्रसारण 43601
▁تہٕ 43598
▁मोडेल 43590
▁चिव 43589
▁बिल् 43589
▁मिलिय़न 43589
▁मिगिलिन 43586
क्किल् 43584
▁छाप 43577
तनु 43576
्याम 43574
▁टैं 43574
▁परराष्ट्र 43574
ार्क् 43567
▁विचारो 43557
▁लोह 43556
▁कुऱिप्पिट 43549
न्द्र 43532
िसिद्दु 43532
▁हाय 43532
▁कराव 43530
दारी 43528
▁1960 43527
▁रसप्रद 43526
▁प्रावधान 43524
▁घेऊ 43520
▁कहेवामां 43510
▁आमर 43505
▁तसंच 43503
ुपे 43502
धू 43499
▁लगने 43493
▁नीक्क 43491
▁सावधानी 43491
▁शताब्दी 43489
▁जीता 43485
▁1970 43484
▁कारक 43480
▁ऎतिर 43477
▁जानानो 43477
▁सकलेर 43476
نی 43474
▁भारतदेशंलो 43470
▁माटेनी 43469
▁نو 43468
▁कस्टम 43465
▁लोड 43457
▁राइ 43453
▁माणवर्कळ् 43443
▁इश 43437
▁जाया 43436
▁स्थाय़ी 43433
▁क्यारेक 43432
کن 43427
फोन 43427
द्व 43422
िल्ला 43417
▁देखाय 43417
▁अतऱ्काऩ 43415
श्व 43414
ॊण्ट 43413
शन् 43408
▁कया 43408
िकळिऩ् 43407
्याद 43403
▁बेन 43403
▁देशदल्लि 43397
त्तम 43393
▁ब्राउ 43392
▁माऱ्ऱं 43382
▁भागंगा 43379
टिन 43378
▁खानगी 43376
▁बिनिय़ोग 43375
▁लोकत्तिलॆ 43374
▁संत 43374
▁कळुह 43370
ुवर 43360
▁तमिल 43360
▁जिबि 43357
▁खुराक 43347
▁बाबतो 43345
क्सेस 43343
प्पुकळै 43332
▁सेरि 43331
▁करायाइथिला 43324
▁दिल्लि 43324
▁अत्त 43315
▁सर्बदा 43315
▁अबि 43314
▁यां 43309
ङ्कळिलुम् 43308
▁याच्छि 43299
▁अवधियल्लि 43293
▁मोडल 43288
▁यशस्वी 43280
▁सांस 43271
▁رکھنے 43270
▁महिळॆ 43265
▁विद्यार्थुलु 43263
▁मार्कॆटिंग् 43258
वागिरुव 43255
▁स्बाधीनता 43246
▁सिम 43243
▁اہا 43241
▁पळ्ळि 43239
ुकिऩ्ऱऩर् 43237
▁68 43237
▁ایسے 43232
▁तङ्क 43230
▁k 43228
डियो 43224
▁दर्शकत्वं 43220
धारण 43209
▁आय़ोजन 43202
▁संभाषण 43201
▁चली 43199
▁स्पे 43193
▁ऑपरेशन 43184
राज् 43182
▁رپورٹ 43182
ोलु 43179
▁विऱ्पऩै 43179
्कळुक्कु 43173
▁गळु 43167
▁ऎतु 43165
▁सेक्टर 43163
▁संदर्भगळल्लि 43151
▁कश्मी 43145
▁नद 43139
ाबेन 43134
▁चित्रान्नि 43133
रिक्का 43128
▁اضافہ 43127
ट्न 43126
▁उन्नप्पुडु 43125
▁मैत्री 43121
▁नेओय़ार 43115
▁फय 43113
▁निर्व 43109
▁धवन 43097
▁कोले 43096
▁ہئی 43095
▁फिर्यादु 43094
▁आमेरिकान 43092
▁इलवच 43087
▁शाल 43081
▁कस्ट 43080
▁इन्नष्टु 43077
▁ऎण्णॆय् 43076
▁प्रारंभव 43075
िसिकॊळ्ळि 43071
▁प्लेट 43064
निआ 43062
-19 43060
▁प्रयाणिक 43050
▁गेम् 43047
▁ओठे 43046
▁मरॆय 43042
▁डालकर 43039
80 43032
▁एकसाथे 43031
▁1991 43030
▁तारपरे 43028
▁मळॆ 43028
▁कलिगिन 43024
▁टक्कर 43023
▁तङ्ङळुटॆ 43022
य्क्कु 43020
▁अम्मा 43020
▁मुफ्त 43020
▁वीडीओ 43016
िसो 43014
ाजि 43013
▁बोन 43007
रुन्नु 43005
वुकळै 42991
▁श्रीनगर 42989
ट्टाण् 42986
▁गेलो 42985
क्कुऱ 42978
▁दुनीआ 42974
▁تعمیر 42968
लर 42963
▁पासून 42959
▁कालंलो 42957
▁क्याल 42956
▁चम्पवम् 42956
ान्ड 42954
मिट 42951
च्चिंदि 42947
▁केंदरी 42947
▁पाकिस्तानेर 42944
▁तटै 42941
▁वाय्प्पु 42937
िलायि 42922
▁किंबा 42921
▁वैत्तु 42916
▁माथा 42910
▁मॆट्रो 42909
▁सॆल् 42908
▁सैफ 42907
▁शिवाय 42902
▁सोद 42898
▁वलों 42889
▁आँ 42887
▁साविर 42883
▁समक्ष 42882
انا 42873
िनॆतिरॆ 42866
▁बलछे 42863
▁वकु 42861
ंलोने 42858
▁मुले 42858
हं 42856
▁पिक्स 42856
▁निल्दाण 42853
▁रूसी 42849
नाद 42826
▁माव 42824
▁तीव्रंगा 42823
▁रुम 42823
▁लागले 42823
▁जहाज 42815
रिस 42809
▁ग्रा 42793
डून 42786
▁जेनी 42785
ुवरु 42784
▁1994 42782
▁करदिआं 42779
▁जार्मान 42777
▁चॆलव 42776
ाबी 42768
▁चनिपो 42768
▁तॆरिन्त 42767
▁तॆलियजे 42766
▁तॆरॆय 42764
▁میل 42757
न्तार् 42754
▁آخر 42752
ुरी 42749
▁जिते 42742
▁केन्द्रित 42739
▁فیصلہ 42738
▁प्रभारी 42736
▁महिळलु 42732
▁भारतर 42724
▁एपी 42717
▁बीजुं 42712
▁جبکہ 42711
▁सुपार 42707
▁औसत 42705
▁अक्टोबर 42704
▁सोचा 42699
ऱिन् 42698
▁जाबिता 42696
▁असतील 42688
▁जानिय़े 42688
▁खेलोय़ाड़ 42686
▁छबिते 42685
▁واضح 42678
ळना 42667
बिद 42666
▁मेडिकेल 42663
▁इक्कार्यत्ति 42662
▁चॆयल्पट 42662
▁ऎंदू 42645
▁अती 42633
▁जाणून 42628
माव 42610
दिर 42609
▁डिमांड् 42609
▁दय़ा 42604
▁पेरॆ 42604
▁नुव्वु 42602
▁बाढ़ 42597
▁वकै 42586
▁कमजोर 42581
ॆन्स् 42575
▁ब्यांकु 42573
▁یورپی 42569
▁च्यालेञ्ज 42564
▁जरुप 42561
▁यूरोपीय 42559
▁جائیں 42554
▁रूपे 42552
▁कलै 42546
बोध 42542
▁देऊ 42542
▁क्षतिग्रस्त 42541
▁साइन 42531
▁निवेदन 42525
▁स्कूलों 42521
▁मिम्मल्नि 42515
▁एंज 42514
▁परिकल्प 42500
▁लाइट 42500
▁थाकि 42496
▁अनुमोदन 42495
re 42494
नाइ 42488
ुवतऱ्काऩ 42485
नामा 42484
ऩ्ऩु 42480
▁शासित 42478
▁मारो 42470
▁सकाल 42470
ुतुंदनि 42455
▁हथियार 42447
▁तलैमै 42446
▁दॆहलि 42440
▁वाक 42430
▁निजर 42429
▁انسانی 42425
▁आरोग्यकर 42425
ाणी 42424
▁चॆल्व 42424
▁पॉ 42422
▁उपलबध 42421
▁याकॆ 42417
▁लोकतंत्र 42411
▁परंपरा 42405
▁ट्यू 42404
िंट् 42403
▁والا 42402
▁स्बीकार 42399
▁वेगंगा 42394
▁1997 42392
▁अर्थनैतिक 42390
टुम् 42388
▁٪ 42385
▁भयानक 42374
▁नं 42373
्कार 42369
▁नेषनल् 42359
स्न 42358
▁ओह 42355
▁सशस्त्र 42347
▁गेट 42344
▁हेड 42344
▁सत्त 42341
गाल 42340
▁देवालय 42338
▁स्पेन 42335
▁आखिरी 42334
▁स्थिती 42334
▁गड़ 42331
▁फार्म 42329
र्ड् 42325
▁शह 42325
▁ایل 42318
▁वधेरे 42316
▁वळरॆयधिकं 42314
ापासून 42310
▁तुम्हारे 42309
▁अनुपात 42304
▁ब्यर्थ 42299
▁चह 42287
▁जऩातिपति 42286
▁व्हिडीओ 42281
▁खुस़ 42277
▁परिक्केऱ्ऱ 42275
▁टर् 42264
पोतुम् 42259
▁उपयोगिक्कुन्न 42254
दिद्दारॆ 42251
ाचे 42250
شن 42248
ानां 42241
,5 42236
▁इरुन्तालुम् 42233
▁बयसुव 42233
▁बुद्धि 42231
▁शहरी 42229
▁व्यक्तियों 42223
▁आप् 42217
सीए 42216
▁छबिर 42213
ास्थ्य़ 42206
▁पिन्तुण 42206
▁तॆरियुमा 42205
क्कुन्नत 42198
▁मासेर 42198
▁आस्ति 42193
▁वैऱ 42189
▁امید 42188
▁सुलभंगा 42176
▁चेतावनी 42175
▁परिक्के 42167
▁तॆलु 42163
्यांनी 42162
▁घालून 42158
ित्य 42151
▁खि 42133
▁باہر 42131
▁थाकले 42129
▁संवहन 42126
▁सेप्टेम्बर 42126
▁केळि 42125
▁पूछे 42121
ऩो 42118
▁प्रय़ोग 42118
▁کرسکتے 42117
▁बेँचे 42116
पालि 42108
▁पुऱत्त 42108
▁बीसीसीआई 42106
▁मत्स्य 42102
▁जनरन्नु 42098
लुक 42091
▁रशिया 42088
▁निजेइ 42087
त्तनङ्ङ 42084
▁1993 42084
▁बयटकु 42084
▁दिमाग 42082
▁यन्त्र 42081
▁बळसबहुदु 42079
▁अलबत्त 42076
▁बन्धं 42069
▁मुटिय 42068
▁आय्व 42061
▁निध 42052
انہ 42047
▁हकीकतमां 42036
ैयुटऩ् 42035
ागल 42034
▁सर्वोत्तम 42031
पूर्वी 42030
▁तमिळ 42027
▁ऎच् 42025
णाची 42019
मानी 42016
▁साकार 42006
▁कौशल्य 42005
▁सथान 42002
▁° 42000
प्पोम् 41997
▁विऴ 41997
वाथी 41994
▁ذیل 41993
▁चमक 41989
▁वाग्दानं 41984
रर 41983
▁निर्मात 41982
▁विशेषज्ञ 41981
रुन्न 41976
▁बाच्च 41975
▁लीला 41975
लें 41972
लागुत्तदॆ 41971
▁इब्बरू 41969
▁सुमारे 41969
▁कवर् 41963
▁कणि 41960
▁सावधान 41959
▁कूटॆ 41957
▁माथ 41951
▁संशोध 41945
▁रूपाय् 41941
्यांच्या 41935
▁मुहम्मद् 41935
वतु 41934
▁कॆंपु 41931
▁तय्याऱ 41913
▁यूनीवरसिटी 41909
नाक 41900
▁पॊंदिन 41896
▁मून्नां 41893
▁कॊळ्ळवुम् 41891
▁छोडी 41891
प्रमाणे 41886
▁Posted 41879
गर् 41874
▁मुख्यमन्त्री 41869
ुतन्नॆ 41859
▁इऱुति 41856
▁इचै 41853
▁कॊण्टुळ्ळतु 41846
▁थोड़ी 41842
▁सेवाओ 41842
त्ताण् 41837
▁ऎण्णिक्कै 41837
▁भाबरे 41835
▁विद्युत 41833
▁मूळभूत 41827
▁प्रोग्रां 41826
▁देवेंद्र 41803
▁अस्त्र 41795
▁बाँ 41787
▁कोणताही 41781
▁ن 41780
क्कॊ 41779
▁थवानी 41777
▁मासं 41771
▁کرو 41764
▁इच्छुक 41761
▁माध्यमिक 41760
▁इरुन्तार् 41754
▁मांगी 41754
▁शुनते 41754
ङ्कळाक 41751
▁उठाए 41750
▁क्रू 41745
▁आमेरिकार 41735
▁दुर्दान्त 41734
▁मधुमेह 41730
ण्णि 41727
ot 41722
▁राजु 41720
▁बलों 41719
,6 41714
▁अगस्त 41714
▁नेय़ 41713
र्ध 41707
▁इदॊंदु 41704
▁अऴै 41693
▁कऱ्प 41693
पट्ट 41689
ङ्ङळुण्ट् 41688
▁खरोखर 41685
▁बित 41685
▁निर्वहिस 41684
▁सॆक्षन् 41680
▁पंजाब् 41678
बंद 41669
ैल 41669
▁लाश 41664
▁नाह 41663
▁बाड़ 41662
▁सर्बाधिक 41662
▁कट्चि 41657
▁ब्रि 41651
▁आधा 41650
श्री 41648
▁माफ 41647
फर्म 41638
▁पयणम् 41634
्यांची 41631
ावन्नु 41627
▁पार्टि 41625
कूडदु 41623
▁डैरॆक्टर् 41621
▁वेस्ट 41618
ूस 41615
्डि 41615
▁डौ 41612
▁अंदमैन 41608
ुपेर 41603
सँग 41600
▁कडॆ 41597
▁دوسری 41596
गाव 41594
▁मंजूर 41589
▁शहरे 41589
▁मुखर्जी 41578
ro 41577
▁350 41567
▁सपना 41561
▁टाइप 41559
کل 41552
▁टॆक्नालजी 41544
णयायि 41541
▁जवळ 41506
िओ 41501
▁शिष्य 41498
▁उद्धव 41497
▁नॆन 41496
▁संख्यामां 41492
िस्तुन्नायि 41491
▁पॊली 41482
▁हूडिकॆ 41475
▁पुणि 41467
ाच्या 41462
▁आकर्षित 41450
रम 41447
ानायि 41432
▁माऱिय 41429
▁किरण 41426
▁पाबे 41426
om 41425
लैंड 41424
गान 41419
भाइ 41413
यिलेक्क् 41410
▁डॉक्टरों 41410
▁साप 41407
▁किन 41406
▁नोडलु 41402
▁चिनि 41401
▁इवरॆ 41393
▁बिशाल 41393
▁माँ 41385
त्तुट 41373
▁धोरण 41368
▁माक 41367
▁कुक्क 41366
िनोट् 41359
ुरिय 41358
ऎम् 41355
बारे 41354
▁अन्नी 41352
▁चरम 41352
▁पहल 41352
बहुदागिदॆ 41349
▁अद्देहत्तिन् 41348
▁इरुप्पतु 41348
▁चिन 41342
▁लिंक् 41341
त्तिऱ्कुम् 41340
▁سن 41337
▁आमां 41333
▁प्राधान्य 41332
▁तवऱ 41323
▁देखार 41322
▁विस्फोट 41314
▁अदा 41307
▁बीमार 41305
▁ہندوستان 41303
▁कालो 41303
▁तरफथी 41301
सत 41300
▁आश्र 41300
▁बें 41298
▁आयनकु 41297
▁प्रश्नः 41293
▁1950 41291
▁प्रायोगिक 41285
▁इच्च 41277
▁दांतो 41275
▁गईआं 41271
ओय़ार 41261
▁शत्रु 41253
▁ब्रौ 41248
▁मिन 41243
▁अत्तरं 41242
▁गेर 41233
▁प्रमाणमां 41232
لے 41225
▁अध्ययनं 41225
फिक 41223
▁टूर्नामेंट 41223
िट्टिल्ल 41220
ऩैयुम् 41217
▁अनंत 41217
▁एकता 41212
ॊंड 41211
▁फैंस 41208
िबाकु 41207
▁तॊटर्पाऩ 41203
▁किराम 41202
▁Time 41191
▁ब्यबसाय़ 41189
▁तविर्क्क 41188
▁वैक्सीन 41188
▁प्रांतंलो 41182
▁पाति 41180
▁ख्याल 41176
ुमल्ल 41170
णाचा 41168
▁निष्पत्ति 41165
▁महिन 41158
कुं 41155
ारुं 41154
▁छोड़कर 41145
▁ऒळ्ळॆयदु 41144
▁मनोज 41140
▁हर्ष 41136
▁हुन्छ 41136
▁नाणां 41133
▁दरजा 41125
▁जगत्तिन 41122
▁पेक्षा 41119
▁संस्थापक 41119
▁तरगति 41118
नेस 41117
▁ऐन 41113
श्च 41108
▁फीस 41106
▁सादा 41102
पूर्व 41096
▁परिणत 41091
▁चालामंदि 41089
वस 41088
ٹری 41078
गम 41076
▁चॆयल 41074
▁हेळिद 41074
▁कऴिव 41071
▁क्रिक्कऱ्ऱ् 41071
▁आजार 41067
▁पेर्कॊ 41064
▁कोरट 41063
▁पढ़ाई 41062
ष्टि 41042
▁खात्री 41030
▁चेर् 41026
▁बुनियादी 41021
▁जंत 41020
▁व्यवस्थित 41019
▁चांदी 41018
▁सेवाएं 41016
▁वृत्तिपर 41013
▁विकार 41010
▁बचा 41001
▁इंसान 40997
▁करेनि 40996
ंदिंदि 40991
▁अतुं 40990
▁मास्टर 40990
▁ऎम 40987
▁मळ्यो 40987
▁ओय़ेब 40963
▁क् 40959
▁पत्रिका 40956
▁परथी 40950
▁कणक्का 40945
▁वेले 40941
▁ठेवा 40940
▁आरंभदल्लि 40937
▁तिकच्चुं 40923
ळवु 40916
▁नटक्कुन्न 40911
▁ब्लड 40907
▁कम्प्यूट्ट 40902
▁तणाव 40901
ुवोम् 40898
▁चोद्यङ्ङ 40895
▁शब्दो 40886
▁उपकार 40884
▁वंट 40883
رین 40878
▁आमतौर 40877
▁असल्यास 40873
▁रहिण 40868
▁सगळं 40867
▁पॆण 40864
ऱ्ऱिंग् 40854
जान 40852
▁डय 40851
▁वरुत्त 40850
रेन 40844
▁بنیاد 40844
▁سکتی 40837
लेकपो 40836
▁व्यापारं 40834
▁दाख 40828
▁गिल 40827
टिनि 40823
वन्नू 40819
▁चकोतर 40815
▁शरियाय 40814
अप 40802
▁सय 40800
पथ 40796
्यासोबत 40791
▁औरतां 40777
▁गाड़ 40770
▁हणकासु 40767
ागो 40766
ऱिल्ल 40763
▁चैनीस् 40763
तारु 40755
-2 40753
▁फोट्टो 40752
गनि 40750
▁प्रच 40748
धीन 40744
▁रूपायि 40741
▁शस्त्र 40739
▁भालोबास 40736
▁परिव 40732
पणा 40731
▁चोदिच्चु 40728
▁गंट 40727
▁व्याख्य 40723
▁सीजन् 40718
ालंटे 40714
▁क्रै 40714
▁माट्लाडुतू 40712
,999 40709
▁दर्शकुडु 40709
▁बसबास 40709
नंतर 40708
▁औपचारिक 40706
तॆगॆ 40702
▁आदालत 40702
▁अळवड 40697
▁पड़ेछे 40697
सान 40684
िसुत्तिरुव 40684
▁बधुं 40684
सन् 40682
▁ग्लोब 40682
▁चेश 40679
्ण 40676
▁ब्रिटिष् 40671
▁नाट्कळ् 40651
प्पत 40647
▁अर्त्त 40646
▁जताई 40643
▁वच्चि 40641
▁राखवा 40631
▁अगत्यविल्ल 40623
▁उत्तरे 40619
▁खाण 40613
▁सर्वेक्षण 40601
▁पेजी 40600
ण्या 40591
▁अंटू 40589
▁खालि 40586
▁साहिब 40585
اس 40584
▁अतुवुम् 40571
▁इतिनु 40571
▁گ 40568
▁लगाई 40567
▁लोकोए 40562
▁بغیر 40551
त्तू 40546
▁पॆळ्लि 40527
▁आपणङ्कु 40526
ुकोवच्चु 40524
▁चारों 40524
▁बरु 40523
रुत्त 40520
टेन 40518
▁डाय़ 40512
▁नाच 40511
▁तिरुम्पि 40510
▁इंजीनियरिंग 40505
▁मुऴ 40504
▁यारि 40504
▁तदुपरि 40499
बित 40495
द्दां 40493
▁अब्याहत 40487
▁ब्रो 40485
▁सुधारण 40484
▁व्यतिरेकंगा 40479
माकुं 40473
वाडु 40472
विरुद्ध 40471
▁मक्कळिगॆ 40471
▁खेलाडी 40470
▁तुमे 40470
ंथ 40459
▁पिट 40454
▁प्राजॆक्ट् 40452
▁व्याप 40452
▁नाटिकि 40451
▁काद 40443
▁रिया 40441
ुपै 40429
न्तो 40425
▁बळसल 40420
▁जट्टु 40414
▁वलु 40412
ारम 40408
▁लेता 40402
000 40400
त्तिया 40395
▁दरअसल 40395
▁आद्रॆ 40394
▁76 40390
▁ओलंपिक 40387
▁कैद 40383
▁एऱ्प 40376
▁सम्बन्ध 40369
um 40360
▁विनिमय 40360
▁इलाखॆ 40358
ियान 40357
▁फलितंगा 40353
▁इच्चिन 40352
▁बॆल 40348
▁मॊऴि 40348
▁गंग 40346
▁इदीग 40345
▁बैठ 40341
▁बिशेषज्ञ 40340
▁स्वामी 40340
▁अऱ्पुत 40335
▁ऎऩ्ऩिटम् 40328
▁चिंत 40323
सेस 40322
▁फोर्स 40322
▁شادی 40318
▁एफआईआर 40315
▁करायिब 40315
ास्क 40304
ऱुत्त 40302
▁अन्तिम 40299
Q 40298
▁प्रामुख्य 40280
▁2.0 40273
▁कहाँ 40273
▁शैलि 40272
▁ऎङ्के 40261
वीर 40260
ैयो 40255
▁मार्पुलु 40248
▁کافی 40246
▁नेरि 40242
ून् 40240
गॆय 40238
▁इऱन्त 40237
▁आरंभिक 40234
▁पेपर 40232
ऩुटऩ् 40224
▁इको 40223
▁सॆट् 40217
▁होवानुं 40215
▁बेटा 40212
▁अव्व 40210
चाल 40207
▁राज्यात 40197
▁कुण 40193
▁कॊण्टुव 40183
▁सुम 40180
▁हेळिदॆ 40174
▁नीडल 40168
बै 40164
▁हेग 40162
ुदेर 40161
▁माय़ेर 40158
▁हलेओ 40153
▁कमिटि 40148
▁साक 40144
▁जबरदस्त 40143
▁ब्रह्म 40134
گو 40129
▁होइथिबा 40129
▁मृत्य 40125
▁उण्मैयाऩ 40113
ुकॊण्टाण् 40107
▁उण्टायिरुन्न 40107
-1 40098
▁मऴै 40084
▁भद्रत 40082
▁हिन्द 40082
मायाण् 40070
▁भेद 40069
▁पकुतियिल् 40066
्यातील 40065
ॆऱ 40062
▁समस्याओ 40061
▁कीऴ 40060
▁फलं 40060
▁डाक्तार 40057
▁अऱियां 40055
▁नाणाकीय 40048
▁पक्षों 40047
काम 40041
▁कन्ना 40039
▁कल्ल 40039
▁स्वादिष्ट 40039
▁वाक्क 40037
▁अंदरिकी 40025
▁ہوگی 40024
बेकागुत्तदॆ 40018
▁लढ 40015
वरील 40014
▁पन्नु 40013
▁برطانیہ 40011
▁वलन 40002
जीवन 39997
▁विरुप्प 39996
माऱ्ऱ 39990
▁मीटि 39990
▁विऱ्ऱ 39985
▁घटने 39980
ुल्लाह 39976
▁स्वर्ग 39967
▁बरुत्त 39964
ानिक् 39962
प्रदेश 39958
मिक् 39951
▁कीमतों 39950
▁आद्यमायि 39948
▁स्टील 39946
▁नव्हतं 39941
▁वें 39939
ुकोवडानिकि 39935
पूर्ण्ण 39934
▁लॉकडाउन 39931
▁दाँड़ 39928
साव 39916
▁चित्रङ्ङ 39914
▁موقع 39906
▁टाप् 39905
▁मनाया 39905
▁कऴिञ्ञु 39900
▁महे 39898
▁इउरो 39896
▁सहकारी 39890
▁अनुबंध 39887
st 39885
▁ब्लग 39885
▁प्रतिबद्ध 39884
▁ऒकरु 39882
▁धीमे 39881
▁गर्भवती 39879
▁1995 39878
▁कार्यरत 39872
▁शुक्रवार 39866
▁प्रबंध 39862
▁सत्यं 39862
▁मुड़ 39861
▁सीजन 39861
▁एमएस 39859
▁टाइ 39857
▁नडॆदिदॆ 39857
▁चलन 39850
▁मंडल 39847
▁नटन्नत् 39842
▁बळसलु 39839
▁अन्ना 39838
▁घो 39838
▁टॉ 39835
ॊच्चु 39833
▁ऒन्नाण् 39826
▁झा 39821
▁बट्ट 39821
,8 39819
90 39818
▁आमॆनु 39818
▁अटुक्क 39817
फोर 39814
▁उतार 39812
▁लीग् 39810
ov 39808
द्दवु 39803
▁واری 39803
▁मेम्पटुत्त 39802
▁ओय़े 39799
▁परम्पर 39798
▁विप 39796
▁वळर्च्च 39793
मंदि 39787
▁ऎत्तर 39786
▁मावट्ट 39781
▁तॆरि 39779
ख्त 39777
बाल 39776
▁इसदे 39776
▁उदय 39775
▁ऒरिक्क 39772
मुख 39770
यर् 39767
▁याचे 39766
राव 39763
▁मले 39758
▁अळव 39757
▁टीमों 39757
▁निशाना 39743
▁दैनंदिन 39742
▁मिनट 39742
▁संद 39729
▁प्रदेशदल्लि 39725
बाब 39713
▁हेच 39710
▁होटॆल् 39708
▁काळा 39706
मं 39703
▁78 39702
▁परस्परं 39698
ुकार 39694
प्पट्टुळ्ळऩ 39693
▁फडणवीस 39691
▁बन्या 39691
▁गतंलो 39690
▁अग्रणी 39688
▁आशरे 39688
▁प्रोगराम 39688
सिनॆ 39687
▁संक्रान्त 39670
▁नक्षत्र 39664
▁कुश 39661
▁जीती 39653
डलु 39650
▁रखता 39650
▁एउटा 39649
▁सिफारिश 39649
▁एकवार 39644
▁ऎल्लवन्नू 39626
▁ओवर् 39626
▁प्रोत्साहित 39616
▁मगुविन 39615
▁विळैया 39615
▁अवुगळल्लि 39612
ृति 39611
▁प्रणय 39605
▁हुन 39601
▁نقصان 39595
▁किसम 39591
▁فہرست 39588
▁दाय़ेर 39588
▁पुरोपुरि 39587
खंड 39574
▁हेळिकॆ 39572
जू 39571
▁ऱि 39571
▁जेकर 39566
▁آخری 39564
▁बिनामूल्ये 39564
ॆर् 39561
تھ 39558
▁नेपाळ 39555
▁ओछुं 39554
मेट 39548
▁कुऴु 39545
नाळ 39540
▁फ्रे 39539
▁वैऱस् 39528
▁खड़े 39518
डुं 39516
▁मर्यादित 39516
म्न 39515
▁ताड़ 39512
▁पातिक्कप्पट्ट 39505
▁दिश 39504
▁दुसरा 39500
▁नॆनप 39498
▁मुलगी 39495
▁करवाना 39492
▁दृढ़ 39491
▁संदेह 39491
▁डबल 39489
▁दिस 39485
▁सावु 39485
▁कंपनिय 39483
▁जनेर 39482
▁बुक् 39482
▁लिखते 39482
▁प्रकिरिआ 39479
▁टिभि 39476
▁मोदीए 39476
▁अदनंगा 39471
▁वन्नि 39467
▁इरुत्त 39465
बहुद 39464
▁संगठनों 39464
▁जपान 39462
▁ध्व 39462
▁आवता 39453
▁पुरिन्तु 39453
▁नसते 39451
ग्राम 39447
▁रिजर्व 39447
ित्व 39445
▁नेटओय़ार्क 39442
▁पड़ताल 39442
ाववामां 39441
▁मुलगा 39439
▁उठाया 39432
▁नग 39430
▁लोगो 39427
▁रास्ते 39425
▁वरुकिऱार् 39425
▁ऎवर 39424
कान 39422
वाच 39421
▁महत्वाचे 39421
▁दाल 39419
्वु 39418
▁ओपरे 39416
बाजी 39413
▁त्वरगा 39410
शनं 39409
▁ٹیم 39409
▁जॉन 39408
▁विज्ञापन 39407
▁नगरद 39403
▁व्यत्य 39401
▁जपान् 39400
▁दैहिक 39399
▁मुऱ्ऱिलुम् 39394
▁طریقہ 39384
▁निवडणूक 39384
न्ऱि 39383
▁व्हायरल 39383
▁आहमेद 39365
▁निच्चयमाक 39361
▁प्याके 39359
ڈی 39355
पिंग 39352
▁संतोषंगा 39348
ालोनि 39345
▁नटित्त 39344
▁बिडुगड 39343
▁کاری 39329
माक्किय 39325
▁राखार 39321
▁चैनल 39317
्यानिकि 39316
▁तण्णी 39316
▁भागात 39315
ائ 39304
▁जन्यइ 39302
▁मादरिय 39298
▁दुर्भाग्य 39296
▁बदला 39293
▁संग्रहालय 39293
क्किऱ 39290
▁میڈیا 39286
▁इरबेकु 39284
बुल 39282
▁स़ुरूआत 39278
▁शुभकामना 39274
▁चुनावों 39270
भावना 39269
दिंदागि 39261
▁प्रयोजनं 39259
▁दशल 39258
▁ऎविटॆ 39252
▁होतात 39249
▁कोम्पानि 39243
▁चेप 39242
▁हब 39239
नाग 39234
लपै 39228
▁डू 39223
▁अप्पा 39221
ज़र 39214
त्तॆक्कुऱिच्च् 39213
▁गू 39210
▁रंगु 39209
उणा 39199
ळित्त 39192
▁कॊऴु 39191
▁लागछे 39191
▁तिरुमणम् 39186
▁प्रख्यात 39185
▁جنہن 39184
▁कॊलै 39173
▁तला 39163
▁निर्देशित 39162
▁दुकान 39161
मुट 39159
▁सकें 39156
▁खेलने 39150
▁प्रमाणद 39150
▁आय्वु 39140
▁चक्क 39137
त्स 39135
▁आगुन 39135
ुवाग 39127
یل 39125
झि 39124
▁मार्केटिंग 39123
▁ड्रैव् 39120
▁आभारी 39119
▁चुट्टू 39118
▁تر 39110
▁डायरेक्टर 39100
▁सुलभव 39098
▁चङ्क 39096
य्यारु 39094
▁अहमदाबाद 39094
ळॆय 39093
▁डिव 39086
▁पॊरुळ् 39086
णम् 39080
▁چیز 39078
▁गुणमट्ट 39078
▁छत्तीसगढ़ 39063
▁मुग्गुरु 39062
फॆ 39058
वून 39049
▁स्क्री 39049
जं 39047
ॆट्ट 39038
▁भौ 39037
▁किछ 39036
पिक 39025
▁आसल 39012
ुक्त 39009
▁सक्रिय़ 39009
▁रान 39007
▁मय़ 39006
▁रङ 39005
▁शामेल 38996
▁फरवरी 38989
▁भारतनी 38983
▁निवेदिक 38981
▁त्वरलोने 38978
▁कमल 38972
▁पेरुं 38972
▁وائرس 38970
▁उज 38968
▁लायक 38968
लाइन 38958
▁अरचाङ्क 38949
टस 38943
▁चाकरि 38927
▁सख्त 38923
▁अनारोग्य 38920
योटॆ 38919
▁ठोस 38915
▁आवि 38913
w 38908
▁म्हणतात 38905
ٹن 38904
▁جانا 38904
▁Ref 38901
▁قبل 38898
▁वाक्य 38898
▁ब्यबहारेर 38897
▁शरूआतमां 38894
▁बातों 38889
▁वरुकिऩ्ऱऩ 38886
▁कधीही 38884
▁हैरान 38884
▁जानत 38881
▁꯭ 38878
▁उतपाद 38874
▁आल्लाहर 38872
▁चौहान 38870
▁सराहना 38861
▁एंड्र 38858
▁दिक्कत 38856
▁पुनराव 38853
▁बालिवुड् 38852
▁टिर 38851
▁لو 38849
▁तुलनाय़ 38842
▁वेरिय 38840
▁अतः 38835
▁कॉन् 38832
▁सिस 38827
▁इऩ्ऩॊरु 38814
▁بھ 38811
▁प्रतिष्ठा 38810
▁उरिमै 38806
ल्नि 38805
ग्रस्त 38803
ञ्चि 38798
▁कलु 38796
▁हाम्रो 38792
▁चूड़ान्त 38788
▁पनिचेय 38787
▁भरी 38782
▁द्रव्य 38778
ुविट्टतु 38774
तरा 38771
▁महि 38764
▁भज 38758
▁आयुष 38757
▁चेसुकुन्न 38753
▁बजेट 38748
▁नमून 38741
▁विशेषता 38741
▁علاج 38738
मॆन्ऱ् 38737
▁कीतीआं 38736
▁उरुवा 38735
▁अद्देहत्तॆ 38733
▁दिनद 38732
केट 38721
▁जोडी 38717
▁आओय़ामी 38714
रिक्कुन्नु 38713
▁अनुभवी 38712
▁इतिमध्ये 38707
▁आसुन 38703
▁बॉस 38703
▁निर्बाचित 38697
-20 38696
▁साधिक्क 38695
▁शहरेर 38687
ऩ्ऱाल् 38686
▁कण्णु 38686
▁राजीनामा 38685
▁काहीतरी 38684
▁अकसर 38681
▁कमान 38678
ुरू 38675
▁یونین 38672
▁हिर 38672
▁कमाई 38668
▁लेंगे 38665
▁ड्रै 38655
▁जोड़ी 38653
▁कॆप्टॆन् 38651
▁युनाइटेड 38647
▁आकियवऱ्ऱै 38646
पिर 38642
शने 38636
▁पॊरुत्त 38634
▁प्रकरणी 38633
▁चित्रदल्लि 38632
▁पेराण् 38631
▁पातिक्क 38629
▁कोविंद 38625
भी 38611
▁बिक्षोभ 38611
▁कथापात्र 38604
▁تاکہ 38603
▁अरै 38599
्मॆ 38597
सिस् 38594
▁बजाय़ 38594
दुल 38588
देह 38585
▁मतामत 38584
▁विकसि 38579
▁मेक्सिको 38572
▁तबीबी 38568
▁महासागर 38567
ींचा 38563
▁विकॆट् 38562
▁कराय 38559
▁اک 38558
यिन 38554
षऩ् 38553
▁पाठ्यक्रम 38553
▁गेछेन 38552
▁लैफ् 38551
ऩ्ऱतु 38547
▁आईटी 38541
▁हबेन 38529
लिस 38527
गृह 38522
ाब् 38521
▁मुऱैयिल् 38518
▁سرمایہ 38516
▁ओस 38511
▁وچ 38509
▁तिरुत्त 38497
▁कॊळ्क 38495
लेले 38489
▁काश्मी 38481
▁मूट 38474
▁अवैध 38472
ाव्या 38471
▁गोटा 38469
▁1992 38466
▁तिऩ 38466
फिक् 38465
▁सङ्गीत 38465
िसुत्तिदॆ 38463
▁मुद्र 38461
ुळ्ळू 38459
प्राप्त 38453
op 38452
▁करॆयलागुत्तदॆ 38446
▁हौस् 38443
▁दर्शकत्वंलो 38439
▁व्यूह 38439
ड़ों 38438
▁करिबार 38436
▁कऴि 38434
▁असम्भब 38431
▁न्यूयार्क् 38430
▁अ्याकाउन्ट 38429
▁आल्या 38420
▁विक्रय 38416
▁मलिक 38415
चाडु 38408
▁लागणी 38407
▁गुलो 38404
ेष 38402
▁स्क्रीन् 38379
▁दर्दी 38372
लेशन 38365
▁वित्तियाच 38365
▁निपटने 38358
▁मुक्कियम् 38356
▁माटेना 38355
प्य 38347
ितमैन 38342
▁पाडे 38341
▁एऱ्पटुम् 38339
ॆटुत्त 38337
▁कितनी 38336
यत 38332
▁कैबिनेट 38332
▁चाम 38332
▁यूरो 38331
▁पोस्ऱ्ऱ 38330
▁प्रदेशद 38329
ागुलि 38327
▁तैल 38324
िसुत्तिद्द 38321
लिन् 38312
▁अतावतु 38311
▁क्कुम् 38308
▁गडि 38308
▁नप 38292
▁पूर्बे 38291
▁पुलीस 38288
▁हताश 38283
▁ہوتے 38279
▁भारतातील 38279
▁चदुव 38277
▁प्रकरणात 38276
प्पट्टऩ 38275
▁प्रेक्षक 38274
▁रण्टुं 38273
वारी 38271
▁हेल 38271
▁मध 38270
▁लंडन् 38267
ुना 38250
ुकुंटारु 38249
▁लंदन 38247
▁पीड़िता 38240
▁पिं 38238
▁कमाल 38237
▁चंप 38235
▁आक्स 38234
स्ती 38227
▁उपयोक्ता 38226
▁केंद्री 38225
▁संघं 38224
देव 38219
▁सोश्याल 38216
▁हफ्ते 38216
▁आरब 38213
गिंदि 38212
▁उच्चतम 38205
▁ताक्कुत 38205
▁मिळाली 38204
▁वॆऱ 38203
्रेशन 38202
▁इत्तीचिन 38195
▁جنوبی 38194
▁युवती 38185
▁मीर 38184
▁हाडु 38184
▁आम्ल 38183
ंटी 38180
ॆयायिरुन्नु 38180
ग्रा 38175
▁जॊ 38174
मार्क 38169
▁ताओ 38169
▁आवती 38165
▁रष्य 38162
▁84 38160
▁तीव्रवाद 38159
▁मनिषि 38156
▁किटै 38152
▁असॆंब्ली 38150
गदा 38148
क्कुकयाण् 38147
क्लो 38145
▁उयिरिऴन्त 38145
▁नियन्त्रण 38134
ine 38132
▁वङ्कि 38130
र्वु 38127
▁हास्य 38122
▁भिन्नंगा 38120
▁l 38117
▁उंटु 38116
▁कच 38115
▁सन्तुष्ट 38105
▁भाज 38099
▁विळैयाट्टु 38097
,200 38096
डंतो 38096
▁कल्व 38096
▁عرب 38090
पूर् 38089
▁इन्टार 38089
▁वॆऱुं 38088
▁वॆऱुम् 38086
▁लक्ष्मी 38084
▁अमैप्पु 38082
ुपोक 38081
▁छाड़ाओ 38078
▁मनॆगॆ 38066
لو 38065
▁स्य 38062
ीस् 38060
▁साक्षी 38059
▁ब्यक्तिर 38058
लाइ 38056
▁आमोद 38051
▁कॆलसवन्नु 38051
बर्ती 38049
▁सभ्युलु 38047
▁प्रकाशन 38044
मधून 38043
▁ब्लूट 38043
▁बिट्टु 38042
▁मराठी 38041
▁जब्त 38040
▁जाग्रत्तगा 38039
ुवल् 38026
लब 38024
ण्याच्या 38023
▁~ 38018
ट्टिऩ् 38016
▁घरमां 38008
▁परात 38003
▁युवाओं 38003
▁विण्णप्प 38001
▁अर्हत 38000
▁विश्वमां 37994
र्जि 37989
▁पडुतुंदि 37978
28 37977
▁जलवायु 37973
▁प्रतिरक्षा 37973
▁विखे 37971
▁प्रोसेसर 37970
▁विचों 37965
▁दूसरों 37964
▁मेघ 37964
एफसी 37953
▁वकुप्प् 37953
▁پیداوار 37948
▁जलदी 37945
▁बाबतीत 37945
ावं 37931
▁बिमारी 37930
▁निषिद्ध 37927
▁मीट 37927
ॆया 37924
▁बाहरी 37922
ववामां 37918
▁वर्षगळल्लि 37914
▁निशान 37912
▁रखे 37911
▁चित्रत्तिन्ऱॆ 37909
▁नमूना 37909
▁शरण 37905
विरुव 37904
▁HD 37901
▁व्यतिरेक 37900
▁विचारि 37898
▁शिशुर 37898
▁भूप 37895
▁देशातील 37892
▁प्राप 37892
▁चौधुरी 37886
▁यानंतर 37884
▁पूरै 37883
▁दिव 37882
▁नियमो 37881
▁यावुदु 37881
دہ 37880
माणो 37879
▁भागे 37878
▁बलछेन 37876
ما 37875
ार्ह 37870
▁ब्लॉग 37859
▁एतानुं 37858
▁सीधा 37844
▁युक्तराज्य 37841
ग्न 37837
▁चेयलेदु 37837
▁बद्ध 37834
▁प्रभावितं 37831
▁मृतदेहं 37831
▁कॊब्ब 37830
▁कोर्टु 37821
▁उनी 37817
▁अक्टूबर 37814
▁दीपक 37814
▁पलर् 37809
▁कथॆ 37803
बरोबर 37802
▁रण्टामत्तॆ 37802
▁ठे 37801
▁त्रुटि 37801
▁रियल 37795
शन्स 37794
▁दर्शकों 37792
▁मोहाम्मद 37791
▁यहोवा 37789
▁सदस्यरु 37789
▁बैंकों 37785
खर 37781
▁षूटिंग् 37781
कोने 37779
▁ڪجہہ 37777
▁गंभीरता 37777
▁तप्पनिस 37772
्पा 37771
▁بس 37771
▁وہاں 37766
ीकरि 37756
▁पृथक 37751
▁प्रशासनिक 37750
▁1947 37748
▁पवन 37747
धिकं 37746
षी 37740
▁येतो 37738
▁ग्रेप्तार 37737
▁तिक 37736
▁मरे 37735
▁कालेजु 37734
▁व्यव 37734
▁संस्थानत्त् 37733
▁आदौ 37730
▁बोर 37730
▁अबशेषे 37729
▁बरुत्तदॆ 37729
▁अध्यक्षत 37728
▁ऒत्त 37727
ुकळिऩ् 37724
▁लस 37724
▁सल्ला 37723
▁मऱै 37719
▁ऎवरैना 37713
▁कॆलसद 37713
▁स्पीड् 37712
प्न 37707
▁ठाणॆयल्लि 37704
▁बटन 37704
▁धरी 37701
▁निस 37694
▁टीकाकरण 37692
▁दोकान 37692
▁कॊन 37688
▁स्थायिलो 37679
▁मलयाळ 37678
▁विधायकों 37677
▁लागते 37675
▁डब्ल्यू 37672
क्टि 37667
▁पटत्तिल् 37666
क्षं 37665
▁ऎंबुदर 37664
▁गुलि 37663
▁गुणमट्टद 37662
▁जैविक 37659
▁प्रजलकु 37659
कल्प 37658
क्किऩ्ऱऩ 37658
▁ऎप्पुडु 37658
▁सिरफ़ 37658
▁मुख्य़ 37654
सम्म 37653
▁Windows 37652
▁देखाव 37652
▁अंथ 37650
▁इहा 37648
टिन् 37647
▁जीब 37637
▁गुरू 37633
ڑ 37632
▁कृति 37632
▁मन्द 37629
▁बच्चा 37628
▁मऩैवि 37625
▁मानदंड 37625
▁कालत्तिल् 37623
▁बेट 37622
नाल 37619
ान्न 37618
▁रोजुल्लो 37617
▁नव्या 37616
▁वाज 37612
▁अंतिमवागि 37611
▁ہزار 37604
पात्र 37603
▁براہ 37602
▁उऩक्कु 37599
▁उपलब्धि 37598
▁लागला 37595
पक 37591
गाग 37587
▁टङ्का 37582
▁डिभाइस 37577
▁मुली 37575
▁पारिनि 37574
▁हृदय़ 37566
म्मा 37562
वरुं 37558
ख़ 37543
▁پوء 37538
▁मानते 37536
त्तुल 37533
वरकु 37532
▁अधिकारीआं 37531
▁कूट्टिच्चे 37531
▁घेण्यात 37526
▁अणुक 37525
▁अंदुवल्ल 37519
▁ऱॆयि 37517
▁जमानत 37514
▁मेऱ्क 37514
▁लागली 37512
नन्नु 37506
▁असाध्य 37506
▁दाळि 37505
▁प्रण 37496
26 37490
▁कनेक्शन 37490
▁विकल्पो 37489
▁बर्णना 37486
▁समन्वय 37483
स्टर् 37479
▁محسوس 37478
▁तोड 37475
▁श्रेण 37473
▁लण्ट 37466
▁पासपोर्ट 37455
▁मूलं 37455
च्चिरिक्कुन्नत् 37453
▁बलात्कार 37448
▁शत्र 37447
▁निकऴ्व 37441
▁दिखाया 37434
▁कॆळ 37428
▁तनु 37428
ुवतिल्लै 37419
▁मधुर 37419
▁वायि 37419
▁सोना 37419
▁बाहिनी 37413
ام 37412
▁मिथ्या 37408
▁विपक्षी 37403
टैन्त 37401
िस्तु 37400
मति 37397
▁آزاد 37397
ताल 37395
▁کیلئے 37394
▁तबु 37394
िबार 37385
لوں 37384
▁सूक्ष 37375
▁आमंत्रित 37367
न्तर 37365
▁आप्युं 37359
▁हुडुग 37347
▁तुक 37344
▁डौन् 37343
▁फूट 37341
▁विट्टतु 37341
▁शरिय 37339
▁छोकरी 37335
▁उंटुमाड 37334
▁त्वरलो 37333
▁फॉर 37333
▁आऱ् 37330
▁चतुर्थ 37322
▁विधानं 37322
ڈر 37321
▁व्यास 37316
▁एडु 37314
▁सेल्फी 37314
▁तॆलुसा 37309
ुन्नट्लु 37306
▁मातापिता 37297
▁पाउ 37294
णुम् 37287
मायिरिक्कुं 37286
▁ऐम 37281
ठारु 37280
▁رنگ 37278
▁मुझसे 37278
्रिय 37277
▁ओषुध 37274
ळुटॆ 37262
▁बढ 37260
▁ऎंऎ 37257
▁अपहरण 37256
ण्याचे 37253
▁याबद्दल 37250
▁मध्येइ 37247
▁मुख्य़मन्त्री 37247
▁अभाब 37245
▁भारताच्या 37241
▁बताते 37236
▁भुले 37233
▁आस्पत्र 37229
▁सहायिक्कुं 37228
ऩ्क 37224
▁तमारो 37218
▁अतिकारिकळ् 37217
▁पनुलु 37215
▁एक् 37209
▁भरती 37208
▁स्टोरी 37207
▁चित्रीकरण 37206
▁ग्रन्थ 37205
▁रां 37199
▁कुऱिप्पाक 37187
▁सहयोगिता 37185
ागुलो 37178
▁ऐक्किय 37178
▁वाकई 37177
ुंटु 37173
▁सवालु 37172
▁अकल 37171
▁रवाना 37167
▁इरान 37165
▁सीपी 37157
▁जव 37153
▁नडॆयुत्तिदॆ 37140
▁उल्लेखयोग्य 37133
▁कूटुतल् 37133
▁सबैभन्दा 37132
दल्लू 37131
िस्तुन्ना 37127
▁सर्कारि 37126
▁उटऩटियाक 37125
▁فارم 37116
दिक 37115
ळ्ळि 37112
▁दूरं 37109
▁अभिने 37106
▁इंदुकु 37099
▁संस्थलु 37099
▁for 37094
▁خاندان 37093
ाळ 37088
ॆयॆ 37088
▁तालीम 37087
िल्ले 37085
▁देशभर 37081
▁व्यक्तुलु 37079
ॆटुत्तु 37076
▁प्रसि 37075
▁राज्यं 37075
जाल 37074
▁जाणि 37072
▁एसपी 37070
▁कुकुर 37066
▁तिरुवनन्तपुरंः 37064
▁उॎपादन 37062
दायक 37058
▁मारुति 37058
▁कारओ 37056
▁पत्नि 37054
▁समयवन्नु 37053
▁प्रदेशं 37051
▁सपा 37050
▁अवळै 37049
▁नियुक्ति 37046
जम 37043
▁वर्मा 37040
▁पॊरुट 37037
▁शरीरेर 37034
▁देखो 37031
ऴु 37029
▁तिळिदुकॊळ्ळ 37027
▁शस्त्रचिकित्स 37027
▁तिरुमण 37018
▁रुक 37010
,0 37007
▁मिळत 37006
▁गइ 37000
▁तक्कुवगा 36999
▁कम्पन 36990
डीआ 36989
▁चुना 36989
▁चरियाक 36987
तिकळ 36982
ापुर 36982
▁तोऱ्ऱ 36982
िसुवुद 36980
ञ्चु 36975
▁आगोळ 36972
▁मानवामां 36969
▁राज्यातील 36966
त्थिक 36956
▁ایران 36955
उट 36952
▁तॆळिव 36950
▁आओ 36949
▁हानिकारक 36947
▁ओफिस 36942
▁प्रश् 36941
▁स्मिथ 36928
▁اثر 36927
▁काहिँकि 36926
▁अपमान 36917
▁देवामां 36913
▁साहमणे 36908
▁آغاز 36904
▁प्राधिकरण 36902
▁چند 36901
ल्ड 36899
▁اچھی 36895
▁दिखा 36887
जिय 36884
▁अन्यथा 36883
राण् 36882
▁चिलप्पो 36879
▁भावन 36879
▁राष्ट्रवादी 36877
▁मळ्युं 36874
णम 36873
▁कोणत्या 36869
ुवुलु 36854
वर्कळै 36841
▁मळ्या 36841
▁मानुषके 36837
▁मेखल 36837
▁उंडेदि 36834
▁दिल्ल 36834
▁इरत्त 36832
विंग् 36830
▁یونیورسٹی 36829
ाकडे 36823
्ललो 36823
यी 36822
▁पेय़ेछे 36821
च्चो 36820
▁संस्थानों 36814
▁देवा 36812
हू 36809
ताल् 36807
▁रसोई 36801
▁प्रसाद् 36793
▁नीतीश 36792
▁उण्टायि 36786
▁निष्कर्ष 36783
▁अऩ 36782
▁प्यान 36771
▁लागल 36770
▁پو 36767
▁अडुग 36767
ोगा 36762
▁شدہ 36761
▁माडिकॊंड 36757
▁तरं 36756
चू 36751
▁अऱिवि 36748
▁सांभळ 36746
▁बढ़े 36744
▁इंग्लंड 36742
▁गुरुत् 36736
नवाद 36734
▁मरीज 36732
▁यूजर्स 36730
▁प्रभाबित 36724
▁मोश 36721
▁आइआ 36718
▁अटिप्पट 36711
▁परिवर्त 36710
▁पॆर 36706
न्तिर 36703
▁जुटी 36703
▁₹ 36703
त्तिनुळ्ळ 36701
यल् 36699
▁निऱुव 36694
गीत 36693
▁शाहिद 36693
ائے 36691
य़ाल 36688
ur 36686
▁गमनिंच 36686
य्क्का 36683
▁کردہ 36680
▁घन्टा 36680
▁नकार 36678
▁खतरे 36674
▁बणा 36673
ाग्राम 36672
▁बटे 36672
▁क्षेत्ररे 36667
▁स्पष्टंगा 36665
बडे 36658
▁नयाँ 36658
▁दिनां 36654
▁सड़कों 36654
▁आपत्ति 36653
▁निमि 36650
▁हवाले 36647
▁इवन्नी 36640
▁देशाल 36640
▁तद्दन 36639
▁फ्लाइट 36639
डिसि 36632
▁1,000 36627
▁इहनां 36622
क्कियत् 36621
▁कारणो 36619
▁वगेरे 36615
▁टेनिस 36612
▁विभज 36610
▁मऱ्ऱुळ्ळ 36604
ुक्कि 36600
▁चर्क्करै 36598
▁बोले 36597
▁प्रयासों 36596
▁सहभाग 36596
▁पेन 36591
▁आशंका 36590
बल्ल 36588
▁फुटबॉल 36586
▁मुताबक 36580
▁रशियन 36579
▁लघु 36569
▁वेद 36565
▁जेनारेल 36561
▁खुँज 36558
▁जनत 36558
▁ओबामा 36555
▁बिचारपति 36553
▁सिनिमानु 36544
▁तादेरके 36543
ैव 36542
▁قانونی 36541
▁सूप 36541
▁मऩ्ऩ 36538
गळाद 36537
▁मनवि 36535
▁बदलने 36531
▁घण्टा 36529
िसिवॆ 36526
▁छुट 36521
ित्र 36519
▁बिग् 36519
▁तिरस्कर 36518
िस्ऱ्ऱ् 36516
▁चित्रपटात 36505
▁स्थळक्कॆ 36505
▁महत्त्वाचे 36504
▁Wi 36502
▁आचार 36501
am 36500
▁तेणु 36500
▁नींद 36499
▁तॆगॆदुकॊंड 36496
▁संवेदनशील 36490
▁Pro 36489
▁परिप 36489
▁कितने 36488
▁साधा 36478
▁घोर 36474
▁सेवावां 36472
▁आपो 36469
ائیں 36463
प्पे 36457
▁ऑफर 36450
▁अटैन्त 36442
▁वारिलो 36439
▁तीर्माऩ 36438
▁چ 36437
▁त्रि 36437
्त्तु 36432
▁परियोजनाओं 36430
▁दूरंगा 36429
▁धा 36425
▁इत्तीचॆगॆ 36424
बुल् 36421
ालीन 36420
▁धातु 36417
▁द्वितीय 36416
▁नौसेना 36410
▁CO 36408
▁उंडटं 36399
▁नवो 36398
▁सोबत 36393
▁रहीं 36388
दर् 36385
▁पड़ी 36385
▁बालक 36383
▁आकर 36382
▁भवि 36381
प्पिक्कुक 36380
▁जाणी 36377
▁بنا 36376
▁क्लब् 36363
▁पॆट्रो 36357
▁गेलाम 36353
▁धरलु 36349
▁وزارت 36348
▁विस्तारमां 36348
▁हिट 36347
तलु 36346
▁स्टार्ट 36346
▁मूत्र 36344
▁دوبارہ 36338
खिअत 36334
▁꯫ 36333
▁किलोमीऱ्ऱ 36332
▁राज्यदल्लि 36332
▁अनेके 36329
▁एतेऩुम् 36328
ाहि 36326
▁डेविड 36326
प्पुम् 36323
▁मुटियात 36321
गळि 36317
▁जप्पा 36317
▁पड़ेगा 36316
▁युएस 36313
▁कसरत 36312
खन 36311
टिस् 36303
▁अष्टे 36292
▁होम् 36288
▁अस्थ 36286
▁तॆलुस्तोंदि 36282
▁शेवटी 36282
▁अतैप् 36281
▁रैल्वे 36280
▁मज़बूत 36279
▁उऱप्पा 36275
▁पुरी 36273
ुन्नतुं 36269
▁खचित 36267
▁98 36259
▁निप 36254
्मॆन्ऱ् 36250
स़ट 36248
▁वीरि 36247
त्ती 36244
▁तेज़ 36239
▁प्रांताल्लो 36239
▁जानो 36237
▁आटगा 36234
▁एकमत 36228
▁इव्वाऱु 36223
▁लिब 36222
▁बिक 36220
▁यूनिट 36218
पड्डारु 36217
▁स्वर्ण 36217
वाळा 36214
▁Sl 36210
▁जनम 36205
▁कॊंदरु 36203
▁वाकऩ 36202
▁विनंती 36192
▁پوری 36187
▁गॆल 36186
▁रालेदु 36184
▁हुट्ट 36184
▁पऴय 36180
क्कुकयायिरुन्नु 36177
▁टुइट 36174
▁सिने 36172
कारो 36171
▁ہفتے 36170
▁स्वर 36170
▁کاروبار 36154
▁टैम् 36154
▁लोकसभ 36154
انی 36149
▁भागीदार 36147
▁वेगं 36141
जीबी 36137
▁मुख्यालय 36133
ंटि 36129
▁साठी 36129
▁ऒंट 36126
▁चिऩ्ऩ 36116
▁निश्चय 36114
▁मातिर 36109
डीपी 36099
▁सेगुलो 36096
▁वातचीत 36095
▁जातिसंघ 36093
▁ख्र 36086
▁جسم 36085
्यानंतर 36083
ञ 36081
▁प्राजॆक्ट 36080
▁ال 36078
▁माडुवुदिल्ल 36075
▁उपयोगिक्का 36074
▁प्राक्तन 36070
▁तने 36057
▁विगत 36057
▁सहजवागि 36057
ताव 36052
▁पिआ 36051
▁पवन् 36047
टियाक 36044
कोट 36043
▁पकड 36043
▁कालु 36040
▁1984 36032
▁iOS 36028
▁सॆंटर् 36028
▁टॆलि 36024
▁सक्करॆ 36021
▁तरंग 36018
▁मानता 36014
▁पोताने 36013
▁मऱु 36011
▁वास्तवमां 36009
▁डिजिटाल 36006
▁मऱ्ऱॊ 35999
▁आवश्यं 35997
▁अधिनाय़क 35990
शाख 35985
▁रणनीति 35982
▁पङ्कॆटुत्त 35978
ागुल 35974
▁घरात 35973
▁ऒऩ्ऱाक 35970
▁पेशेवर 35967
▁आन्तरिक 35962
▁होंगी 35956
वाट 35950
वागुव 35946
▁रहेला 35945
▁अभिप्रायं 35940
▁इराणुव 35940
▁देस़ां 35937
▁सैक 35936
ण्टाय 35935
▁नियन्त्र 35929
▁प्रोफेसर 35929
▁एकसङ्गे 35925
▁कमर 35924
क्कूटातु 35917
▁सफ 35917
▁سا 35915
می 35913
▁ڈیٹا 35912
काळ 35911
▁अध्याय 35903
▁विरि 35903
टीसी 35900
ऱुक्क 35900
▁तॆरञ्ञॆटुप्प् 35895
▁पुरिन्त 35893
▁गंटल 35892
▁तटुक्क 35890
ङ्कळैक् 35887
▁88 35880
▁पयिऱ्चि 35879
▁ऎविट 35877
ुवताक 35876
▁पाटील 35875
▁हाथों 35875
▁ऎंप 35871
▁भग 35866
▁अन्तप् 35865
▁गळन्नु 35860
ऩुटैय 35857
ोड 35852
▁मुम्बाइ 35852
▁ऎट्ट 35849
▁थता 35849
ैत 35845
▁तॊऴि 35842
भागदल्लि 35841
▁चेर्च 35837
▁महीनों 35837
99 35830
▁दरखास्तु 35828
▁फोर् 35828
▁बिहतर 35827
▁प्रतिक्रियॆ 35826
▁लाया 35820
▁असणे 35814
▁मेडल 35814
▁मुख्यस्थ 35809
▁आश्वासन 35807
▁मिस् 35807
▁पोशाक 35796
▁नटवटिक्क 35795
▁पश 35791
▁लखनऊ 35791
▁हॉ 35783
िल्लात्त 35776
▁तीव्रमैन 35776
▁रेस 35771
▁अऴक 35769
टेयुं 35764
▁ठिक् 35758
▁उल्लेखनीय 35757
▁पदं 35757
▁पाखरे 35754
▁पट्ल 35751
▁मॆण 35749
▁तीर्पु 35744
▁कॊविड् 35742
प्पिक्कुन्नत् 35737
▁उऴै 35732
▁نمبر 35731
▁बणाइआ 35722
▁वण 35719
▁रष्टु 35717
ियाल 35716
▁चिह्नित 35716
▁नूनॆ 35713
धु 35710
▁روس 35704
▁कॊळ्व 35700
▁ग् 35697
ंगल 35694
▁ऎऴ 35693
▁लिङ्क 35693
▁स्त्रीय 35692
शियम 35682
▁पाल्गॊ 35679
▁वीटिलो 35674
▁ड्राइवर 35672
▁हॊरत 35670
वागियू 35666
▁महेंद्र 35666
▁येसु 35663
▁व्हाइट 35657
चेसि 35654
▁बृष्टि 35647
▁पोऩ 35646
▁वंश 35640
▁वारदात 35639
▁बांधकाम 35638
▁एऴु 35637
▁द्वार 35632
▁पुराने 35626
▁कहता 35624
िदार 35617
▁सरळताथी 35605
▁دیں 35600
▁उदयं 35600
▁एह 35600
▁पाकिस्ताऩ् 35600
▁on 35599
▁कण्टुपिटिक्क 35598
ुंटायि 35593
▁आधारद 35593
ुवार्कळ् 35590
ॉम 35589
▁इञ्चि 35587
▁पाता 35582
▁संदर्श 35579
▁पच्चै 35577
▁मानवी 35575
्रोम 35568
ायेला 35563
▁प्रतिय 35559
स्कु 35558
▁एठारे 35557
नॆगळु 35555
कुंडा 35554
न्ज 35554
ालेर 35554
▁धी 35554
्टी 35552
▁चिठि 35547
▁केने 35538
▁कों 35537
णाटक 35521
▁नास 35517
▁एखान 35515
िप्ट 35514
ुवरॆ 35512
▁झोप 35512
▁चार्ट 35507
ुन्नतिनुळ्ळ 35506
▁اصل 35505
परक 35498
ङ्ङळोट् 35487
▁बाणिज्य 35487
▁सिङ् 35487
▁स्कूल् 35485
▁तयाराक 35482
▁ऒम्मॆ 35481
▁انگریزی 35479
▁पुरुषों 35476
▁रियल् 35476
▁तुमची 35474
▁शब्दों 35471
▁मोटुं 35467
▁टीडीपी 35466
▁उऩ्ऩ 35460
▁ट्रेलर 35458
ऴिञ्ञ 35457
▁मीठ 35456
▁दुर् 35451
▁प्रदरस़न 35444
ंतॆये 35442
ऴ्च्च 35442
▁चॆऱ 35439
बर्ष 35434
▁नेपथ्यंलो 35431
▁प्रत्यक्षात 35431
▁मुश्केली 35430
▁पारित 35421
▁तॊडग 35417
▁पतन 35413
▁97 35412
▁नऩ्ऱ 35407
ाम्य 35406
▁86 35400
▁ग्लोबल 35396
▁रुण 35392
▁पुत्री 35389
▁तॊटङ्कि 35387
षणं 35383
▁आरेकटि 35382
▁सांबादिक 35379
नम 35377
▁मीनु 35367
▁वरुन्नु 35367
▁سروس 35364
▁अधि 35363
▁क्लास् 35353
▁तेजस्वी 35350
ियामां 35349
▁समस्य़ा 35347
▁जानाय़ 35346
▁असतं 35344
▁سگہی 35343
▁83 35342
▁चुरु 35337
▁परिगणि 35334
▁एकल 35332
▁Fi 35330
▁नमो 35325
▁तेटि 35323
▁موجودہ 35322
▁चीज़ां 35322
ुवेऩ् 35321
▁कॊर 35314
▁अहवाल 35312
डब्ल्यू 35305
▁< 35304
▁آنے 35304
▁अमा 35302
ऩमाऩ 35301
▁रेड्डी 35301
▁अखिल 35298
▁नंबिकॆ 35295
▁पुऱत्त् 35292
▁मौन 35283
▁बलेछे 35277
▁ऑक्सीजन 35276
▁परिवारों 35275
न्ता 35274
▁मट्टुमल्ल 35270
ास्त्र 35266
▁लाक 35261
▁हाड 35256
▁संरक्षित 35254
नॆऱ्ऱ् 35250
ायत् 35250
▁सरदार 35247
ॆयॊंदिगॆ 35241
▁زائد 35241
घे 35234
▁डिज 35224
▁चलने 35222
▁विस़वास 35217
▁भागना 35212
▁चॆय्यां 35205
▁बजाय 35189
▁विआह 35188
▁विषयङ्कळ् 35188
ागलिदॆ 35186
▁एखाद्या 35175
▁चिह् 35172
▁ईडी 35169
पीएस 35165
▁गौतम 35157
▁वऴियाक 35152
▁सिरिज 35152
▁جیڪی 35148
▁बिराट 35147
▁देशमुख 35142
टीन 35140
▁लांबी 35136
भूमि 35129
▁तिथि 35129
मस 35128
▁पूज 35128
▁ऎरि 35126
▁एक्टिव 35126
क्षेत्र 35123
ानाव 35122
▁आलम 35119
डीने 35115
▁अष्टु 35112
▁सादर 35109
ैकळैयुम् 35107
▁तुहाडा 35106
▁कॊण्टिरुन्त 35103
▁कॊरोऩा 35098
▁افغانستان 35097
▁डिम 35097
▁दुबई 35087
▁@ 35082
▁इन्तत् 35079
▁उम्म 35077
▁नथिला 35077
▁तिचा 35076
▁सितंबर 35069
▁اسکول 35063
▁आकियवै 35063
▁मात्रवल्ल 35063
िल्लॆङ्कि 35060
▁ہلاک 35057
▁मृद 35057
▁नाटुकळ् 35052
▁नेम 35048
▁अनुग्रह 35045
▁ख़ 35044
ैयिलुम् 35035
▁नागरिकता 35025
▁यशस्व 35025
▁नटक्कुम् 35021
लेनि 35015
▁एसोसिएशन 35015
ळून 35009
▁कंपनीओ 35003
▁जिनके 35000
▁षॆ 35000
▁क्रितं 34999
▁एआई 34996
ट्रो 34994
▁मर्च 34994
ाविन्ऱॆ 34991
▁حق 34990
रष्टु 34986
▁صورت 34983
▁चॆप्पिन 34983
▁लिन 34983
करी 34981
▁कार्प 34979
▁तिळिसिदॆ 34979
युण्ट 34978
▁सखत 34976
ڈو 34972
▁प्रस़ 34972
क्षे 34970
▁गुना 34970
▁सीनियर् 34969
▁हिट् 34959
▁ऎतिर्क 34956
▁चव 34956
▁दिनो 34956
▁दिलचस्प 34956
▁आवश्यमाय 34951
▁उल्लंघ 34945
▁भयंकर 34944
▁तीसुकुन्न 34939
▁सिनिमालु 34937
ाप्र 34932
ायची 34928
oc 34926
▁फ्लै 34926
▁तकवल्कळ् 34920
▁पोलीसुलकु 34920
▁उमेरी 34917
▁युवति 34917
▁युनि 34912
▁इणैन्तु 34909
▁ऎप्पट 34908
▁निधि 34904
▁गरमी 34902
िद्द 34899
▁महानगर 34887
▁गंगा 34884
▁केंद्रं 34883
▁कत्त 34872
▁कृषक 34869
▁प्रमाणदल्लि 34868
ऱायि 34863
ुति 34863
▁नक्कीच 34861
ेल्या 34860
मय़ 34856
▁एइच 34855
▁जूथ 34855
▁आईसी 34854
▁जोशी 34854
▁साधनो 34854
▁तिऩमुम् 34849
▁بل 34848
▁परंपरागत 34845
ऱ्ऱे 34837
▁छानबीन 34837
▁तॆरिविक्क 34835
प्पिच्चत् 34832
▁خان 34830
▁तीसुको 34829
▁याप्रकरणी 34829
श्बास 34827
▁अयिंदि 34827
▁लाखों 34821
▁विविधता 34818
پی 34817
▁सर्क 34816
▁नौकर 34814
▁निर्वाचन 34808
▁नॆलल 34806
▁टेल 34805
▁शंका 34804
िल्लॆन्नुं 34800
एब 34799
िवंत 34795
▁तॆऱ्ऱ 34790
▁अट्ट 34789
▁नरि 34786
ऩैयै 34785
▁चिल्ल 34768
ींना 34763
डीआं 34761
▁उष्णोग्रत 34760
▁गमनार्ह 34760
▁इतने 34757
ad 34756
भाल 34756
ोकर 34751
▁जंग 34750
▁ऎत्तिय 34748
▁रॉय 34745
▁म्हण 34736
▁नवां 34734
न्क 34733
ाकप् 34731
▁एवो 34731
بی 34726
बत 34726
▁रहीआं 34725
डंलो 34723
▁खरा 34721
▁लोपल 34720
▁समृद्धि 34719
ॉक 34715
▁منٛز 34715
▁मार्गदर्शक 34712
गढ़ 34711
▁एकक 34711
▁ध्बंस 34706
▁खुर 34705
▁तेलंगाना 34704
▁दिलेल्या 34701
▁पॊत 34699
▁बॆळवणिगॆ 34699
्के 34694
▁जाहिर 34693
▁एमैना 34692
▁इमेइल 34689
▁वेडुक 34689
▁विभागं 34681
▁तफावत 34680
▁मुखं 34669
▁इरा 34668
▁पगलां 34667
▁صنعت 34663
▁फीचर्स 34663
▁साझेदारी 34656
ाहरू 34655
▁कैफ 34652
▁डोक 34652
▁होइथिले 34652
ढा 34646
▁ओफीस 34644
▁ब्रॆ 34637
▁उन्नाडु 34636
▁उद्य 34635
▁दुरदृष्ट 34635
▁ر 34633
▁मारुकट्टॆ 34629
▁ऎलक्ट्र 34625
▁तोन्नि 34625
▁अळित्त 34623
िलाय 34618
▁अफ् 34617
▁چیو 34613
ावुन्नताण् 34612
ार्क 34611
▁प्रसारित 34610
▁रास़टरी 34610
ङ्किय 34609
▁स्कूळ 34607
▁घु 34606
▁सगळ्या 34605
▁बुझि 34601
▁लट्चम् 34601
▁अंड 34599
ैयाल् 34596
च्चुं 34594
▁अतुताऩ् 34594
▁गुंडॆ 34594
▁प्रोग्र 34594
▁किट्टत्तट्ट 34593
खान 34592
▁دیکھا 34591
मनुं 34590
▁मेला 34585
▁कोम 34580
▁पल्कलैक्कऴक 34577
▁8: 34575
▁टॉप 34575
▁अवस्था 34573
▁तनकु 34571
▁वृ 34567
▁تحقیق 34563
▁दिओ 34561
▁गुर्तु 34560
शर 34556
▁मानी 34554
▁सूर 34554
त्तैत् 34551
▁तत्त्व 34547
▁राजेश 34541
▁ऒर 34540
दै 34539
▁आर्व 34536
ृत्त 34533
▁मरुन्त 34533
▁सभॆयल्लि 34529
▁उनले 34525
▁षे 34525
▁आतर 34520
▁1989 34514
▁चित्रानिकि 34512
▁160 34509
▁नेडु 34509
▁पाउडर 34509
▁तॆलिसिन 34508
▁चॆय्यलाम् 34504
्युट 34501
▁140 34498
▁मुन 34494
धिय 34493
▁उक 34492
▁पेचि 34492
▁बेसि 34491
▁India 34482
▁ୱ 34478
▁वयस 34476
▁अंदुवलन 34460
▁پانچ 34451
▁वुंदि 34451
▁चॆय्ततु 34448
▁इन्ट 34445
▁चतवीतम् 34442
▁स्कुले 34442
▁कानूनों 34441
ॆयिन् 34437
▁गरिष्ठ 34437
▁उपराष्ट्रपति 34433
▁ख्रिस्ट 34429
िकॆगॆ 34428
▁ब्यब 34419
▁मुस़कल 34419
▁71 34413
▁कुट्टि 34413
ेरओ 34411
▁प्रकटिंचिंदि 34403
▁तीब्र 34401
ताकुम् 34399
बिन 34397
▁पहिल 34394
▁शै 34391
ऴ्स 34386
▁वधार 34378
▁बॆरॆ 34377
▁موسم 34374
▁चॆय्यु 34372
ate 34370
ाज़ 34362
▁भावनॆ 34352
ाजा 34346
▁चोखे 34344
▁बताई 34343
▁विद्यार्थियों 34340
▁ذمہ 34334
▁चोणां 34321
▁थानाय़ 34315
ंत्र 34311
प्पोक 34304
कोन 34302
▁आकॆय 34299
वाण 34298
▁इदरिंदागि 34298
▁एमिट 34298
▁समजी 34298
▁माडलागुत्तदॆ 34297
-3 34296
▁ओदि 34296
ानाक 34295
▁ویڈیو 34295
▁कबे 34293
▁अस्त 34292
ुकिऩ्ऱ 34288
▁दिलीप 34288
▁अन्नाडु 34286
▁सिद्द 34285
▁तुमचे 34278
▁करूंगा 34276
▁लभिक्क 34276
▁खड़ा 34271
उन 34269
फोर्न 34268
र्फ 34268
गिदॆ 34264
▁वेच 34263
▁ऒटुवि 34258
ळन्नु 34253
ॊट 34247
▁पत्रिक 34247
▁जेट 34241
▁अडग 34240
▁युक्तराष्ट्रे 34240
▁दै 34239
▁व्यायामं 34238
▁यूऱो 34237
▁ब्रिटन् 34230
▁सुरेश 34229
▁नाट्टिल् 34228
▁ڈاکٹر 34227
ुल्ल 34225
▁कम्पनी 34223
्ऱॆ 34222
▁बोलत 34221
▁होटल् 34220
▁कमपक्षे 34218
▁दुध 34218
शाडु 34211
▁अकेले 34211
▁चोक 34211
सिटि 34209
▁رسائی 34204
▁ऒल 34202
ायेली 34200
▁हाले 34199
▁दाय़ी 34197
▁1971 34195
▁मुन्नि 34192
िकै 34188
▁डान 34184
▁अतिकरिक्क 34182
लबात 34180
▁इंटिकि 34180
▁चतवीत 34180
▁नभेम्बर 34180
▁रीस 34180
▁प्रारंभं 34179
▁खरीदि 34173
▁طویل 34167
▁काउन्सिल 34167
ओय़ा 34164
▁वतु 34163
▁सेमानङ्कु 34161
चेय 34157
ंडा 34155
वादि 34153
लार 34152
ुग 34150
▁प्रत्येकंगा 34148
▁अनुभ 34133
▁नोबेल 34133
▁स्टोर् 34127
्टा 34126
▁पर्ब 34125
▁कारणालु 34124
▁पब्लिक् 34124
किन 34122
▁प्रैवेट् 34122
▁म्याच् 34119
▁कार्यकर्त 34115
▁हवी 34111
▁سیاسی 34109
▁व्र 34109
्पो 34100
▁is 34097
▁निरन्तर 34097
▁YouTube 34094
▁कोर्टे 34093
गलु 34092
▁सहजेइ 34092
▁मांड 34091
▁संस्थॆय 34091
▁विधानसभ 34085
लैन 34078
▁ایسی 34078
▁مو 34078
सुद्धा 34077
▁अम्च 34066
▁पॊरुट्कळ् 34062
यात्र 34057
ापि 34057
▁आरोपितों 34057
▁नीळ 34057
▁चिप 34056
▁असणार 34050
▁खरीदने 34050
लन 34049
▁विवेक 34049
▁रामनाथ 34043
▁परिणामकार 34041
▁प्रांतं 34039
▁संदिग्ध 34037
▁पादुकोण 34032
▁जार 34028
▁आंड 34027
▁प्लस 34027
▁लंबाई 34023
ांस 34022
▁10: 34016
▁फ्लो 34014
न्दर 34013
▁न्यायालयाने 34012
▁एऴ 34009
▁अभिवृद्धिपड 34008
▁पायलट 34006
▁जबाबदारी 34003
▁सिफ 34002
क्कप्पटुकिऱतु 34000
▁अतिथ 34000
▁पुट्टिन 34000
▁سالن 33996
ुवन्नु 33990
▁नटन्नु 33987
▁कारकिर्दी 33986
ियाविल् 33984
▁ज़िल्हा 33984
वरन्नु 33982
▁चेसुकुंदि 33980
िछे 33977
▁بچے 33975
▁अनलाइने 33975
▁राज्यांग 33974
▁लोकत्तॆ 33974
मिंग् 33970
▁पलरुं 33970
द्दाळॆ 33969
▁मिथ 33969
▁इटङ्कळिल् 33967
▁वेरे 33967
▁हृ 33967
ापित 33962
तुक 33958
▁देइछन्ति 33957
हास 33956
▁चलबे 33954
▁भरे 33952
▁حقیقت 33951
ॊऩ्ऱ 33950
बोर्ड 33949
▁واقعی 33947
▁निश 33943
▁क्रिस्मस् 33942
▁रक्षणा 33942
▁हजारों 33941
▁शकशे 33940
▁पेर्कॊंदि 33938
▁کمی 33931
स्टार 33930
▁इंथ 33930
▁चित्रपटा 33930
▁दाखलागिदॆ 33927
▁वेऱॆ 33922
ुदु 33915
▁आग्रही 33905
▁घेणे 33903
डैना 33902
▁इरुन्तऩ 33899
▁भिटामिन 33899
▁काल्प 33892
▁تبدیلی 33888
▁माऱ्ऱम् 33888
▁बिरु 33882
▁पेय 33879
▁भलामण 33878
▁पत्तॆ 33877
▁सर्वांना 33876
▁वॆल्लडिंचारु 33874
▁अटिक्कटि 33872
▁तीविर 33865
▁महिने 33862
▁विळक्क 33862
त्तम् 33852
▁तात 33848
▁पाणि 33833
▁नाछिल 33832
▁निष्फळ 33829
ाणे 33825
▁सोंकु 33823
▁कारज 33819
▁समस्यॆगळन्नु 33815
▁علاقے 33810
▁रहित 33808
▁विडिओ 33805
▁तारी 33803
▁अस्पतालों 33801
▁मारि 33800
▁पाहू 33799
▁मल्टी 33799
▁अऱिकु 33797
▁गेंदबाज 33794
▁अमॆजान् 33788
▁आग्रहिक्कुन्न 33787
▁पर्याय़े 33787
id 33784
▁सौन्दर्य 33782
▁आशीर्वाद 33781
▁द्रव 33780
ातार 33778
▁नटप्पा 33776
▁रोगलक्षण 33776
ावुक्कु 33775
▁मेन 33773
▁रिश्ते 33773
थों 33771
▁گزشتہ 33766
▁कमिटिर 33764
▁छबिटि 33761
▁زبان 33760
▁कार्यक्रमों 33757
▁करीशुं 33756
▁बाथ 33754
िगॆ 33750
▁आतार 33750
▁वाऴ्क्क 33743
ांशी 33742
▁लिखी 33740
त्तिक्कुन्न 33738
▁मुक्क 33737
▁पढ़ें 33734
ुपोयि 33732
▁चेस 33732
▁वलय 33726
ऱ्ऱऱ 33725
ुवुम् 33724
▁خبر 33719
ंडे 33710
▁दिलेन 33700
▁अवगाहन 33699
▁य़ 33693
▁छी 33677
▁पक्षरु 33674
▁स्तरे 33674
▁किऴ 33673
ॆल्ला 33670
▁चलो 33670
▁पार्किंग 33659
▁प्रचो 33659
सिदरॆ 33658
▁पङ्का 33657
मात 33654
▁होइन 33652
▁अहेवाल 33646
▁पेय़ेछि 33646
▁छबी 33644
▁घटनाओं 33642
र्गा 33641
▁ऒकसारि 33640
ओय़ार्ड 33625
▁काउ 33624
▁जनन 33622
▁कपड़े 33620
▁विरुम्पि 33619
▁कटवुळ् 33617
▁बँक 33615
▁हुन् 33615
▁तभी 33611
फु 33606
राओ 33603
▁तसं 33603
हरूमा 33600
▁1.2 33599
रिच्चु 33598
▁कैक 33597
▁विवात 33596
▁पॆरुम्पालुम् 33595
▁वेपार 33584
▁धूमपान 33582
हरा 33581
▁अधीक्षक 33581
वलसि 33579
▁श्व 33576
▁गं 33574
▁دیتا 33569
▁87 33567
▁ٿیو 33562
▁प्रक्र 33561
▁नवंब 33557
▁आप्ल 33554
▁हॊरगॆ 33554
▁परिचालित 33553
्कर् 33545
▁नटुडु 33543
▁कोशिका 33542
▁उपयोगिस्तारु 33528
▁चेस्तू 33524
▁गोप 33523
▁कहाणी 33521
▁क्याम्प 33519
▁युबक 33518
▁चल्ल 33516
▁गार 33510
▁रेकोर्ड 33510
्किऱोम् 33508
▁ऎल्लावऱ्ऱ 33505
▁संभाळ 33503
▁حقوق 33497
▁گڏ 33497
ुकळैयुम् 33496
▁अटुत्तु 33494
▁चार्न्त 33491
▁बातिल 33491
▁कवऩम् 33487
गळे 33484
▁बढ़ते 33484
▁येऊ 33484
इस 33481
निट 33481
▁सारिआं 33480
گی 33479
्टन 33477
▁कुटिक्क 33477
▁92 33469
▁पिरच्च 33468
▁गोयल 33467
▁علم 33463
▁एरिक 33456
ज़ी 33454
▁कनत्त 33453
▁बसपा 33451
ासु 33449
▁घणीवार 33448
▁तुर्की 33448
▁पद्म 33447
▁مشہور 33445
ओएस 33442
दुर 33440
▁पङ्कॆटुत्तु 33439
ैयाकुम् 33437
▁चात्तिय 33436
▁तरत 33435
▁त्यार 33434
▁जतॆ 33432
▁इरुक्किऱार् 33430
▁मामलार 33430
▁विक्रम 33428
▁चों 33425
▁तनक 33425
▁गरेका 33422
▁एनादरू 33419
दात 33417
▁वर्त्तक 33416
▁कन्न 33411
▁ग्रंथ 33410
▁करण्या 33408
ट्लुगा 33407
▁ठंडा 33402
खार 33401
▁इरुक्किऱार्कळ् 33401
▁प्रस्तावन 33401
▁انتخاب 33400
▁पूल 33398
ळता 33397
▁स्थळे 33397
▁तट्ट 33394
▁चिंतित 33389
▁चिङ् 33387
▁उद्भव 33383
▁सार्भिस 33383
द्दाग 33380
▁o 33373
▁कनिपिंच 33373
वर्क 33371
▁Read 33370
शू 33367
▁क्यास 33364
▁फुटेज 33363
▁विभाजित 33361
▁अवाज 33359
▁श्रद्धांजलि 33358
▁उदार 33355
▁निन्नाण् 33352
▁अटङ्ङिय 33351
▁हंमेशां 33351
▁पौँछे 33349
▁मेम 33349
▁आर्यन 33347
बेकिदॆ 33341
▁कारा 33337
▁मिल्ल 33337
▁आयुध 33336
▁श्रीमंत 33335
▁अर्ह 33332
▁حمایت 33331
न्डो 33327
▁जानाइ 33327
फाई 33326
▁मुहूर्त 33326
▁साफ़ 33321
▁जितना 33315
▁अनुमतिंच 33306
ैयॆल्लाम् 33300
▁कडक 33299
ाहा 33298
▁थयेल 33298
▁नीरन्नु 33297
ri 33294
▁मरोसारि 33293
▁सेहत 33293
ुवुदक्कॆ 33290
▁सीबी 33287
डत 33286
▁टीमें 33286
▁माडिकॊ 33286
▁कैगॊंड 33283
थन 33281
▁सेय़ा 33278
▁आपशे 33276
▁चढ़ 33275
▁वच्चायि 33275
▁दिसून 33271
▁طاقت 33268
▁आर्थ 33265
▁आईसीसी 33261
▁ڪو 33260
▁सेकर 33259
▁सकाले 33258
▁वाऴ्क्कैयिल् 33248
▁मीटर् 33247
▁सोनम 33246
▁रिपोरट 33243
▁बीजो 33239
▁न्यायिक 33237
▁उतारण 33233
ٹل 33232
▁دوست 33229
▁अमैत 33229
▁चट 33229
▁पोलीसु 33222
▁अऩुपवम् 33220
ामनि 33218
हॆ 33216
▁परमावधि 33216
▁साद 33216
▁सूप्प 33212
▁एष्य 33211
▁मरुत्तुवमऩैयिल् 33206
▁फौ 33202
▁उठाने 33201
▁बिजय़ 33201
▁अतुपोलॆ 33199
▁MP 33195
▁एष 33191
▁ठूलो 33185
▁वटिवमै 33183
▁भेजे 33174
▁इराक 33171
▁चरबी 33171
▁ऒप्पंदं 33170
▁निट्टिनल्लि 33170
▁आवेल 33169
▁विधेय 33168
ैन् 33163
ल्लाम् 33162
▁ऎऩ्ऩवॆ 33156
▁उपदेश 33153
▁विपत्तु 33149
ऩमाक 33144
▁ओटा 33141
ائن 33139
▁تعاون 33136
▁बिळि 33136
▁वळर्च्चि 33133
ियत् 33131
ज्ञान 33130
वरून 33130
▁आस्तिरेल 33128
▁सुध 33128
▁दिवसो 33123
▁बलब 33123
▁रुग्ण 33120
▁विस्तारोमां 33119
आउट 33117
जिन् 33112
▁प्रॊफ 33107
्यान्डेर 33104
▁पोत 33101
▁होट 33101
तिम 33098
्पै 33097
▁असताना 33097
▁निर्वाक 33094
ैयैयुम् 33091
▁ऎञ्च 33091
▁हागु 33091
गळिगिंत 33087
▁बाड़िर 33086
▁तन्नॆय 33084
▁विश्वासं 33084
▁پیار 33077
▁कॊंचॆं 33077
▁ड्रैवर् 33077
▁वाइरस 33072
▁प्रकटिंचारु 33071
▁उलकिल् 33068
ोरो 33062
▁तवऱु 33062
ब्स 33060
▁तेमनो 33057
▁केसॆटुत्त 33054
▁महाराज 33052
ऴ्व 33046
▁बढी 33046
▁आण्टुकळ् 33044
▁ओफर 33043
▁तिवारी 33042
स्टे 33037
▁बाड़छे 33035
▁बळसुव 33030
▁दंत 33016
▁न्यूयॉर्क 33015
▁भागस्वाम 33014
▁ढांचे 33012
तेच 33010
▁फट 33010
▁समाविष्ट 33005
▁कॊण्टाट 32998
▁करतेन 32986
▁वकैयाऩ 32980
▁मातृ 32979
ोजन 32978
▁अमॆरिक्काविल् 32978
▁96 32975
▁इरबहुदु 32975
▁जापानी 32975
▁विचारणॆ 32975
27 32972
▁गडकरी 32972
▁उठते 32971
▁तळ्ळि 32971
▁भूरि 32969
त्री 32966
▁कळॆदुकॊळ्ळ 32961
▁आएगा 32959
▁अपेक्षित 32954
ायल 32950
▁पयिऱ्च 32946
ट्रिक 32943
▁प्रवर्तन 32940
▁कम् 32936
▁ऒत्ति 32934
▁प्रगट 32934
गळिगू 32931
क्कानुं 32917
▁चेहरा 32916
▁वण्ण 32916
▁नडॆसिद 32912
▁चुनावणॆयल्लि 32908
▁یورپ 32906
▁सिनिमाकु 32898
▁فوجی 32887
▁आरोपण 32887
▁राज्यमां 32881
▁चीनेर 32880
▁पीडित 32879
▁पद्ध 32876
▁होण्याची 32874
▁दीर्घकालिक 32870
▁नम्पिक्क 32867
▁विक्क 32865
च्चाण् 32859
▁दलित 32859
▁पासवर्ड 32856
थार 32854
ऱ्ऱड् 32853
▁कालै 32845
▁निर्णायक 32845
ियुव 32843
▁महत्वनुं 32838
▁वरकू 32834
िबलै 32833
▁जॉ 32833
▁उघड 32827
▁निर्बाचने 32822
▁विवचाय 32818
▁पोका 32814
▁नॆऱ्ऱ 32810
▁अपराधी 32804
▁आफगानिस्तान 32801
नेक्का 32799
▁सुक 32798
▁पिऴ 32794
▁वर्षथी 32794
▁उतवुम् 32790
▁ऒन्नां 32789
▁कातल् 32789
▁बंगा 32789
्टर 32788
त्तिन्ऱॆयुं 32786
क्ट्रिक् 32785
▁ऎतिराऩ 32783
▁पुत्त 32781
▁सज 32781
▁कुरित 32780
ास़ 32779
▁कूऱियुळ्ळार् 32778
▁सुनि 32778
क्कॊळ्ळ 32777
▁नेय़ा 32777
▁वश 32771
प्पॊ 32769
लुम् 32769
▁अवलंबून 32769
▁आश्चर्यजनक 32758
▁परीक्षार 32753
▁110 32743
▁देखेछि 32743
▁आंग्ल 32742
▁आगमन 32738
▁ट्रि 32738
▁वॆङ्कायम् 32738
▁فروخت 32737
▁जिल्लॆय 32737
▁मिडिय़ा 32737
▁वयसु 32731
▁काणां 32726
▁नेरवागि 32726
▁ऐरोप्पिय 32725
ङ्ङळुमायि 32724
वक 32721
▁اسلام 32716
▁घाला 32716
▁कुम 32714
▁मनात 32714
▁वीट् 32709
▁व्ही 32708
▁इच्छित 32706
▁पिटिक्कुम् 32703
▁स्वाधीनं 32703
▁विषयदल्लि 32701
▁ताब्यात 32699
▁स़रमा 32694
▁जरिगि 32693
▁देखिबाकु 32687
▁पदवी 32685
▁वेदिक 32684
▁छाय 32683
▁कबिता 32679
▁टॆस्ऱ्ऱ् 32677
▁सुहृत्तुक्क 32676
▁नेरिट 32675
▁पानीय 32675
▁मानेज 32675
▁क्रो 32673
▁मत्तष्टु 32671
▁पटना 32669
▁पोलुळ्ळ 32667
▁हासपाताल 32665
▁समी 32661
ियाळ 32660
▁इप्पटिवरकु 32660
क्कुऱिच्चुळ्ळ 32659
्युम 32658
▁चिलर् 32657
▁वेण्टियतु 32657
▁प्रचलित 32656
▁मॆगापिक्स 32654
▁इदक्कागि 32653
▁आंख 32648
▁इवॆल्ल 32647
▁गिरफ 32645
ंटू 32643
▁सोज 32643
▁ट्व 32639
▁वाहनं 32636
▁कुडिय 32634
▁ऎन्नुव 32632
▁मुकेश 32626
▁एराळमाऩ 32624
▁पात्रलो 32615
▁शुक्रबार 32615
▁फ़िल्म 32614
▁उळ्ळार् 32612
▁बय़सी 32612
▁रहिब 32612
▁बांला 32610
▁مستقبل 32608
खरे 32597
० 32594
विट्टतु 32589
▁तीसरी 32586
▁महिसूस 32585
▁جمع 32583
▁बचाने 32574
समध्ये 32573
▁हासान 32573
ातेइ 32569
वाले 32567
▁चिरि 32567
च्छेन 32564
▁कायद 32563
▁काह 32562
▁एक्शन 32561
▁नगदु 32560
▁पण्ण 32560
▁कैकार्यं 32559
▁सिनिमक 32553
ुदल 32552
▁लगते 32550
▁सुहृत्त 32549
▁सिरीस् 32548
▁करुण 32546
▁पिन्नि 32546
▁दर्जा 32544
▁निऱुवऩङ्कळ् 32544
▁تعلقات 32540
▁अँ 32533
▁اقوام 32531
ंभ 32526
क्कॊरु 32524
▁ऒलि 32519
ٽ 32518
▁टैसट 32518
▁नवंबर 32513
▁खुसि 32504
एसपी 32503
▁مقامی 32501
▁ऎतिर्प्पु 32500
▁ऋतु 32498
▁हण्णु 32496
▁जेलार 32493
▁अञ्चले 32491
▁निर्माणं 32490
▁तेवुं 32485
▁अऱिवियल् 32484
▁अत्यारे 32478
▁अरचाङ्कम् 32477
▁دار 32475
▁लभिक्कुन्न 32474
▁मिग 32471
ियिलेक्क् 32466
▁दिनक्कॆ 32463
▁कामगार 32460
▁संख्यलो 32459
▁ऎटुत्तुक् 32457
▁तक्क 32453
▁बिजय़ी 32452
वरा 32450
▁कशुं 32441
ाट्च 32438
▁येकोनो 32438
▁टैक्स 32436
▁राजीव् 32433
▁कळॆदुकॊंड 32432
▁किं 32431
▁ऱा 32431
▁سرکاری 32430
▁व्याध 32430
▁तूर 32426
▁माझ्यासाठी 32424
ळविल् 32421
▁अवुगळु 32421
▁सुज 32420
▁स्बाधीन 32418
▁सालां 32413
▁स्र 32409
▁साई 32407
▁मेनेज 32406
िलेक्कु 32404
▁ऎल्लोरुम् 32402
▁चूकवणी 32401
▁प्रेमी 32400
▁कार्यक्रमंलो 32397
▁आपडेट 32396
▁पाकिस्तान् 32396
▁गतागत 32394
▁पुनराय़ 32392
▁सरकारों 32386
▁انسان 32385
▁ناہی 32382
▁वेगवेगळ्या 32382
▁तुण 32377
▁बच्च 32377
▁स्वागतं 32377
▁अरथ 32376
क्षमत 32370
वॊ 32370
▁यूएस 32370
▁नाण 32369
▁मृग 32364
गुलोते 32361
विद्य 32357
▁खू 32352
▁उपक्रम 32349
▁गाज 32347
▁جلد 32344
▁यूनियन् 32343
ुन्नतिनुं 32334
ाय़न 32333
▁मट्टद 32328
▁हसिरु 32326
शार 32323
▁कमा 32323
▁मरिन्नि 32320
▁दुई 32317
▁देशर 32317
▁मिकुन्त 32316
▁कलिय 32315
▁वारम् 32315
▁भावनात्मक 32312
▁अटल 32311
▁फलितालु 32307
▁ऎर 32301
दारर 32298
▁आरंभिच्चु 32298
▁तीसरा 32289
▁नहे 32280
▁मुकळि 32280
▁यावाग 32276
▁न्ऱॆ 32274
▁लहर 32273
▁सौकर 32272
▁इवरुटॆ 32268
▁काणिसिकॊंड 32264
▁जवळपास 32262
▁सुइ 32262
हॊ 32255
▁ऎंपी 32247
▁भेटी 32247
लेन्ड 32243
नेत 32242
न्डे 32242
▁لگتا 32239
▁बिष 32239
▁जीवंत 32238
▁چاہتا 32230
▁कर्तृपक्ष 32229
▁मध्यस्थ 32227
▁करण्याचे 32218
▁پہلا 32217
▁पहुँच 32217
▁उट्पट 32216
▁मुऱैयाक 32215
ॉय 32213
▁ऎल्लो 32213
▁कारणङ्ङ 32210
▁रेफ 32201
▁एनि 32199
▁ब्यूरो 32193
▁अन्यदेर 32184
▁ٹیکنالوجی 32183
▁ध्येय 32183
धिच्चु 32181
▁बाबार 32180
▁वर्षमां 32179
▁ग्रेट 32169
▁ऎऴुत्त 32167
▁वेचि 32167
लेइ 32162
▁सन्धान 32161
▁वधे 32156
▁पडॆदुकॊळ्ळ 32153
▁राविलॆ 32153
▁स़ामिल 32151
▁بینک 32149
▁फळरे 32141
्टर् 32138
▁सकेंगे 32138
▁कस़मीर 32137
मिच्च 32135
▁चॆलवु 32134
वरिऩ् 32133
िंचनुन्नारु 32131
▁कण् 32130
▁चिकिच्च 32128
ॊरुळ् 32125
▁लोड् 32122
ुकुनि 32119
▁ब्रिटन 32119
▁सचेतन 32118
▁ढंग 32116
▁सरिग्गा 32103
▁रूपं 32099
त्रा 32098
▁रुख 32097
▁سمیت 32094
▁पुष्प 32092
▁नुक 32089
▁कइ 32085
▁फर्क 32083
▁प्रवेशि 32082
▁कथाइ 32081
▁पंचायत 32079
▁पिन्नालॆ 32078
▁कुं 32075
▁तिरि 32075
क्किल्ल 32074
▁मक्कळुक्कु 32071
▁उल्ल 32069
लेस 32068
ुक्के 32049
▁संभावित 32047
▁इनका 32046
▁परिस 32046
▁تعلق 32044
▁सर्किट 32042
आईसी 32032
▁अपारे 32032
▁उपाध्याय 32032
▁आइनेर 32027
▁अस्बीकार 32024
▁केसमां 32019
ियाई 32018
ा् 32013
▁क्वा 32013
▁परिणामो 32010
प्रति 32009
ॆक्ट् 32009
▁भालोबासा 32009
गुव 32005
▁छू 32005
▁लसिकॆ 32004
▁इसने 32003
▁ग्रामीणों 32002
▁अस्थिर 31994
▁उपल 31992
▁किटैत्त 31990
▁आस्वदि 31982
दष्टु 31981
▁ध्रुव 31980
▁गूगुल् 31976
▁मैडीकल 31975
▁बिनां 31971
च्छिल 31969
▁डिस्ट 31964
▁तेवैयिल्लै 31963
स्सु 31958
▁अऱिञ्ञ 31957
▁50,000 31955
▁रमेश 31954
ातीर्कळ् 31953
▁निरोधक 31951
क्किन् 31950
▁पार्त्तु 31946
▁इन्स्टाग्राम 31936
▁मिळाले 31933
▁स्त्रीओ 31931
▁وئی 31930
▁निऱञ्ञ 31926
▁नवीनतम 31924
▁स्फोट 31921
▁चमच 31920
▁ف 31918
▁कष्टकर 31918
▁चप 31918
▁गूगल् 31917
▁तकवल 31917
▁कैपटन 31913
▁किलोग्राम 31909
▁पारुङ्कळ् 31909
ियुत 31906
▁बाई 31906
▁बुधवार 31905
शत 31903
▁तेमनुं 31901
▁मलाई 31897
▁तॆगॆदुहाक 31896
▁पयऩ्पटुत्ति 31881
▁कायिलॆ 31880
▁अकाली 31875
▁पॊतुवाऩ 31874
▁قریب 31872
नाई 31870
▁थोडुं 31867
▁परिहर 31864
▁स्थळदल्लि 31863
▁परिणामे 31862
स्ल 31860
▁बदलावण 31860
▁स्नायु 31859
▁आल्क 31857
रेशन 31855
ुमॆन्न 31855
▁माट्ला 31854
▁दाओ 31853
▁केसुलो 31852
▁माथाय़ 31850
▁नडॆयितु 31841
▁बीते 31840
▁येतात 31840
▁डिज़ाइन 31834
क्कल 31833
▁देबेन 31831
ऩ्पटि 31823
▁पट्टु 31819
▁इनपुट 31817
▁سامنے 31813
▁नबी 31813
▁विजेत 31805
शाली 31804
▁آئے 31804
▁इंदिरा 31801
▁शनिवार 31801
▁बिपद 31800
पालु 31798
▁हॊंदिद्दारॆ 31796
▁अतिपर् 31790
▁कामगिरी 31790
▁सोस़ल 31790
▁विमानं 31789
ऴ्च 31788
ॆय्य 31786
▁क्याप 31786
▁مار 31785
▁ऊंची 31784
▁सुदीर्घ 31781
▁खेते 31778
▁म्यान 31778
▁उमीद 31767
▁सक्छ 31765
ुकॊण्टु 31763
▁चऱ्ऱु 31761
▁جڏہن 31760
▁लोट 31759
▁आये 31758
▁चांगल्या 31752
▁इन्नि 31750
▁अवऩै 31749
▁सेंट 31747
▁कॊऱोण 31740
▁अभिज्ञ 31737
प्पं 31735
▁उरिम 31735
▁बार्ता 31733
▁विपण 31731
▁कुटिय 31728
▁हाय़ 31727
▁अनुभवि 31725
▁फिल्में 31725
▁याशिवाय 31723
PA 31722
त्सव 31722
▁कोश 31720
▁उळ्ळत् 31719
▁मास्ट 31719
▁टॆस् 31718
▁वॆळ्लि 31718
ियस् 31717
ऱतु 31712
▁ग्रू 31712
▁प्रतिबंधित 31710
▁गणेश 31708
क्ट्र 31706
▁एकथा 31703
▁दाडि 31702
▁अत्भुत 31694
▁पोक्कुवरत्तु 31694
▁जुल 31692
▁अजित 31691
▁आहेस 31689
▁रैतर 31687
▁तबुओ 31685
व्ही 31684
▁एदि 31683
▁नीकु 31682
धारी 31675
▁ओट्टो 31673
▁79 31672
▁राजी 31670
ऱिलॆ 31669
ुविऩ् 31669
▁عورت 31663
▁केटे 31661
धत 31660
▁संहिता 31659
फट 31656
▁संश्लिष्ट 31655
▁सैम 31651
▁फां 31647
▁कूर्च 31642
ङ्ङुन्न 31640
▁89 31640
▁सोनी 31639
ठो 31637
▁नयी 31636
▁सुह 31634
▁ت 31632
▁मुंब 31630
▁सेवलु 31629
ालक 31627
▁कम्यू 31626
बाई 31624
▁इवरि 31620
▁कनॆ 31620
▁मकऩ् 31619
▁स्पेशल 31618
▁पदि 31616
▁खाद्य़ 31612
▁अमॆरिकद 31608
▁बीर 31608
▁सोमबार 31608
▁हजारो 31606
ٹا 31602
▁झाल्या 31599
▁बिआन 31599
▁आकि 31584
35 31583
▁दोबारा 31583
ॉट 31582
▁काड 31581
▁ढेर 31579
▁थती 31577
▁शुष्क 31575
▁कॊरत 31567
▁रवाणा 31567
▁انتہائی 31563
ादा 31557
िलय 31557
▁मेरो 31557
ताः 31554
▁कोभिड 31553
टॆयुं 31552
▁हड 31547
▁ہاں 31534
रिक्कुन्नत् 31530
▁बर्याच 31529
▁ऊंचाई 31524
▁नव्हे 31523
▁संतान 31520
▁ऎप्प 31518
▁संभविच्च 31517
▁نیو 31510
▁इङ्क 31506
ाय़ी 31502
खाली 31501
▁गुर्तिंपु 31501
▁गोळ 31499
िसं 31497
▁पारंपरिक 31494
▁कोटतियि 31491
▁जरिगे 31489
▁गंटॆगळ 31485
▁वलै 31479
▁कूडिन 31476
▁जायेगा 31473
▁फ़िलम 31469
▁मकिऴ्च्चि 31469
▁साची 31461
▁खाल 31457
▁मिलिय़े 31456
▁निय़ेछे 31455
▁अखेर 31452
▁हॆसरन्नु 31452
▁बताव 31448
▁नेमे 31447
ागुत्तिदॆ 31446
▁एहापरे 31445
▁چاہیے 31443
क्कुन्नतिन् 31439
ायिड् 31436
▁जाणदे 31436
▁हिन्दि 31434
▁अब्ब 31429
▁फ्रेंच 31429
▁बीरु 31429
▁अमीर 31428
▁पेड़ 31426
ळाण् 31425
▁याबेन 31421
रन 31418
▁ब्यथा 31416
▁जज 31415
اری 31411
▁रॆड् 31409
▁£ 31406
▁चां 31405
▁लगती 31403
▁वसति 31399
▁ऎरडनॆय 31396
▁राणुव 31396
ुत्तले 31395
▁उथे 31392
मॆन्न् 31391
▁परिष्कारं 31388
▁इस्राय 31386
▁कलॆ 31386
▁कहेवाय 31386
ट्टिंग् 31384
ष्ण 31382
▁नटिकर् 31381
▁परिबर्त्तन 31379
▁आपुनि 31378
▁शख्स 31378
▁वेष 31377
,500 31376
▁توانائی 31376
▁संयोज 31374
▁सथित 31373
▁रहेवा 31368
चिंदि 31367
▁पास् 31366
ियैप् 31364
▁वरॆगॆ 31360
▁स्वय 31360
▁संविधायक 31353
▁प्रयत्निसि 31350
▁मश 31347
▁ताक्क 31338
▁अनुयोज्य 31337
▁पबित्र 31337
▁कॆलवरु 31336
▁रक्तं 31333
न्ते 31332
▁شمالی 31330
क्काल 31325
▁करेइ 31325
▁संशोधनॆ 31325
▁भित्तिते 31323
▁करन्ति 31322
▁दादा 31315
▁बोला 31313
▁वीटिनि 31308
त्प 31307
▁बघ 31305
▁जॆय 31302
ुम्प 31300
रॆय 31298
▁माऱ्ऱङ्ङ 31298
▁दाद 31295
▁तुमचा 31282
▁अभिव्यक्ति 31279
तेर 31278
▁ऒप्पन्त 31277
▁سوچ 31275
▁अव्वाऱु 31272
▁معلوم 31263
▁संवेदना 31263
▁नटक्कुन्नत् 31262
तीने 31260
▁संभाव्य 31258
▁ऎप्पो 31256
चनॆ 31255
▁नॆट्वर् 31255
▁खाओय़ा 31249
ق 31247
▁अर्जुन् 31242
▁आमदार 31240
तिल्ल 31239
▁कॉफी 31239
ालने 31238
▁तेमांथी 31235
▁حد 31234
▁शिक्षार्थी 31228
ियात 31223
▁फिटनेस 31223
▁अवसानं 31220
▁निचेर 31218
▁असुस्थ 31216
▁अयोध्या 31210
▁मंत्रित्व 31210
थम 31209
▁चुर 31209
29 31199
नास 31198
▁कनसु 31196
▁प्रमु 31195
▁इवे 31194
▁नॆरुक्क 31191
▁आर्य 31183
स्तोंदि 31182
▁खेलों 31182
▁जुड़ा 31182
पडे 31180
▁کردیا 31180
▁टॆस्ट 31178
▁व्याख्या 31178
▁بر 31176
▁اسرائیل 31175
▁फिलिप 31175
वाइ 31174
टक्कं 31173
भूम 31169
▁कऱि 31168
फेर 31166
▁असमर्थ 31166
▁गण्य 31159
▁रसी 31158
विरुत्तदॆ 31156
ंदरॆ 31146
ुकॊनि 31146
▁ऋ 31146
▁परु 31145
▁एकीकृत 31144
ऴै 31141
▁क्षेत्रात 31138
▁رو 31136
▁شکریہ 31135
▁मांगे 31130
▁मय 31126
ऱ्ऱीव् 31125
▁सैन्स् 31125
▁कण्टुपिटि 31121
▁होइछन्ति 31116
य़ेड 31115
▁बल्लेबाजी 31114
माकक् 31110
साल 31108
▁संदर्भंलो 31108
یر 31101
▁तकलीफ 31101
▁कसोटी 31100
▁आजकेर 31098
▁कौतुक 31098
▁अजीब 31094
▁مت 31093
म्मॆ 31092
▁داخل 31092
्प् 31090
▁इंटर्न 31090
▁बिप 31087
▁शुरुआती 31086
टिसारि 31085
ئے 31084
▁कुलदीप 31084
▁آزادی 31082
▁देरी 31080
▁ऑफ़ 31076
▁संभवित 31073
▁संभाल 31072
▁बढ़ोतरी 31071
▁गाछ 31067
▁यहीं 31066
▁नेर्म 31064
▁कनेक्ट 31055
▁पाठक 31053
▁फोट्ट 31052
▁लभि 31051
▁राष्ट्रं 31050
▁जवाबदार 31049
▁मुकळ 31049
▁संवाददाता 31049
▁सैनिकों 31049
▁क्यान 31043
▁अनुराग 31041
▁वाऩ 31039
ुकळॆ 31036
ड्डि 31034
▁प्रत 31031
लेदनि 31021
▁अटुवंटि 31017
▁आईडी 31017
क्टरी 31015
▁उपकर 31007
▁ज़्यादा 31007
▁लागतो 31006
▁ताजेतरमां 31001
▁कोम्प 30995
क्टी 30994
▁क्याम 30991
▁प्रपंचं 30991
लेल्या 30988
न्नागि 30985
▁शोषण 30982
▁जेन 30981
▁नेरॆ 30981
▁मार्चि 30981
▁आदालते 30976
शीलता 30973
िश 30971
▁निच्चयम् 30971
▁आकस्मिक 30970
▁उपजेला 30969
▁अपलोड 30968
निं 30967
▁चित 30964
▁योजनाओं 30962
▁व्यवस्थापन 30956
▁यातरा 30954
▁येटा 30954
णिक्क 30947
▁کردار 30947
▁कान्ति 30947
▁स्वच्छता 30947
ऩ्मै 30946
▁पडॆदुकॊंड 30946
प्पाटु 30943
बेकागिदॆ 30943
बाग 30940
▁हॉस्पिटल 30935
▁हाइकोर्ट 30934
▁आबु 30929
कारे 30925
[...]
