eng_Latn 229457033
▁. 190458814
▁the 121344927
▁, 94025709
▁of 64342369
▁to 57885882
▁and 53258647
▁in 46558742
▁" 44145438
▁is 43244630
▁a 42833435
hin_Deva 38677537
▁' 38178394
ben_Beng 32686674
▁The 24403796
mal_Mlym 23346923
kan_Knda 23248287
tel_Telu 23195604
▁for 21723840
s 21437852
▁I 21359191
▁it 20961670
▁that 20791190
tam_Taml 20617759
guj_Gujr 20473198
mar_Deva 18880507
▁are 18869546
▁you 17640714
▁be 16977446
▁was 16587872
▁on 16049964
▁? 15560932
▁this 15266947
▁have 13903064
▁But 13832285
▁not 13451909
▁with 13308979
▁has 13094808
▁will 12420710
- 12409276
▁And 11672736
t 11138304
pan_Guru 9800609
▁as 9540524
▁at 9235525
▁by 9233362
▁from 8946141
▁can 8638755
▁) 8128476
▁( 7979400
▁also 7765618
▁A 7743265
▁: 7720263
▁been 7710557
▁It 7639386
▁he 7229583
▁all 7115430
▁an 7032678
▁He 6982896
▁your 6781856
▁or 6709956
▁said 6583711
▁were 6501499
▁This 6158061
urd_Arab 6153059
ory_Orya 5814820
▁do 5797358
▁we 5754196
▁India 5723682
▁his 5646246
▁! 5524236
▁one 5409585
▁there 5238049
▁they 5203790
▁time 5092824
▁</dnt> 5075540
▁<dnt> 5075540
▁about 4981168
▁people 4824984
▁had 4811481
▁what 4614077
. 4557929
▁their 4449806
▁All 4432451
▁them 4339853
▁We 4311337
▁more 4151867
▁very 4110907
▁In 4031206
▁no 4018397
▁which 3786935
▁other 3760496
▁There 3738685
▁first 3653828
▁so 3615056
▁two 3519788
▁You 3509085
▁my 3415579
▁me 3358028
▁- 3293784
▁but 3286519
▁who 3243829
▁out 3218255
▁her 3187099
▁know 3165026
▁Minister 3091802
▁any 3074361
▁police 3049441
▁up 3019692
▁don 3006541
▁should 2842150
▁They 2814206
▁What 2804178
▁its 2801233
▁new 2800730
▁like 2774083
▁these 2727266
▁government 2722607
▁him 2716742
▁our 2668584
▁only 2663355
▁over 2626116
▁how 2624283
▁need 2612064
▁good 2564833
▁here 2560521
▁than 2546569
▁day 2544366
▁some 2540858
▁after 2515010
m 2509546
▁then 2492139
▁would 2463888
▁many 2449903
▁get 2439060
▁case 2435824
▁well 2430648
ing 2430057
▁work 2429631
▁just 2384924
▁world 2356317
▁if 2343863
▁into 2339655
▁film 2303819
▁life 2282283
▁Indian 2224836
▁So 2204931
▁against 2152983
snd_Arab 2128391
▁most 2112556
▁such 2097041
▁did 2094110
▁Are 2071348
▁country 2068991
▁years 2064979
▁At 2056253
▁want 2048526
▁water 2000461
▁As 1967413
▁she 1961843
re 1958891
▁... 1952842
▁take 1932706
▁when 1932529
▁BJP 1922325
▁state 1919843
▁made 1916491
▁too 1913411
▁She 1907879
▁being 1888565
▁going 1880955
▁If 1853615
▁am 1849025
▁us 1844107
ed 1825242
▁After 1821169
▁three 1815211
▁make 1810335
▁much 1798710
▁same 1783517
▁use 1751534
▁Singh 1750461
▁really 1719272
▁different 1711979
▁see 1690020
▁between 1674232
npi_Deva 1656939
▁important 1653587
▁That 1650882
▁way 1646282
▁Congress 1645691
▁year 1644280
▁under 1624867
▁go 1624317
▁Police 1616587
▁number 1594551
▁family 1566156
▁lot 1562209
▁could 1558255
▁; 1538375
▁1 1538028
▁place 1534307
▁help 1527668
▁However 1512039
▁Modi 1503096
▁think 1501934
▁used 1498031
▁children 1497539
▁2 1493984
▁does 1491816
▁right 1476777
▁home 1469506
▁Delhi 1468816
▁per 1452435
▁never 1432580
▁Rs 1427362
▁love 1416724
asm_Beng 1414644
▁must 1403932
▁back 1397723
▁come 1389112
▁information 1386092
▁didn 1380889
▁days 1374320
▁How 1372630
▁before 1369313
▁where 1363643
▁last 1356065
▁during 1353194
▁Prime 1353098
▁part 1352184
▁still 1351418
▁taken 1347843
▁both 1339234
▁few 1332462
▁Both 1324431
ve 1320031
▁through 1319587
▁long 1314498
▁B 1312450
▁even 1311879
▁10 1309432
▁may 1308784
▁every 1307023
▁great 1306172
er 1304251
▁those 1300623
▁Add 1283378
▁/ 1282273
▁body 1281564
▁say 1265978
▁No 1255873
▁now 1253228
▁women 1252835
▁things 1246070
▁S 1245004
▁incident 1238947
▁each 1223520
a 1223088
▁3 1221207
th 1209459
▁why 1190491
▁New 1190290
▁best 1189690
▁health 1189458
in 1186551
▁always 1181402
▁For 1178300
▁social 1163702
▁An 1162974
▁done 1146239
▁while 1136278
▁yet 1132859
▁ 1130803
al 1126037
▁won 1125904
▁available 1125397
▁name 1123449
▁5 1113655
ll 1112041
▁D 1109696
▁P 1108420
▁Pakistan 1102414
▁God 1100819
▁Chief 1093490
▁again 1092759
ly 1085212
▁high 1082076
▁Also 1076829
▁media 1057729
▁President 1051188
▁got 1047365
▁next 1043516
es 1037715
▁second 1030081
▁present 1024631
y 1016196
▁because 1013092
▁thing 1011121
▁problem 1002563
▁Because 997666
i 995861
▁started 993294
▁hospital 992402
▁4 991974
▁another 990638
▁team 983605
▁video 981986
▁C 981247
▁K 980695
▁party 978443
▁accused 977347
▁including 973948
▁T 973645
▁own 973352
▁several 971640
▁man 967612
▁person 967401
▁around 964304
▁change 962941
▁took 962549
▁students 961824
▁business 952919
▁look 952674
S 949315
▁died 945477
h 940938
▁down 939423
▁Do 939366
▁arrested 936022
▁given 933360
▁company 930366
an 930176
▁money 929911
▁something 926846
▁On 926831
▁four 925237
ers 921731
▁found 918898
▁end 911709
▁US 906640
▁find 906487
▁others 905473
▁system 904388
▁His 903839
▁N 902866
▁Khan 880219
▁Why 878164
▁city 877755
▁meeting 876955
▁called 867861
▁times 862665
▁give 860141
▁seen 854574
▁free 851475
▁injured 851457
▁house 851073
▁easy 850678
▁My 845733
▁later 845037
▁doesn 844486
ar 840759
▁possible 838257
▁registered 837842
▁today 837333
o 836485
▁State 836334
▁movie 832652
▁United 831863
▁countries 831093
▁small 829665
▁area 828459
▁question 827072
▁World 826109
▁least 825302
▁death 824812
▁food 824283
▁matter 824164
▁Narendra 822548
▁situation 822139
▁already 819006
▁L 818416
▁court 817786
▁set 816670
▁child 816609
▁20 815358
▁minister 814217
▁better 813881
▁happened 813384
▁far 813192
▁came 812914
▁since 812093
▁Gandhi 811698
: 809517
▁cases 807681
▁anything 804797
▁These 804447
▁soon 804305
▁Any 804202
▁doing 802867
▁National 801652
▁China 800700
▁& 799715
▁working 796656
▁Be 795136
▁off 794001
▁G 793949
▁power 788929
▁due 787085
▁F 783865
▁When 782703
▁process 780653
d 779684
▁According 779671
▁woman 777062
able 774972
▁decision 773755
▁without 772663
▁members 771142
▁start 771092
▁killed 770666
▁post 769702
▁known 769076
▁car 766640
▁following 764990
▁U 764342
▁five 762298
▁One 759342
▁district 758294
▁become 756120
▁asked 755197
▁Pradesh 755038
▁went 752070
▁isn 751220
▁mother 750525
e 748734
▁together 747684
am 747294
▁father 745876
▁Mumbai 745162
▁support 745090
▁Government 744363
▁school 742365
▁held 741569
▁special 740030
▁% 738345
▁s 737368
▁example 735724
▁M 734843
▁order 733934
▁6 732923
ate 732628
▁result 729537
▁15 728538
▁Court 727046
▁various 721206
n 715771
▁$ 715296
▁8 713192
▁age 712682
▁chief 712560
▁understand 711166
▁story 710950
▁Don 708849
▁away 708012
▁nothing 707812
▁States 705550
▁issue 705179
▁big 704695
▁large 704159
▁among 701867
▁little 701670
▁everything 700787
▁R 699008
as 695244
▁Kumar 695143
▁cannot 692887
▁role 689821
▁data 689556
▁development 689194
▁spot 689074
▁live 688793
▁true 687558
D 686869
▁12 686583
▁To 680603
▁president 679874
u 679749
▁action 679029
▁public 678923
▁problems 677851
▁treatment 677015
▁play 674685
▁happy 674128
▁phone 673724
▁sure 673553
▁son 672657
▁c 670332
▁able 668094
ation 666231
▁questions 662756
▁wife 655875
▁hard 655821
p 655709
▁i 655538
▁point 653207
▁experience 653015
▁Union 652183
▁V 651311
▁service 650463
▁happen 649351
▁says 648618
▁game 646072
ic 644482
▁former 643744
▁7 643660
▁million 643086
▁30 643008
▁months 642481
▁online 641882
▁might 641824
▁friends 641018
▁PM 640464
▁services 638278
▁told 637169
▁H 633405
▁Many 632184
▁J 631772
▁night 630900
at 630573
▁face 629664
▁across 627731
▁list 627530
en 626449
▁Then 625698
▁Is 625583
▁currently 625496
▁answer 624453
▁book 620201
▁everyone 620139
b 618747
▁men 618016
▁wasn 617163
▁needs 616988
▁form 616128
▁news 614616
▁keep 614412
▁read 613546
▁law 613245
▁third 612100
▁using 612098
▁old 611983
▁further 610963
▁necessary 609602
▁believe 608134
is 608074
▁People 607998
▁future 607980
▁market 607841
▁products 607685
▁p 607265
▁crore 606226
▁leader 606035
▁tell 605502
▁security 605053
▁Some 602273
▁reason 597687
▁price 597082
▁real 595800
▁main 595234
▁Now 595098
▁history 594135
▁heart 594042
▁week 591278
▁political 591223
▁South 591062
▁left 589571
▁means 588869
▁cent 588041
▁human 587739
▁investigation 587572
▁report 586185
▁quite 585931
▁sent 585541
▁course 585099
▁100 585026
▁include 584967
▁within 584735
▁official 584517
or 583159
▁often 582381
▁Who 580363
▁t 579557
▁fire 578533
▁job 577177
▁top 576813
▁open 575561
▁actually 574676
▁lakh 574621
c 573647
▁[ 571769
▁announced 571192
▁] 570259
▁states 569114
▁website 568593
ur 568003
▁event 566033
▁oil 565596
▁let 564280
▁disease 563020
▁until 562512
▁total 556667
▁along 555600
▁E 555390
▁Bank 554297
ah 554189
▁however 553716
▁care 553389
▁national 552390
▁released 551236
▁shall 550970
▁Shah 550427
▁added 549423
▁50 549076
▁month 548936
B 548842
▁simple 547755
▁f 546912
on 546853
▁kind 546686
▁provide 545433
▁blood 545373
▁farmers 545324
▁feel 545089
▁ever 544890
▁put 543954
▁difficult 541813
▁W 541286
▁Could 541121
▁leaders 540920
▁control 539234
▁account 539033
ated 536430
▁girl 535974
it 534719
▁mind 534147
▁ready 534096
▁thought 533387
▁d 532996
M 532061
▁show 531844
▁comes 531563
▁based 529940
▁education 529521
▁areas 529472
▁level 527408
▁increase 526570
▁try 526452
▁group 526174
▁cost 524353
▁major 523652
ant 523584
ad 523273
▁parents 520511
▁University 520000
▁getting 519815
▁attack 518245
▁making 517429
▁enough 516998
▁common 515205
▁hand 514505
▁Rahul 514186
▁full 514137
▁whole 514038
▁11 513665
▁music 513593
▁looking 513474
l 513154
▁lost 511451
▁project 509763
▁local 509337
▁coming 508598
▁English 504775
▁required 504636
▁Kashmir 504158
G 504147
ia 504072
▁lead 502742
▁reported 502386
▁room 500472
▁lives 500145
▁Punjab 499997
▁Here 499024
▁talk 497523
▁period 497055
▁Tamil 495530
▁provided 495180
▁air 494122
▁international 493970
▁past 493306
▁received 493101
▁b 492693
▁actor 491615
▁became 490912
▁results 489781
▁once 489595
▁head 489089
▁Bollywood 487970
I 487530
▁series 486766
▁percent 486716
▁taking 485770
▁quality 485677
▁14 485263
▁elections 484678
▁personal 483315
▁Let 483185
ies 482819
▁pay 482769
▁medical 482716
▁wrong 482620
el 482351
▁win 482340
▁cause 482176
▁side 481658
▁beautiful 480878
▁l 479811
▁18 479560
▁Day 479411
il 478655
▁Kapoor 478440
▁9 478210
▁continue 476602
▁Dr 474890
▁changed 473967
% 473457
▁else 472521
▁officials 470430
▁Maharashtra 470130
▁visit 468810
▁daughter 468415
▁e 465326
▁less 464410
▁fact 463148
▁played 462964
▁works 461451
▁m 461308
▁plan 460837
▁Ministry 460034
2 459841
▁16 459713
▁moment 459357
k 459347
▁filed 458943
▁having 458826
▁needed 458027
▁West 457359
▁doctor 457008
▁road 456653
▁condition 456556
▁25 456221
▁Two 455587
▁language 455431
▁persons 455327
▁land 455150
T 453607
▁either 452630
▁popular 451159
g 451104
▁issues 451034
P 450664
▁complaint 450559
▁largest 450533
▁test 450454
▁regard 449996
▁statement 449287
▁Act 449072
▁Av 447562
▁hours 447176
▁private 446350
▁began 445205
▁Sharma 445071
▁study 444760
▁American 444334
▁Health 444161
et 443977
le 443943
▁light 443422
▁Your 441825
▁un 441629
▁With 441267
▁O 440783
▁young 440246
▁learn 439897
▁bad 439200
us 438945
▁six 438527
▁site 437557
▁reached 436545
▁launched 436184
▁Ram 435660
▁High 435304
▁clear 434761
▁industry 434099
▁Our 434032
▁date 433864
▁expected 432709
st 432052
ating 431208
ot 430887
▁Not 430783
▁research 429464
▁Shri 429259
▁election 428624
▁occasion 428419
▁Australia 427816
▁entire 426706
▁office 426691
ul 426090
▁Al 425961
▁decided 425733
os 425269
▁yourself 424989
▁24 424760
▁shared 424352
ra 424172
▁amount 424158
▁healthy 423984
ity 423194
▁International 422489
L 422089
▁Sabha 421580
▁trying 420781
ak 420560
▁13 420356
▁Another 420345
▁Trump 418760
▁married 418189
▁written 417859
▁dead 417530
▁accident 416258
▁g 414943
▁general 414630
▁recently 413794
C 413048
ness 412913
▁energy 412766
▁though 412556
▁huge 411466
▁seats 410614
▁connection 410520
▁eyes 410478
▁technology 409542
▁stop 409045
▁living 407596
▁hope 407457
▁immediately 406454
▁anyone 406386
▁Lord 406187
▁low 405445
▁parts 405397
▁station 405047
est 404919
▁war 404766
▁17 404525
▁changes 404473
▁details 403836
▁rate 403078
▁saying 402854
ist 402847
▁films 402110
▁husband 402022
f 401950
▁words 401366
▁2020 401214
▁below 400462
▁ways 400054
▁call 399509
▁match 397889
▁product 397196
▁prices 396896
▁General 396878
▁close 396385
v 396017
▁wanted 395596
▁likely 394580
▁truth 394270
▁features 393904
▁card 392112
▁single 391639
▁short 391150
▁stay 390248
▁reasons 390209
ive 390096
▁success 389918
ful 389870
▁Most 389693
▁app 389381
▁couldn 388921
▁strong 388698
▁worked 388619
▁Party 388514
▁issued 388244
▁relationship 387767
▁financial 387741
R 387009
▁final 386929
mni_Beng 386916
▁Gujarat 385616
A 385167
id 383992
▁Facebook 383968
1 383795
3 383492
▁risk 382751
▁serious 382475
▁computer 382369
▁ago 381818
▁companies 381786
▁building 381529
▁n 381489
▁production 380579
▁application 380307
▁completely 380224
4 380001
▁meet 379781
▁born 377961
▁Bangladesh 376785
▁Bengal 376135
▁Am 374948
▁skin 374588
▁places 374415
▁workers 374280
▁run 374041
▁rest 373710
▁Kerala 372212
ment 372203
▁First 370693
▁create 370269
▁pain 370191
▁non 370108
▁mean 370100
▁remember 369270
O 369155
ine 369074
▁ask 368727
old 368264
▁America 367602
▁type 367419
▁camera 367334
▁St 366953
▁40 366935
▁current 366797
▁weight 365591
ent 365407
w 364920
▁Twitter 364839
▁Central 364772
▁natural 364518
▁picture 364366
▁users 363119
▁informed 363091
▁Supreme 362582
▁mobile 361687
▁leave 361463
▁Google 361019
▁certain 360862
▁Air 360774
ir 360749
▁Sh 360723
▁England 360592
▁Secretary 360283
▁Mr 360161
▁capital 359785
▁bank 359682
▁patients 359098
▁Where 359054
▁Y 358689
ings 358479
▁share 358231
▁above 357807
▁directed 357157
year 356588
▁front 356452
▁friend 355973
▁morning 355740
▁North 355421
▁region 355336
▁program 354768
up 354177
um 354127
▁candidates 354027
ations 353627
▁half 353231
▁TV 353201
▁bring 352455
ay 352361
▁cricket 352103
▁Home 351969
▁Her 351902
▁according 351889
▁21 351523
im 350759
ab 349404
▁kids 349166
▁allowed 348477
▁considered 348287
▁minutes 348223
▁pictures 348184
▁early 348128
▁More 347999
▁couple 347915
▁release 347130
E 347106
▁May 346768
-19 346122
▁daily 345890
▁Test 345394
▁Actually 345357
▁increased 345125
▁safe 344800
▁idea 344526
▁rights 344436
ch 344207
▁fight 343809
▁member 343681
▁add 341542
5 340675
▁word 339839
▁addition 339484
▁happens 339093
▁parties 338957
▁eat 338889
▁design 338844
▁interest 338763
▁actress 338587
F 338424
▁season 338316
▁Besides 338040
▁Lok 338028
▁alone 337830
▁move 337814
▁Today 337746
▁met 336659
▁population 336188
▁playing 336173
▁director 336023
▁society 335810
▁Jammu 335474
▁value 335267
om 335191
▁positive 334773
▁created 334685
▁complete 334424
▁Z 334392
▁forget 334356
▁books 334202
▁Karnataka 334194
▁w 334103
▁village 334030
▁gone 333774
▁color 333423
▁behind 333103
▁towards 332783
▁pretty 332467
▁takes 332349
▁global 331931
▁remain 331355
▁bit 330736
ts 330405
▁loss 330224
H 330175
▁Russia 329949
ol 329944
he 329837
▁space 329602
▁worth 329456
▁especially 329339
▁cancer 329312
N 328502
▁extremely 328406
▁similar 327709
▁Of 327573
▁key 327207
man 327121
▁types 326896
▁fun 326596
▁pressure 326543
▁view 326461
▁located 325938
▁peace 325569
▁black 325519
ism 325317
▁growth 325194
▁return 325114
▁runs 325065
r 324886
▁economic 324572
▁hands 324551
▁h 324403
▁heard 324383
▁access 324276
▁Department 323085
▁Best 322879
▁outside 322833
▁near 322685
▁During 322683
▁options 322502
▁usually 322252
▁senior 321211
▁related 321148
K 321087
▁write 321084
ro 319847
ary 319478
▁choose 319176
▁activities 319118
▁community 318932
▁red 318912
▁deal 318895
▁effect 318545
▁higher 318052
▁field 317944
em 317729
▁sleep 316402
▁2019 316323
▁successful 316135
7 316008
▁teams 315711
▁opportunity 315497
▁rules 315351
▁Can 315024
▁makes 314940
▁offer 314741
▁rain 314128
▁o 313917
ap 313025
▁almost 312914
▁games 312863
ates 311627
▁whether 310912
▁basis 310781
▁difference 310536
▁earlier 310447
▁step 310229
▁Although 309896
ance 309859
▁saw 309796
▁Currently 308886
▁conducted 308491
▁forward 308239
6 307914
▁wrote 307653
▁players 307314
ized 307288
▁Jesus 307187
▁gave 306783
▁buy 306407
ish 306000
▁completed 305739
▁schools 305627
▁included 305546
▁19 305264
hi 305164
▁search 305003
▁modern 304893
▁tax 304889
▁policy 304429
▁driver 304167
ri 304102
▁someone 304038
▁address 303877
▁Therefore 303671
▁Africa 303483
▁salt 303272
▁training 303184
▁temple 302996
ion 302916
▁clean 302500
▁response 302348
▁attention 302079
j 301281
▁interesting 300951
▁attended 300941
▁Raj 300580
▁sector 300525
▁hair 300444
z 300020
ens 299972
▁closed 299576
ov 299572
▁gold 299290
▁r 299135
▁British 298796
▁22 298569
▁fast 298043
▁murder 298027
▁beginning 297553
▁Commission 297543
▁Assembly 297524
▁viral 297180
▁check 297006
▁brought 296861
▁weeks 296341
▁produced 296238
▁Everyone 296063
▁article 295872
▁inside 295860
▁re 295855
▁coronavirus 295365
▁led 295272
▁Chinese 295094
▁follow 295048
▁families 294469
▁helps 294313
ions 294037
▁solution 293742
▁class 293628
▁nation 293525
ani 293510
▁co 293319
▁Yes 293302
▁song 293254
▁involved 293067
▁self 292679
▁ensure 292484
▁internet 292367
▁admitted 292194
9 291932
als 291343
▁Amit 291226
▁Europe 291175
▁includes 290954
▁happening 290404
▁line 290019
▁baby 290007
▁reports 289859
▁Uttar 289833
▁central 289669
▁March 289646
▁Sri 289594
▁Man 289207
▁passed 289089
▁speak 288870
▁environment 288256
ya 287286
▁position 287185
▁knowledge 287005
▁thank 286993
▁brother 286983
▁apply 285938
▁web 285628
▁Bihar 285446
▁politics 285437
▁function 285359
▁While 285350
▁Rajasthan 285342
▁easily 284755
se 284534
▁foreign 284453
▁active 284166
▁June 284079
▁seven 283845
▁Hospital 283780
▁upon 283639
▁loved 283453
▁built 283355
8 283341
▁knows 283225
▁etc 283220
▁ch 283168
▁January 283000
▁Justice 282962
▁normal 282391
▁July 282196
▁respect 282130
▁staff 281848
▁temperature 281620
▁heavy 281520
▁increasing 281471
les 281289
and 281083
▁customers 280984
▁physical 280768
▁October 280711
▁travel 280046
ag 279739
▁About 279520
▁April 279392
▁conditions 279373
▁fear 279367
age 279354
▁page 279220
▁economy 278808
▁al 278689
▁mix 278609
▁Women 278456
▁benefits 278162
ry 278161
▁virus 277875
▁responsibility 277357
▁Army 276609
▁highest 276118
ian 275962
ans 275862
▁century 275807
▁career 275680
▁benefit 275607
▁particular 275564
san_Deva 275355
▁Ch 275233
▁bus 275171
▁Council 274977
▁September 274976
▁talking 274964
Y 274874
▁published 274475
▁military 273531
▁employees 273386
U 273338
▁Centre 272934
▁late 272746
▁Education 272609
▁goes 272471
ants 271992
▁points 271908
▁exactly 271593
▁essential 271524
▁fine 271516
▁cities 271508
▁knew 271432
▁paid 271415
ha 271382
▁declared 271351
▁dream 271274
▁efforts 270751
ins 270707
▁option 269936
▁War 269935
▁st 269874
▁2018 269633
▁hear 269574
▁December 269535
▁Ad 269484
▁hit 268958
▁till 268741
av 268576
▁Before 268440
▁model 268382
▁birth 267490
un 267253
▁forces 267189
ure 266489
▁white 266292
▁Every 266177
▁safety 265853
▁thinking 265533
▁Internet 265273
▁device 265186
▁officer 264993
▁spread 264877
▁culture 264831
▁term 264656
▁steps 264608
oid 264377
▁Kohli 264349
▁developed 264245
▁source 264227
▁begin 263937
▁legal 263727
▁60 263529
to 263521
ous 263450
▁rushed 263269
▁sp 262296
▁content 262226
▁Nadu 262077
▁Hindi 262044
▁Ali 261932
▁MP 261826
▁photos 261647
▁Afghanistan 261245
▁please 261009
▁management 260954
▁wants 260809
▁districts 260772
▁photo 260323
▁train 260025
▁sugar 259991
▁recent 259865
▁network 259618
▁vehicle 259612
▁writing 259417
▁additional 259365
▁Medical 259209
▁August 259106
▁effective 259078
▁contact 259068
▁European 258947
▁terms 258931
▁seems 258570
▁letter 258461
W 258239
▁nice 258222
▁committee 257918
▁diet 257812
▁student 257643
▁vehicles 257501
ting 257409
▁Re 257248
x 257134
V 256929
▁quickly 256829
▁2021 256727
▁CBI 256563
▁Israel 256528
▁individual 256316
▁marriage 256293
▁Only 256015
▁himself 255851
▁de 255722
▁Meanwhile 255610
▁CM 255338
ons 254833
▁k 254288
▁eight 254267
▁nature 254006
▁projects 253975
▁green 253756
▁town 253645
▁tried 252986
▁named 252981
▁affected 252907
▁j 252799
▁billion 252583
▁improve 252447
▁College 252401
▁doctors 252323
op 252171
▁Apart 252013
▁symptoms 251520
▁sometimes 251344
▁programme 251230
ats 250934
▁impact 250895
▁Parliament 250493
▁fans 250474
▁longer 250439
▁biggest 250379
▁charge 250314
▁John 250068
▁Cup 249876
▁France 249862
▁Allah 249754
ana 249730
▁file 249606
▁events 249574
▁Development 249163
▁save 249140
▁cold 248926
▁purpose 248873
ala 248792
▁earth 248633
▁recovered 248544
▁23 248468
ally 248339
▁haven 248265
▁Three 248132
▁specific 247837
▁performance 247479
▁Director 247443
▁caused 247257
▁sources 247075
▁+ 246983
▁November 246722
▁Its 246264
led 246062
▁income 245678
▁hold 245546
esh 245522
▁choice 245284
ors 245113
▁operation 244812
▁trade 244478
20 244476
day 244445
▁software 244058
▁26 243458
▁stated 243222
▁enjoy 243171
ise 243044
▁construction 242869
▁v 242624
▁department 242409
▁looked 242141
▁By 241818
▁sc 241705
▁Asia 241548
ash 241091
▁leading 241089
▁sports 241010
ath 240938
▁stand 240332
ite 240307
▁rooms 240300
▁French 240126
▁size 240126
▁milk 240074
▁_ 239998
▁allow 239122
▁science 238911
▁poor 238808
▁COVID 238802
▁force 238756
GB 238511
▁record 238508
▁looks 238409
▁wait 238197
▁Former 238134
▁reach 237916
ted 237901
▁Hyderabad 237866
▁Among 237699
▁opened 237371
▁significant 237367
▁2017 237220
▁Board 236855
▁injuries 236804
▁user 236780
▁28 236319
▁receive 236239
▁stage 235947
▁expressed 235706
▁throughout 235649
▁suicide 235587
▁groups 235530
▁professional 235445
▁aren 235273
▁Russian 235048
▁District 235010
▁supply 235000
▁Their 234990
▁message 234973
▁material 234653
ter 234562
▁names 234150
▁range 234132
▁UK 234029
▁London 233965
▁plans 233818
▁stars 233587
▁rise 233368
▁House 233272
▁Japan 233120
▁laws 233034
▁officers 232782
▁School 232666
ara 232498
▁provides 232309
▁From 232129
▁Since 232124
od 231902
▁reality 231794
ie 231442
▁itself 231407
▁roles 231386
▁lodged 231378
▁responsible 231323
▁trust 231306
▁variety 231247
▁girls 231232
▁captain 231023
▁consider 231018
▁80 230985
▁drink 230909
▁ones 230741
▁citizens 230574
▁Institute 230533
▁email 230412
▁Hindu 230322
▁sh 230051
▁reduce 229759
ow 229391
▁languages 229245
▁regarding 229179
▁levels 228963
ial 228901
▁diseases 228618
▁turn 228382
▁college 228246
▁200 227943
▁degree 227660
▁star 227176
▁Committee 227034
▁scheme 226719
▁2016 226350
▁watch 226269
ib 226228
▁investment 225937
▁rich 225799
▁prepared 225205
ets 224854
▁established 224647
▁formed 224472
▁participated 224307
▁Apple 223968
▁image 223858
▁protect 223845
▁X 223723
▁demand 223450
▁art 223428
▁Instagram 223424
▁youth 223389
▁joined 223386
▁February 223277
▁secretary 222887
ari 222764
▁ground 222747
▁City 222668
▁method 222489
▁Kh 222209
▁y 222042
▁gets 222009
▁assembly 221584
▁exercise 221374
▁candidate 221331
▁Un 221256
▁Q 221207
▁section 220930
▁via 220752
▁board 220724
ut 220686
▁digital 220633
ize 220582
▁passengers 220439
▁East 220103
way 220075
▁chance 220022
▁turned 219838
▁0 219657
▁York 219611
▁alleged 219189
its 219125
▁rule 219028
▁average 218881
▁simply 218239
▁continued 218153
▁waiting 217814
▁famous 217629
▁hotel 217618
▁interested 217607
▁credit 217505
▁personnel 217470
▁Yadav 217456
▁Haryana 217343
ists 217316
▁kept 217244
▁sea 217219
▁die 217185
▁progress 217129
ization 217043
▁speed 216939
▁Below 216928
▁unique 216670
▁Thank 216646
▁growing 216611
▁Germany 216540
▁afraid 216396
▁followed 216201
▁evidence 216199
▁lower 216124
▁useful 216090
▁goal 215980
▁claimed 215960
▁religion 215832
▁violence 215614
▁becomes 215511
ments 215450
▁wish 215311
▁subject 215299
▁property 215258
▁freedom 215008
▁investigating 214906
▁returned 214657
▁player 214361
▁discussed 214167
▁pre 214090
▁reading 214024
▁learning 214023
▁numbers 213492
▁excellent 213452
▁27 213320
ig 213293
▁animals 213267
▁Salman 213240
ose 213106
▁version 212983
▁Always 212974
all 212702
▁avoid 212570
ars 212512
▁worry 212318
▁anti 212077
▁offers 211984
▁drug 211907
▁finally 211695
based 211665
▁sign 211629
▁sides 211346
ard 211309
▁31 211298
▁prime 211152
▁concerned 211100
▁journey 211034
00 210912
ik 210899
▁celebrated 210828
▁Muslim 210812
▁Android 210800
▁blog 210725
▁boy 210268
▁prevent 210263
ical 210200
▁Have 210034
▁Later 209529
▁amazing 209439
▁Just 209360
▁movement 209106
▁heat 209055
▁videos 208996
ai 208683
▁movies 208550
▁equal 208346
▁Life 208325
▁thanks 208200
▁myself 208065
▁majority 208015
▁bodies 207994
▁style 207990
▁shot 207832
▁Chennai 207773
▁carried 207693
ue 207649
▁certainly 207112
▁2014 207096
▁evening 206912
▁Cons 206831
▁patient 206754
▁press 206636
▁religious 206572
▁Affairs 206501
▁systems 206213
▁themselves 206128
ely 206118
▁therefore 206115
▁lose 206112
▁plant 206094
▁smartphone 205992
▁70 205942
pur 205812
▁Virat 205780
less 205591
▁effects 205515
▁protest 205158
▁voice 205078
▁storage 205065
▁correct 204847
▁underway 204792
▁stopped 204741
▁Take 204376
one 204109
▁focus 204099
▁act 203919
▁Several 203907
▁border 203855
▁award 203495
▁Each 203198
▁running 203144
▁door 203134
▁remains 202932
▁Pro 202876
▁colors 202712
▁plays 202602
▁Anyone 202483
▁Canada 202458
▁committed 202209
▁houses 202191
▁gas 202106
▁feature 202037
▁Again 201762
▁Je 201433
▁shows 201186
inder 201063
▁hot 200894
▁Th 200732
▁IPL 200459
kas_Deva 200094
▁authorities 200060
,000 199692
▁build 199207
ang 199139
▁direction 199083
▁administration 198556
▁Iran 198485
▁cut 198390
▁Or 198317
▁confirmed 198280
▁river 198252
▁ahead 198223
▁directly 198182
▁29 198033
▁measures 197903
▁App 197550
▁king 197434
▁Children 197321
▁probably 197297
▁fourth 197295
▁opportunities 197124
▁dry 196514
▁strength 196023
▁cultural 195643
▁Bh 195637
▁basic 195624
▁link 195533
▁offered 195505
▁2015 195457
▁identified 195455
▁upcoming 195405
▁examination 195257
▁agree 195195
▁screen 194993
▁Such 194905
▁careful 194775
▁raised 194649
▁felt 194565
▁vaccine 194385
▁Security 194301
▁conference 194147
ast 194028
▁Shiv 194005
▁90 193948
▁achieve 193276
▁airport 193270
▁Ex 193266
ide 193260
▁truly 193056
▁Students 192933
▁demanded 192861
▁Other 192821
▁aware 192801
▁th 192471
▁Windows 192392
▁fully 192301
▁previous 191953
▁devices 191793
▁35 191649
▁pepper 191384
iv 191381
▁teachers 191345
▁Please 191165
▁spend 191149
▁sound 191095
▁drive 190942
▁costs 190891
▁launch 190797
▁allows 190745
▁probe 190636
▁maximum 190521
▁cash 190337
▁Zealand 190211
▁Commissioner 190185
▁contains 190158
▁gives 190147
▁.. 190106
▁infection 189952
▁arrived 189927
▁capacity 189856
ip 189797
▁500 189451
▁Business 189420
▁banks 189373
▁shooting 189310
▁Over 189261
▁Will 188779
▁Madhya 188598
▁seat 188475
▁Finance 188429
▁facilities 188356
▁Andhra 188328
▁Read 188208
▁sub 188155
▁campaign 188069
▁wedding 188041
▁feet 187864
▁deaths 187832
▁Deputy 187709
▁send 187685
ou 187508
▁latest 187496
▁served 187481
▁Me 187385
▁Vijay 187324
▁feeling 187272
▁budget 187139
▁continues 187113
ud 186858
▁female 186845
▁Cricket 186373
ub 186270
▁appointed 186250
▁planning 186146
har 185954
▁wonderful 185739
▁limited 185715
▁primary 185576
▁failed 185575
▁moved 185555
▁tweeted 185490
▁faith 185424
▁Even 185295
▁multiple 185134
▁traffic 185133
▁proud 184908
▁damage 184755
▁cook 184735
▁giving 184706
ac 184667
▁weather 184652
▁mixture 184545
ised 184450
▁wickets 184329
▁activity 184031
ailable 184024
▁stress 184016
▁causes 183985
▁jobs 183979
▁Islam 183962
ali 183752
▁advice 183724
▁fall 183652
ically 183389
ling 182732
▁dangerous 182662
▁cl 182603
ium 182574
▁Research 182480
▁depends 182130
▁revealed 182090
▁interview 182082
▁approved 181849
▁mentioned 181449
▁yes 181058
▁phase 180966
▁foods 180871
▁Telugu 180815
▁nearly 180800
▁Ask 180707
▁Lanka 180700
ages 180497
▁Constitution 180466
▁attend 180454
▁unit 180321
ver 180042
▁meaning 180019
▁platform 179926
▁direct 179881
▁wouldn 179816
ians 179776
▁discussion 179758
▁potential 179420
▁join 179324
▁download 179260
▁Ar 179195
▁vote 179010
▁Water 178954
▁negative 178800
▁definitely 178645
▁university 178505
▁table 178374
▁path 178217
▁matches 178166
▁grow 177989
▁develop 177913
▁League 177790
▁occurred 177768
▁enter 177748
▁festival 177656
ics 177646
▁stories 177622
▁exam 177565
▁spoke 177543
▁birthday 177453
▁songs 177309
▁UN 177239
▁starting 177182
▁purchase 176978
time 176643
▁hasn 176602
▁opposition 176592
▁32 176519
▁agreement 176239
▁drugs 176078
▁Muslims 175969
▁competition 175681
▁diesel 175681
▁absolutely 175659
▁studies 175624
▁perfect 175612
▁importance 175565
▁effort 175533
▁seized 175087
▁store 174789
▁wide 174729
▁Rohit 174678
▁warm 174641
▁providing 174393
▁km 174242
▁ideas 174230
▁roads 174226
▁hearing 173988
▁sold 173879
▁Indians 173801
are 173659
▁seriously 173509
▁ex 173362
▁sun 173332
▁standard 173301
our 173299
▁signed 173247
▁protection 173112
▁brain 172934
▁notice 172920
▁fell 172839
▁practice 172744
if 172658
oc 172486
▁shown 172469
▁thousands 172354
▁insurance 172333
han 172252
▁pass 172210
▁ability 172180
▁relations 172082
▁associated 171885
▁institutions 171784
▁treated 171746
▁Telangana 171685
▁Well 171567
▁separate 171386
▁designed 171306
ill 171081
▁posted 171065
▁crime 170896
▁Group 170850
▁Under 170647
▁mental 170570
▁decide 170451
▁thousand 170446
▁location 170347
▁Donald 170265
▁centre 170089
▁Actor 170061
▁deep 169887
nd 169709
▁fl 169689
▁elected 169635
▁teacher 169589
▁Covid 169339
▁lots 169329
▁paper 169299
▁powerful 169232
▁cool 168993
▁presented 168990
▁Black 168975
▁documents 168876
az 168667
▁accept 168470
▁Science 168325
▁vegetables 168285
▁sister 168277
▁super 168143
▁maintain 168121
▁opinion 168088
▁Did 168069
▁ten 167872
▁materials 167866
J 167791
▁De 167737
▁Following 167700
ind 167640
▁session 167524
▁challenge 167515
▁suffered 167472
▁Technology 167459
▁occur 167293
▁victory 167161
▁critical 166728
▁regular 166536
▁plants 166326
▁pandemic 166294
ile 166203
▁applications 166158
▁iPhone 166151
▁Go 166138
▁Special 166082
▁arrest 166038
▁accepted 165909
▁sw 165817
▁Film 165598
▁marketing 165523
▁individuals 165497
▁appear 165186
▁begins 165070
▁operations 164869
▁cooperation 164767
▁require 164754
▁Social 164581
▁MLA 164524
▁south 164473
▁medicine 164317
▁items 164214
▁expect 164149
▁character 164119
▁jail 164079
▁connected 164025
▁Bharat 164012
▁receiving 163863
out 163846
▁television 163808
▁custody 163778
X 163774
▁note 163773
▁Association 163756
▁north 163723
▁-- 163546
▁crisis 163538
▁equipment 163282
▁Earth 163178
▁resources 163172
▁inf 163071
▁forms 163033
▁Public 162988
▁complex 162890
▁lived 162830
▁rather 162763
▁memory 162733
▁center 162717
▁helped 162705
▁request 162683
▁Post 162633
▁believed 162624
▁decisions 162593
▁x 162392
▁challenges 162356
▁• 162299
na 162207
▁minimum 162192
▁examples 162064
▁totally 161820
ati 161811
▁Love 161718
▁Earlier 161197
▁fish 161148
▁engine 161005
▁victim 160917
▁organization 160783
▁ordered 160760
▁remained 160701
▁hospitals 160661
▁payment 160646
og 160589
▁sons 160533
▁twice 160381
▁customer 160304
▁thoughts 160272
▁Red 160092
▁expensive 160045
▁walk 160038
▁charges 159848
▁facing 159825
▁comments 159785
▁Force 159742
▁presence 159560
▁Republic 159530
▁sense 159395
▁Cabinet 159226
▁operating 158909
▁impossible 158871
▁code 158806
▁garlic 158763
▁army 158688
▁brand 158564
▁petrol 158524
▁status 158467
▁eye 158414
▁Additional 158392
▁approach 158297
▁review 158280
▁seem 158060
▁soldiers 158054
bs 158024
▁listen 157803
▁Good 157681
▁lack 157625
▁spent 157589
ring 157507
▁particularly 157441
▁Defence 157401
▁sex 157315
▁touch 157232
▁Congratulations 157110
▁writer 157026
▁Korea 156915
▁ministers 156643
▁easier 156587
▁sad 156366
▁Come 156318
▁accounts 156167
▁anymore 156160
▁cars 156072
▁German 156040
▁blue 156022
▁talks 155960
▁King 155855
▁tests 155668
▁attacks 155666
▁hour 155655
▁recorded 155626
▁severe 155318
▁comfortable 155191
▁methods 155191
▁Those 155113
aw 155032
▁break 154969
▁joint 154917
▁kill 154917
▁Assam 154909
▁bed 154858
▁eating 154727
▁Bill 154701
▁Kolkata 154590
▁proper 154539
▁Reddy 154481
▁factors 154240
▁summer 154163
▁ended 153954
▁affect 153917
▁internal 153863
▁indeed 153610
▁Bachchan 153242
▁Service 153196
res 153193
▁middle 153127
▁Foreign 153086
▁distance 153042
ach 153023
▁suffering 152852
▁deceased 152824
▁45 152798
▁greater 152766
▁remove 152701
▁participate 152685
▁changing 152618
▁files 152580
▁agency 152460
▁gl 152263
▁Information 152170
ines 152123
▁Patel 152100
▁democracy 151900
▁Ab 151835
▁increases 151778
▁text 151759
▁Four 151510
▁highly 151508
▁removed 151494
▁justice 151447
ore 151414
ice 151350
▁goods 151330
▁Everything 151185
▁wear 151145
▁author 151076
▁appeared 150827
▁colour 150811
▁produce 150764
▁football 150616
▁fresh 150425
▁denied 150418
▁skills 150383
▁independent 150318
▁discuss 150214
ative 150194
▁leadership 150188
▁comp 150173
▁recommended 150098
▁sitting 149963
▁Con 149916
▁UP 149839
▁domestic 149708
ina 149698
▁Chairman 149642
▁communication 149636
▁agriculture 149550
▁2012 149537
ious 149307
ram 149213
▁carry 149015
▁sexual 148976
▁welcome 148905
▁visited 148858
▁Vice 148821
▁Priyanka 148798
▁species 148761
▁traditional 148661
▁original 148642
▁300 148514
ible 148453
▁becoming 148307
▁assistance 148295
▁Award 148292
▁FIR 148141
▁generally 148138
▁answers 148127
▁divided 148114
▁cells 148108
▁ceremony 148000
▁ancient 147835
▁Corporation 147824
▁Law 147747
oon 147733
▁ra 147622
▁sales 147614
▁structure 147561
ug 147558
ator 147425
▁cover 147380
▁starts 147367
▁cell 147335
q 147311
▁comment 147151
▁oxygen 147122
pt 147105
▁Ind 147096
▁rains 147061
▁scored 146978
▁technical 146921
▁speaking 146843
▁onion 146688
▁models 146602
▁sites 146574
▁Make 146452
ology 146328
▁answered 146305
ery 146281
▁electric 146173
▁whose 145945
▁bill 145887
▁whom 145826
▁Pakistani 145739
▁battle 145726
▁animal 145694
▁Nepal 145685
▁infrastructure 145446
▁worried 145397
▁2013 145359
▁Sub 145272
▁Har 145187
▁fruits 145121
▁Sena 145027
aj 145008
▁stir 144933
ith 144930
▁images 144742
▁scene 144730
▁tree 144472
▁Answ 144461
▁drinking 144452
te 144385
▁rates 144348
▁submitted 144286
▁Sanjay 144226
▁Father 144214
▁battery 144138
▁Park 144094
▁machine 144064
▁Control 143949
▁Once 143928
▁programs 143846
▁aircraft 143715
▁Christ 143663
▁terrorists 143486
▁agreed 143439
▁instead 143434
▁Mar 143366
▁placed 143246
▁Article 143231
▁Services 143154
▁testing 143148
▁en 143048
▁civil 143034
mortem 142902
ain 142715
▁Governor 142707
▁commercial 142621
▁II 142501
▁sell 142433
▁entered 142375
▁Election 142239
▁Office 142238
▁appropriate 142180
▁climate 142130
▁loan 142108
▁happiness 142013
▁Bal 141975
▁introduced 141916
▁allegations 141884
▁numerous 141798
▁elements 141737
▁Anil 141717
▁surprised 141705
▁creating 141670
▁leaves 141567
ities 141477
▁goals 141382
▁selected 141307
▁Sometimes 141301
▁moving 141286
▁learned 141276
▁Asian 141256
▁compared 141238
▁suitable 141231
▁fee 141202
▁railway 141181
▁MLAs 141155
ess 141151
▁transport 141148
▁governments 141111
▁dis 141091
/ 141076
▁solve 141051
▁title 140782
▁performed 140602
▁box 140546
▁Amazon 140424
▁shifted 140326
▁older 140205
▁kinds 140190
ms 140060
of 139885
▁doubt 139725
▁polls 139636
▁partner 139628
▁YouTube 139467
ge 139372
▁tea 139219
▁Super 139212
▁refused 139186
▁missing 139183
▁Dev 139165
term 139149
ks 139124
▁rural 139085
pe 139083
▁remaining 139060
▁Time 139017
▁cards 138912
▁Human 138860
ale 138813
▁Saudi 138601
uk 138569
▁speech 138565
▁funds 138508
▁Mah 138398
▁extra 138379
▁2008 138373
war 138280
▁Arjun 137995
ee 137945
▁See 137698
▁2011 137687
▁Rao 137636
▁rejected 137564
▁sale 137520
▁juice 137421
▁Food 137353
▁posts 137238
▁degrees 137177
▁Bar 136948
▁actors 136900
hed 136883
▁Around 136691
▁Last 136679
▁Sar 136630
▁David 136622
ider 136383
▁confidence 136343
▁SP 136329
▁wishes 136326
▁Family 136325
▁ministry 136253
▁announcement 136231
▁handed 136211
▁coffee 136192
▁* 136180
▁claim 136115
▁stock 136099
ots 136089
▁annual 136084
▁opposite 136039
▁damaged 135985
▁reduced 135975
▁requires 135850
▁pregnant 135747
▁developing 135725
▁Oh 135702
▁inter 135694
▁phones 135650
▁serve 135621
▁concern 135611
▁75 135562
▁worldwide 135542
▁winter 135449
▁forg 135441
▁properties 135343
▁employment 135309
▁150 135025
kas_Arab 134999
▁figure 134969
▁Being 134915
ade 134903
▁category 134821
▁Road 134795
▁sl 134637
▁anywhere 134627
▁exist 134623
▁markets 134547
▁limit 134494
▁Which 134467
▁homes 134436
▁understanding 134232
ph 133984
els 133960
▁attempt 133818
▁click 133803
▁reply 133802
▁fighting 133746
▁tournament 133598
OR 133557
▁.... 133432
▁glad 133212
▁Hence 133205
▁dark 132911
▁matters 132783
▁Friday 132767
▁Bl 132742
▁pregnancy 132623
▁USA 132551
▁powder 132551
▁nor 132527
ty 132487
▁brothers 132363
ened 132224
kar 132147
▁Nations 132137
▁requirements 132063
aya 132022
▁Company 131894
▁Power 131735
▁cup 131728
▁duty 131723
▁Agriculture 131682
▁petition 131639
▁emergency 131595
ass 131593
▁views 131532
▁round 131488
▁beauty 131487
ini 131294
▁Bengaluru 131196
▁ins 131141
▁task 131073
▁businesses 131027
▁trip 130992
▁managed 130983
▁nearby 130942
▁sort 130901
▁finished 130868
ric 130841
▁firm 130800
▁protein 130735
▁Kejriwal 130680
ures 130606
▁explain 130592
▁existing 130550
▁WhatsApp 130362
ence 130355
▁trial 130236
▁pan 129999
per 129955
▁trees 129917
▁awarded 129906
▁Open 129830
▁procedure 129698
▁residents 129694
▁invited 129582
▁kitchen 129525
▁vitamin 129412
▁humans 129400
▁mom 129374
▁Taliban 129339
▁mouth 129287
▁bench 129230
▁display 129230
▁opening 129151
ress 128991
▁audience 128975
▁Due 128729
ran 128717
megapixel 128663
▁sit 128661
▁fled 128646
▁winning 128560
▁List 128235
▁follows 128180
▁generation 128175
▁Sonia 128065
▁votes 127698
▁inquiry 127575
▁Sunday 127564
▁surface 127477
▁contain 127384
▁hurt 127378
▁helpful 127370
▁IT 127350
▁actions 127289
▁Banerjee 127269
▁constituency 127233
▁imp 127112
▁suspended 127060
▁Ahmed 127058
▁fruit 127049
pl 126902
▁acting 126880
▁length 126766
▁everybody 126744
▁anyway 126615
▁Monday 126572
▁begun 126494
ta 126419
▁dog 126405
▁supported 126385
▁manner 126338
▁Dhoni 126301
▁Cook 126269
▁bail 126204
▁destroyed 126192
ites 126075
▁Prasad 126018
▁News 125994
▁connect 125837
▁Se 125812
ged 125810
▁advantage 125734
ep 125641
▁victims 125605
ley 125603
▁San 125588
▁2009 125537
▁soft 125455
▁target 125437
▁estimated 125388
▁educational 125087
▁clothes 125073
▁ad 125055
▁flow 124938
▁nine 124886
▁greatest 124859
▁alcohol 124817
▁Civil 124813
▁medium 124763
▁ongoing 124724
▁base 124647
▁Washington 124607
▁scared 124602
ging 124595
▁cur 124545
▁Him 124540
la 124524
▁electricity 124511
▁Akshay 124480
▁widely 124465
▁z 124436
▁sought 124220
▁u 124167
▁implemented 124160
▁relief 124062
▁achieved 123975
▁liked 123922
▁chairman 123903
▁disc 123862
▁none 123846
▁friendly 123830
▁ban 123828
▁trains 123676
▁36 123616
▁Bangalore 123593
ush 123590
▁flight 123526
▁scientific 123394
▁pro 123376
▁manufacturing 123366
▁extended 123330
▁White 123319
▁units 123211
▁wash 123183
▁worse 123133
com 123109
▁Goa 123004
▁broke 123002
▁double 122832
ute 122803
▁dance 122744
▁Use 122743
▁overall 122711
▁apps 122710
▁wall 122683
▁Senior 122661
▁tables 122648
▁ingredients 122545
▁noted 122529
▁registration 122443
▁Look 122389
▁tools 122344
▁possibility 122342
▁deployed 122313
▁whatever 122303
▁maybe 122268
▁experts 122256
▁host 122153
▁mistake 122036
▁claims 121884
▁Italy 121878
red 121755
▁Great 121748
ob 121643
▁Britain 121634
▁contest 121618
▁nobody 121612
▁scheduled 121528
▁clearly 121479
▁pe 121437
▁waste 121346
▁floor 121087
▁sharing 121027
▁tough 121014
▁2010 120951
iah 120781
▁tool 120772
▁Section 120751
▁Apply 120598
▁fat 120429
▁criminal 120309
▁calls 120231
ire 120154
▁debut 120147
▁track 120065
▁concept 120018
▁banned 119882
ries 119800
MP 119796
▁rainfall 119751
▁fuel 119732
▁lockdown 119721
▁joy 119699
▁score 119674
▁vision 119612
▁Games 119533
ma 119505
▁marks 119447
ered 119370
▁Sushant 119259
▁vice 119164
▁Rajya 119149
ada 119067
▁secure 119005
▁described 118993
▁busy 118873
▁detained 118864
▁gain 118857
▁Par 118734
▁Keep 118698
▁Sc 118624
▁Railway 118556
▁decades 118555
▁Ah 118530
▁plastic 118511
RE 118487
▁conduct 118467
▁BCCI 118378
▁Dh 118377
▁park 118290
▁secret 118272
▁hundred 117952
▁sections 117874
▁tomorrow 117801
▁respond 117791
▁Odisha 117779
▁values 117778
▁installed 117654
ame 117647
▁seeing 117507
▁Farmers 117433
▁uses 117429
▁trouble 117363
▁silver 117350
▁saved 117341
▁referred 117339
▁asking 117331
iting 117298
▁perform 117276
▁Son 117262
▁African 117169
izing 117158
▁atmosphere 117008
▁Dad 116990
▁coach 116988
▁stations 116972
▁bl 116955
▁differences 116915
isation 116896
▁mass 116866
ising 116862
▁protests 116748
▁rising 116687
ase 116680
▁unknown 116667
▁Rukh 116659
▁Islamic 116655
▁adults 116561
▁watching 116560
▁solutions 116526
▁massive 116476
mer 116334
▁sweet 116214
▁alliance 116204
▁Mal 116129
▁Officer 116105
ished 116096
▁angry 116096
▁Get 116083
▁transfer 116077
▁quick 116027
▁immediate 116005
end 115987
▁37 115970
▁appreciated 115952
▁Olympics 115944
▁Mother 115904
▁forest 115902
▁awards 115886
▁prepare 115845
▁medal 115683
▁purposes 115631
▁abroad 115621
▁properly 115611
ail 115604
▁excited 115599
▁smart 115591
wal 115577
▁Maybe 115564
▁experienced 115551
▁tweet 115490
OT 115353
▁stands 115271
ne 115187
▁Sam 115175
▁33 115149
▁nations 115132
▁incidents 115095
▁talked 115083
▁Ministers 115077
▁diabetes 115075
▁eventually 114983
▁acid 114966
▁keeping 114959
li 114917
▁villages 114839
▁urged 114779
▁plenty 114675
▁sky 114669
▁bath 114620
▁Thanks 114605
▁butter 114599
▁driving 114538
▁relevant 114490
▁approximately 114487
ps 114484
ce 114419
ys 114269
▁detailed 114239
▁colleges 114138
▁Su 114027
▁sm 114014
▁contract 114000
ika 113950
▁CEO 113897
▁collection 113889
▁flour 113878
brx_Deva 113797
▁exchange 113789
▁analysis 113773
▁Team 113665
▁millions 113664
▁shouldn 113658
▁Additionally 113626
▁although 113562
▁honest 113521
▁injury 113495
▁industrial 113482
▁spokesperson 113414
iz 113338
▁GST 113282
▁crucial 113273
ell 113269
▁Japanese 113263
▁determine 113252
▁showed 113241
▁attacked 113193
▁Kingdom 112963
▁Fire 112962
▁RAM 112959
▁seeking 112945
▁signs 112919
ink 112911
▁Krishna 112834
▁thus 112803
ber 112801
▁tested 112673
▁defence 112640
▁buildings 112579
▁tourists 112530
▁classes 112475
▁Nothing 112421
▁owner 112376
▁participants 112284
▁allegedly 112232
▁Thus 112126
ew 112005
aid 111970
▁influence 111969
▁bright 111916
▁cast 111837
ters 111784
▁select 111736
▁Opposition 111706
▁caught 111697
▁Management 111636
▁# 111558
▁window 111528
▁rally 111407
▁facility 111375
▁trans 111229
▁false 111147
▁spirit 111145
▁reportedly 111107
▁port 111045
agar 111038
▁nuclear 111031
▁shut 110951
▁granted 110889
▁promote 110881
▁shops 110699
▁mark 110653
▁organised 110591
▁par 110587
ied 110566
▁Rajput 110431
▁strategy 110390
▁straight 110380
▁GB 110377
▁undergoing 110372
▁orders 110351
▁proposal 110299
▁tour 110287
▁mission 110256
▁bathroom 110211
▁Brazil 110183
0 110128
▁Americans 110018
let 109999
▁Comp 109998
ias 109982
▁rape 109964
▁rear 109932
50 109923
▁suggestions 109919
▁Wi 109882
▁fair 109838
▁truck 109817
▁Candidates 109804
▁entry 109750
▁producer 109733
▁Paris 109700
hes 109661
▁Ne 109654
▁channel 109639
▁treat 109546
▁standing 109377
▁taste 109316
▁Art 109310
▁daughters 109289
▁listed 109260
▁except 109241
AN 109205
ax 109174
▁ICC 109162
▁beneficial 109105
▁34 109104
me 109072
▁planned 109036
▁En 109023
▁terrorist 108928
▁appears 108900
▁lines 108867
▁plane 108861
▁seek 108860
▁Corona 108827
▁permission 108777
ank 108772
▁Contact 108737
▁Sir 108703
▁entirely 108673
▁meat 108659
▁headed 108646
▁scientists 108610
▁beat 108573
ust 108553
▁Note 108547
▁lies 108356
▁identify 108202
ared 108143
▁crores 108127
▁judge 108090
▁ha 108079
▁willing 108013
▁balance 107988
▁micro 107950
▁soil 107861
▁Bible 107836
▁400 107764
▁Christian 107670
▁Arvind 107591
▁Does 107532
▁height 107523
▁occurs 107514
▁gift 107498
▁harm 107497
▁onions 107494
▁island 107493
▁Inter 107443
▁threat 107362
▁chemical 107345
▁draw 107320
▁Along 107115
▁Five 107037
▁Fund 106990
▁engineering 106989
▁Ahmedabad 106937
▁Pune 106867
▁CCTV 106728
▁covered 106705
▁Step 106461
▁carefully 106413
▁fit 106411
10 106396
Fi 106389
rat 106344
ual 106285
▁Olympic 106277
▁guidelines 106257
ators 106229
▁church 106121
▁dreams 106119
▁Amitabh 106112
▁48 106076
▁bar 106019
ama 105989
▁constantly 105946
▁NCP 105941
▁Sun 105886
▁resolution 105834
▁anniversary 105812
▁iron 105798
uddin 105753
▁Year 105751
qu 105694
▁spoken 105664
▁soul 105650
▁regularly 105631
ec 105562
▁debate 105417
▁mainly 105386
▁Kannada 105377
▁favorite 105291
▁improved 105249
▁ro 105232
▁Tuesday 105205
▁command 105170
▁= 105076
ji 105006
▁functions 105005
app 104977
ves 104926
▁killing 104856
▁charged 104740
ering 104690
▁illegal 104644
▁alive 104535
▁Ph 104489
▁desire 104470
▁Big 104431
▁failure 104303
▁mis 104275
▁dedicated 104124
▁Rajnath 104088
▁leads 104041
▁proposed 104040
▁winners 103985
▁rep 103962
sh 103944
ily 103929
▁fifth 103855
ier 103852
▁programmes 103783
▁Ajay 103747
▁sick 103718
▁historical 103522
▁meant 103422
ung 103368
▁2000 103350
▁Railways 103338
▁di 103323
▁2007 103289
▁ball 103225
ER 103176
▁holiday 103174
▁stuff 103152
▁observed 103149
▁corruption 103139
▁appeal 103041
▁Chopra 103030
▁typically 103022
▁surgery 102941
ving 102917
▁terrorism 102891
af 102885
▁everywhere 102845
ong 102751
▁Out 102707
▁beyond 102687
▁Saturday 102664
▁Anand 102641
▁partnership 102603
hu 102588
▁ar 102579
men 102559
▁wave 102476
▁pollution 102379
▁Australian 102361
▁stone 102354
act 102328
▁reaction 102285
▁guy 102211
▁alert 102192
▁Wednesday 102178
abad 102177
▁mostly 102140
▁Arabia 102126
▁Pay 102112
▁pieces 102061
▁Gold 102051
ability 102037
AT 102008
io 101993
▁enjoyed 101934
▁applied 101916
▁organizations 101888
▁fashion 101839
▁Mamata 101808
▁spiritual 101758
▁gonna 101696
▁foot 101693
▁loves 101667
▁Click 101648
▁Mohammad 101613
▁rescue 101610
▁holds 101559
▁California 101487
▁ill 101414
ake 101367
▁cinema 101360
▁Airport 101270
▁} 101201
▁Bhatt 101180
▁Tax 101135
ides 101106
ification 101042
▁Tata 101001
▁independence 100942
▁innings 100912
▁searching 100908
▁east 100899
▁recovery 100893
▁wind 100852
▁Free 100839
▁instructions 100833
▁regional 100826
ational 100799
▁Pat 100793
▁minor 100748
▁consists 100726
▁strict 100715
▁seeds 100644
▁singer 100586
▁struggle 100580
▁loans 100428
▁pl 100426
▁factor 100382
▁advised 100332
▁rice 100277
▁Very 100247
▁terror 100190
▁Actress 100188
▁ideal 100187
▁Western 100169
▁Blood 100148
▁leaving 100108
▁taught 100067
▁foundation 100064
▁Hindus 100051
▁Sports 100042
▁setting 100041
▁dad 100011
ron 99994
▁aspects 99928
▁conversation 99829
▁priority 99804
▁regions 99778
▁weapons 99759
▁Contin 99746
▁flowers 99719
ify 99711
▁kg 99702
▁format 99661
▁fields 99645
ler 99639
▁obtained 99631
▁childhood 99626
ey 99532
ified 99486
▁stood 99474
▁agricultural 99470
▁selection 99466
▁{ 99443
▁residence 99402
oo 99398
▁Co 99382
▁Turkey 99354
▁eggs 99290
▁fixed 99285
▁64 99269
▁faced 99246
▁EU 99239
ita 99211
▁Sur 99172
▁literature 99130
▁requested 99105
▁initial 98961
▁larger 98952
her 98942
▁selling 98942
▁experiences 98912
▁strengthen 98895
adi 98891
▁rare 98783
▁glass 98755
▁territory 98754
▁quiet 98697
▁engaged 98650
▁club 98575
▁Next 98558
▁authority 98532
▁relationships 98518
▁shares 98517
▁unable 98516
ening 98513
▁Janata 98329
▁seconds 98327
▁Music 98314
▁despite 98303
uc 98299
▁street 98271
▁Part 98264
▁raise 98259
▁suffer 98234
▁everyday 98199
▁Green 98184
vi 98182
▁register 98160
▁Sw 98132
▁shape 98120
▁SC 98109
▁Authority 98103
mail 98095
▁permanent 98045
▁relatives 98041
ably 98011
▁express 97982
▁flights 97965
▁vital 97949
▁guests 97927
ich 97905
▁radio 97885
▁ruling 97884
▁cross 97847
itions 97742
▁Bel 97738
▁Academy 97735
▁ab 97734
▁block 97729
▁founded 97722
▁forever 97720
▁Mexico 97689
▁buying 97560
▁prison 97560
▁Limited 97512
▁infected 97484
▁meetings 97387
▁te 97354
▁handle 97336
▁initiated 97336
▁Deepika 97325
art 97285
▁symbol 97245
▁Nath 97230
land 97205
▁ind 97195
▁concerns 97173
▁imposed 97115
▁document 97085
▁perhaps 97079
ane 96991
▁records 96982
▁policies 96972
▁log 96965
▁rapidly 96933
▁guess 96913
▁bought 96902
▁Thursday 96859
era 96832
▁mode 96828
ents 96822
▁Spain 96787
▁appearance 96777
▁Play 96731
▁manage 96673
▁approval 96611
▁Microsoft 96535
▁urban 96524
▁Dubai 96523
▁combination 96481
▁standards 96453
▁Engineering 96440
▁interests 96431
▁Arun 96419
ble 96327
▁65 96273
▁delivery 96250
▁younger 96250
▁colours 96244
▁organized 96231
▁boys 96214
▁smile 96180
ton 96152
▁teaching 96099
ological 96079
▁filled 95992
▁luck 95962
Q 95937
▁Cut 95819
▁awareness 95813
▁advantages 95789
▁implementation 95789
▁Pan 95770
▁birds 95733
▁Code 95706
▁Paul 95702
▁eligible 95702
▁Christmas 95626
▁centres 95626
▁se 95588
▁slowly 95572
line 95547
▁topic 95546
itis 95305
▁HD 95304
▁stable 95275
▁contribution 95242
▁certificate 95226
▁components 95221
▁Jay 95180
▁vitamins 95168
▁Malayalam 95157
▁le 95139
▁hundreds 95138
▁actual 95130
▁James 95127
ru 95095
▁Station 95059
▁dispute 95035
▁combined 95032
▁god 95024
▁notification 95004
▁route 95002
▁instance 94992
▁detail 94947
▁Anushka 94946
ases 94884
▁Com 94827
▁Car 94786
▁piece 94675
▁Blue 94657
ek 94631
▁characters 94626
▁ODI 94488
rate 94453
▁previously 94437
▁grown 94380
thing 94365
▁aim 94357
▁medicines 94357
▁Bre 94346
▁square 94330
▁yellow 94293
▁depending 94267
apur 94260
▁equipped 94229
▁websites 94198
▁Sea 94165
▁successfully 94160
▁shop 94133
▁affects 94100
▁Like 94060
▁Kar 94029
▁Le 93932
▁addressed 93903
▁survey 93887
▁owners 93884
▁cabinet 93839
▁offering 93839
▁Ashok 93664
ways 93641
▁rupees 93630
ome 93626
▁calling 93621
▁circumstances 93609
▁tourism 93607
dy 93593
▁Awards 93571
▁seemed 93515
▁toll 93468
▁Ma 93466
ured 93464
arm 93438
gom_Deva 93423
▁identity 93375
▁farm 93356
▁artist 93345
▁stayed 93262
▁helping 93242
▁recommend 93240
▁tradition 93240
▁AP 93226
▁exp 93200
ces 93186
▁Class 93086
▁Organization 93077
▁race 92962
amin 92927
▁consumption 92888
▁courses 92881
▁Action 92880
▁troops 92833
▁moon 92782
▁supposed 92775
▁likes 92772
TI 92770
▁38 92747
▁studying 92747
▁pick 92675
▁external 92648
▁Pal 92629
ox 92619
▁agencies 92596
▁bear 92514
▁Singapore 92473
▁mine 92457
hip 92436
▁Almost 92427
iness 92407
▁guest 92364
▁offices 92363
▁collected 92342
▁Egypt 92282
▁fix 92242
▁consult 92232
▁calm 92229
▁celebrate 92220
▁2006 92193
▁explained 92159
▁accompanied 92114
▁Tell 92112
▁cricketer 92081
arg 92007
anna 91990
jit 91984
▁RBI 91952
▁Sa 91942
▁proof 91923
▁ac 91883
▁background 91836
▁chosen 91808
▁Abdul 91807
▁illness 91803
▁acted 91694
▁respectively 91672
▁44 91582
▁prove 91563
▁electronic 91548
▁west 91491
▁linked 91444
▁Economic 91384
▁manager 91344
▁aid 91262
▁Global 91259
▁guilty 91238
▁danger 91206
▁bowl 91189
▁creation 91129
▁inc 91119
und 91069
▁healthcare 91029
▁confident 91027
ST 91010
▁wearing 90992
au 90878
▁master 90810
anda 90805
▁submit 90778
ost 90771
▁Yet 90770
▁Min 90735
▁gun 90726
▁alternative 90688
▁Center 90577
▁citizen 90532
▁Try 90504
▁anybody 90502
▁Chand 90458
▁Consult 90450
aries 90404
▁complicated 90376
▁scale 90286
▁Beautiful 90259
▁Imran 90256
▁capable 90239
▁ship 90187
▁Sat 90154
anj 90109
▁organisation 90087
amp 90068
▁constant 90045
.5 90042
wa 90030
▁heaven 90026
▁finance 90020
▁Aamir 90019
▁tips 90009
▁theme 90001
▁IS 89971
▁sa 89950
illa 89940
▁Sheikh 89930
▁Work 89928
▁carrying 89918
▁multi 89904
▁parking 89871
▁History 89851
▁union 89833
▁Chandra 89819
▁male 89801
▁revenue 89778
▁Spanish 89762
▁boost 89731
12 89715
▁worst 89634
air 89551
▁42 89546
▁strike 89537
▁restrictions 89503
▁conflict 89468
▁Second 89424
▁processing 89402
▁supporting 89372
▁studied 89339
▁cancelled 89265
▁significantly 89245
atory 89215
▁Policy 89209
▁Mohammed 89190
▁Based 89162
▁awesome 89161
▁Star 89099
ok 89087
▁breast 89062
▁55 89016
▁Web 89016
▁measure 89005
▁Despite 88997
▁Shetty 88991
▁lawyer 88914
▁prior 88911
▁schedule 88856
▁tomatoes 88810
▁mid 88770
▁recognized 88730
▁determined 88718
▁facts 88713
▁meal 88713
▁thy 88634
▁Mac 88610
ays 88573
\ 88560
arn 88546
▁neither 88541
▁recommendations 88478
▁Book 88456
▁Mark 88436
▁losing 88427
▁Gu 88415
▁audio 88405
▁Us 88368
▁George 88355
▁processes 88226
▁holding 88216
▁silent 88213
▁Alia 88189
acy 88150
▁mistakes 88130
ination 88089
▁supports 88071
▁bi 88060
▁Bo 88048
▁worship 87983
▁Dal 87967
▁situations 87951
▁pages 87896
▁depend 87884
▁laid 87835
▁sisters 87786
▁meters 87740
▁okay 87700
▁trading 87685
▁IP 87668
▁sport 87665
rooms 87657
▁cameras 87652
▁technologies 87557
▁valid 87514
co 87454
▁fault 87452
▁Further 87428
▁Temple 87416
▁slightly 87387
▁exact 87363
ren 87339
▁bike 87317
▁ourselves 87313
▁AAP 87258
▁rec 87249
by 87243
▁officially 87239
▁Times 87236
▁drop 87183
iest 87165
▁lovely 87110
▁distribution 87102
▁gathered 87086
▁historic 87079
▁sn 87060
▁emotional 86989
▁ID 86988
▁categories 86957
▁sal 86939
ances 86938
▁Ltd 86922
▁teach 86917
▁restaurant 86869
▁exciting 86824
ras 86789
000 86785
▁River 86772
oms 86747
ata 86684
▁lifestyle 86665
▁encounter 86639
atic 86596
▁Check 86475
row 86469
right 86442
ently 86431
▁button 86408
▁slow 86396
ices 86345
▁stages 86331
▁Recently 86324
▁plea 86322
▁messages 86277
ams 86255
▁sorry 86252
▁respective 86181
▁error 86039
▁Nar 85986
▁broken 85976
▁southern 85957
▁poll 85904
att 85857
▁mountain 85857
ct 85843
ient 85811
▁Kal 85731
▁Pawar 85726
▁sk 85702
hen 85690
▁feels 85681
▁Nav 85655
▁executive 85443
▁investigated 85441
▁Bab 85419
▁environmental 85401
▁locals 85389
▁researchers 85386
▁honey 85343
▁federal 85342
▁panel 85328
▁advance 85324
▁mask 85309
▁understood 85260
▁Per 85236
▁theory 85222
IC 85200
▁resolve 85186
▁2022 85151
▁wounded 85133
▁initiative 85126
ives 85036
CA 85011
▁install 84994
▁Royal 84947
▁besides 84945
▁smooth 84907
▁bilateral 84902
▁Obama 84817
▁hate 84703
11 84663
ctions 84649
▁profit 84645
▁carbon 84639
▁consumers 84626
▁update 84617
▁Dhaka 84609
▁olive 84608
▁Ag 84591
▁Chhattisgarh 84533
▁fan 84510
▁Back 84377
vers 84365
▁industries 84339
▁MS 84337
▁grand 84282
▁Watch 84281
lic 84278
▁links 84258
▁Sp 84252
▁sensor 84240
▁39 84212
the 84209
▁object 84150
▁Rahman 84108
▁shoot 84106
▁advanced 84092
▁egg 84091
▁Youth 84034
▁lemon 84034
ids 84016
▁sustained 84007
▁lie 83987
▁Finally 83874
▁succeed 83847
▁discussions 83829
ja 83803
▁difficulties 83758
▁platforms 83742
▁Media 83740
▁Rights 83723
▁Ge 83703
▁western 83657
▁faster 83656
▁Heavy 83653
ena 83612
▁arms 83610
▁planet 83564
▁feelings 83551
▁Navy 83519
▁2004 83505
▁partners 83492
▁coast 83478
▁behavior 83468
▁improving 83444
▁challenging 83439
▁copy 83425
▁surprise 83416
▁satisfied 83349
▁Sachin 83327
▁Yoga 83290
▁northern 83262
▁dinner 83224
▁Yogi 83207
▁opposed 83176
▁consequences 83164
▁metal 83148
▁vaccination 83121
ka 83119
▁discovered 83087
ition 83083
▁demands 83069
rit 83045
▁Know 83042
▁visitors 83016
▁solar 82982
▁crowd 82942
▁gr 82903
▁combine 82892
▁universities 82866
▁Transport 82835
▁49 82821
▁System 82817
▁origin 82773
ody 82772
speed 82757
▁pleased 82694
ows 82684
▁package 82663
▁reliable 82583
▁defeat 82578
▁iOS 82569
▁Data 82539
▁centuries 82530
▁controversy 82510
▁picked 82501
▁bat 82461
▁JD 82443
▁forced 82426
▁Vit 82418
▁Jharkhand 82372
▁commonly 82354
▁Start 82342
▁output 82334
▁Suresh 82312
▁prop 82309
med 82302
▁Nagar 82288
▁statements 82264
▁Ramesh 82258
▁accidents 82239
▁employee 82217
▁honour 82216
▁Pl 82214
▁peaceful 82197
▁composed 82156
▁resigned 82147
▁2005 82133
ze 82086
▁Lal 82049
▁Kareena 82031
▁grateful 82010
▁brown 81971
.1 81953
▁Gur 81925
related 81913
ils 81799
urs 81742
▁su 81685
▁PC 81667
rop 81547
rd 81525
▁fund 81496
▁Mary 81480
▁organisations 81424
▁smaller 81402
▁journalist 81374
▁entertainment 81203
▁pray 81179
ining 81135
▁institution 81115
▁walking 81115
▁wh 81114
▁parliament 81099
asp 81077
▁Kings 81063
▁promise 81046
▁transferred 81044
▁questioned 80972
▁greatly 80924
▁Men 80896
▁risks 80842
▁Gen 80780
ration 80728
itation 80714
▁squad 80699
▁objective 80688
▁sight 80677
▁reporters 80614
▁ends 80594
ched 80589
▁complaints 80579
nder 80532
▁Im 80512
▁spending 80442
▁mort 80372
▁ticket 80353
▁defeated 80241
▁locations 80241
▁apart 80226
▁counter 80225
int 80194
ime 80140
akes 80108
▁Bharatiya 80103
▁Aadhaar 80085
▁operate 80041
▁Afghan 80018
▁Mission 80016
▁suddenly 80013
▁breath 80000
▁paste 79967
▁manufacturer 79903
ex 79870
▁representatives 79843
▁expand 79776
▁frequently 79733
▁academic 79710
▁welcomed 79622
▁guide 79610
▁basically 79587
mai_Deva 79560
fully 79540
▁van 79486
▁novel 79460
▁grew 79454
▁Remember 79442
▁delivered 79423
▁Sad 79391
level 79386
▁Adityanath 79362
▁sectors 79356
▁motor 79346
▁strongly 79342
ti 79294
▁AI 79285
▁arrangements 79284
▁hero 79281
▁250 79239
▁winner 79220
▁bridge 79173
▁Right 79171
▁practical 79154
▁Qu 79148
▁Mishra 79136
▁shocked 79121
▁Rai 79118
▁Jio 79086
▁stomach 79011
▁verdict 79002
▁lakhs 78981
▁cons 78928
▁fought 78924
▁enhance 78899
▁judicial 78875
▁intelligence 78868
▁ginger 78861
▁funny 78857
▁chances 78838
▁vaccines 78826
▁Prakash 78811
▁investors 78788
elling 78737
▁communities 78726
▁crash 78726
▁causing 78672
▁la 78664
▁expenses 78617
▁Speaking 78611
eth 78603
▁artists 78597
▁Diwali 78577
▁steel 78575
▁cheap 78573
ev 78554
▁Though 78546
▁exams 78488
▁library 78486
▁province 78483
▁Cl 78461
▁Middle 78454
AR 78443
amb 78401
▁leg 78377
▁ye 78362
▁password 78292
ches 78279
iss 78269
▁invest 78221
eb 78193
▁legs 78189
▁Himachal 78132
▁privacy 78125
▁element 78060
▁applicable 78017
▁otherwise 78006
▁WHO 78005
▁Mohan 77970
▁qu 77916
▁fundamental 77863
▁Ra 77861
▁Happy 77858
▁characteristics 77837
▁visible 77804
▁responded 77793
▁Gupta 77762
▁protesters 77762
▁guys 77758
▁schemes 77750
▁adding 77734
▁Ravi 77732
oor 77703
▁commitment 77676
▁Tokyo 77645
▁villagers 77638
yl 77618
▁therapy 77607
▁stores 77601
▁tells 77600
▁welfare 77585
▁Thiruvan 77583
▁bottom 77555
▁networks 77547
▁solved 77541
▁Mom 77532
▁proved 77524
▁Thakur 77508
▁defined 77486
▁Coronavirus 77481
ography 77416
ros 77413
▁serving 77374
▁dollars 77370
▁fever 77322
▁camp 77312
uck 77310
▁Mahatma 77290
▁MPs 77259
ON 77210
▁closely 77205
▁plus 77203
▁tired 77196
▁Was 77164
ack 77139
▁cooking 77138
▁affairs 77043
▁respons 77001
▁transportation 76953
▁cycle 76902
ck 76898
inal 76880
▁deputy 76880
▁Child 76869
▁ran 76859
▁walls 76851
.2 76849
ene 76833
▁miles 76802
▁weak 76791
▁assets 76780
▁Mo 76779
▁Kamal 76759
▁paying 76759
▁earn 76710
▁Sinha 76695
ours 76656
▁Friends 76645
ger 76624
▁commission 76620
▁Project 76608
▁monthly 76605
▁ruled 76588
ctor 76552
▁120 76550
▁sufficient 76541
▁compensation 76522
▁herself 76488
▁provisions 76483
▁courage 76454
▁ages 76430
▁oldest 76417
▁booked 76400
▁marry 76394
anthapuram 76382
▁ST 76359
▁crops 76332
▁Moreover 76324
▁Sunil 76322
▁consumer 76272
ction 76232
▁afternoon 76224
▁demanding 76220
ood 76158
rom 76154
▁focused 76134
▁dates 76106
▁Uttarakhand 76102
30 76071
▁situated 76068
▁volume 76066
oot 75983
▁toss 75950
pp 75948
▁ok 75937
▁SBI 75924
▁Rem 75906
▁Application 75886
▁dress 75879
▁Rajiv 75810
▁em 75809
▁banking 75794
▁distributed 75789
▁Sim 75781
osis 75745
▁telling 75730
ivity 75708
▁medication 75674
▁Up 75650
▁1.5 75640
▁Card 75612
▁infections 75606
▁clients 75579
▁stored 75537
▁Manmohan 75518
▁travelling 75509
▁constitution 75501
▁ordinary 75441
▁era 75438
ight 75430
▁fill 75428
▁Ranbir 75423
▁keeps 75357
▁Cre 75336
▁bigger 75334
▁Att 75247
umb 75246
▁crying 75236
▁garden 75224
▁Mahesh 75165
▁Iraq 75113
ory 75084
▁bo 75080
▁taxes 75076
▁resolved 75048
▁transmission 75044
▁convenient 74977
▁dating 74969
▁investigations 74932
oda 74931
▁dropped 74913
▁43 74907
▁relax 74890
▁Mess 74851
▁factory 74846
▁Space 74800
▁staying 74793
▁neck 74789
▁Samsung 74774
▁creative 74772
▁Prize 74764
hel 74742
▁Foundation 74657
▁initially 74657
▁wealth 74653
▁shower 74609
▁Word 74600
▁Bas 74560
▁maintained 74533
▁warning 74472
▁continuing 74452
▁permitted 74438
▁buses 74435
ains 74433
▁Nob 74409
▁museum 74407
▁El 74379
SC 74364
▁sin 74357
▁Jag 74356
▁friendship 74350
▁wild 74344
▁thick 74342
▁Conference 74333
▁inaugurated 74328
rates 74327
ave 74319
▁External 74314
▁Ranveer 74294
▁Church 74283
▁Express 74265
▁ties 74261
▁Roy 74237
▁Johnson 74228
▁holy 74206
▁wicket 74200
▁miss 74154
▁Malaysia 74148
▁AD 74115
▁Energy 74099
▁Museum 74098
▁finish 74061
▁protected 74050
▁unt 74018
▁obtain 74012
▁desired 73998
▁Everybody 73995
▁Financial 73994
▁temples 73993
▁priced 73978
oy 73952
▁Indonesia 73913
▁realize 73913
▁Nobel 73897
cer 73872
▁restaurants 73805
▁minute 73790
▁sing 73773
iled 73772
▁pop 73771
▁rivers 73765
▁yesterday 73758
.3 73744
ipur 73709
▁rose 73702
▁corona 73654
va 73631
▁possibly 73629
▁Thackeray 73627
▁rail 73607
▁Age 73542
▁devotees 73540
▁difficulty 73521
▁Inc 73514
▁finding 73491
▁IPC 73482
▁rid 73473
▁map 73452
▁ve 73449
▁Peter 73415
▁ag 73379
▁relatively 73374
▁Local 73365
▁suggested 73321
▁warned 73309
▁USB 73300
▁farmer 73248
▁anger 73164
▁Amarinder 73161
▁thoroughly 73153
▁contribute 73122
▁UAE 73069
▁producing 73038
▁visiting 72961
▁constructed 72960
▁cor 72960
▁solid 72947
▁elect 72932
▁photographs 72923
▁accurate 72911
▁Ser 72909
▁Peace 72882
ode 72819
▁Otherwise 72815
▁cholesterol 72815
▁context 72804
▁prominent 72777
SS 72730
▁Di 72726
▁Naidu 72700
▁emerged 72693
▁Independence 72675
ham 72629
uted 72611
▁masks 72584
▁Karan 72550
▁controlled 72538
▁flood 72493
▁delicious 72467
▁Ben 72444
▁license 72405
▁gained 72364
▁household 72336
▁telephone 72335
over 72327
▁affordable 72265
▁adopted 72237
▁falling 72180
▁Italian 72161
▁interior 72100
ishing 72099
▁quarter 72076
▁chaired 72071
▁deliver 72054
ones 72050
▁Society 72041
▁subsequently 71914
▁Biden 71911
▁flu 71855
ulate 71836
▁participation 71784
ool 71777
amm 71673
▁exists 71664
▁preparing 71663
▁sizes 71634
▁newspaper 71616
▁currency 71608
▁Boss 71596
▁PTI 71587
▁eastern 71508
▁purchased 71508
▁implement 71498
▁reducing 71496
▁payments 71475
▁kid 71455
free 71452
▁expression 71451
▁Captain 71441
▁perfectly 71436
▁net 71420
▁aspect 71408
▁Common 71377
use 71369
▁effectively 71361
▁declined 71358
▁formation 71315
ively 71313
▁Break 71295
▁Organisation 71293
▁falls 71278
▁headquarters 71278
▁prize 71265
▁passenger 71248
body 71214
▁ter 71180
▁articles 71177
▁cream 71175
▁strange 71173
▁founder 71167
ima 71153
▁41 71105
▁upset 71045
▁shopping 70995
TC 70993
▁exception 70978
▁breathing 70936
▁captured 70933
.0 70911
off 70894
▁expectations 70884
▁AM 70869
▁guarantee 70856
▁Welfare 70853
▁wood 70816
▁Cost 70798
▁inform 70784
▁ice 70752
▁physician 70742
▁Federation 70740
▁beach 70717
▁assured 70704
▁upper 70650
CC 70584
▁Doctors 70576
▁revolution 70540
▁trend 70538
ven 70456
.8 70442
▁Main 70428
ami 70425
eep 70413
▁snow 70393
▁streets 70369
▁comm 70297
ously 70271
▁monitoring 70255
▁fake 70249
▁Store 70247
▁Ac 70244
▁connectivity 70228
▁disappointed 70220
▁Moscow 70215
▁departments 70167
hat 70155
▁aged 70143
▁chopped 70118
ences 70041
▁Kapil 70040
▁mar 70035
▁imagine 70033
▁poet 70024
ander 69974
▁prayers 69970
▁doors 69955
▁fantastic 69950
▁sat 69945
▁Industry 69934
▁Ter 69921
▁poverty 69918
▁yoga 69908
▁Cor 69907
▁Dhawan 69904
▁Indies 69888
▁10,000 69884
▁ob 69878
▁46 69866
▁considering 69835
▁Jerusalem 69817
meric 69806
▁digest 69765
ila 69720
▁lucky 69714
▁auto 69705
▁Muhammad 69682
▁directions 69675
istan 69668
▁Never 69638
▁sounds 69636
▁evil 69631
▁belong 69614
-1 69605
▁faces 69604
▁Eastern 69581
▁Ash 69569
▁learnt 69561
▁windows 69551
▁establish 69549
back 69500
▁Bureau 69461
▁Aw 69452
▁Tourism 69451
oss 69418
▁showing 69409
▁meals 69359
▁Digital 69338
19 69336
▁resistance 69309
▁quit 69300
▁prayer 69294
▁liquid 69287
ried 69282
▁policemen 69268
▁band 69247
▁principles 69244
▁Give 69234
▁Syria 69233
▁rescued 69200
▁wins 69176
▁Chandigarh 69171
▁Top 69171
.4 69170
▁hadn 69167
▁Trans 69089
▁pace 69087
istic 69065
▁Shankar 69042
▁Master 69038
▁Saif 68960
ere 68952
▁Greek 68944
▁Trade 68940
ID 68920
▁2003 68877
▁Assistant 68864
▁promised 68864
▁Unfortunately 68830
▁script 68792
▁mention 68788
▁wake 68769
▁Agency 68763
▁dual 68763
TE 68762
▁represented 68752
▁debt 68748
▁sir 68746
▁extent 68745
▁reviews 68736
anth 68705
▁Prince 68697
▁crop 68682
▁valuable 68653
▁Similarly 68649
▁Bad 68646
fast 68614
▁browser 68593
▁sentence 68561
▁immune 68558
book 68556
.9 68555
▁AN 68541
▁custom 68534
▁entering 68521
ever 68513
▁Reserve 68481
uring 68473
▁spreading 68464
▁Ass 68430
▁Nitish 68415
▁Six 68409
ache 68408
▁tourist 68402
▁association 68384
▁smartphones 68380
▁dismissed 68366
▁2001 68362
ino 68360
▁Padukone 68358
▁und 68358
▁assist 68354
▁SD 68332
ulation 68304
-3 68285
▁Applic 68284
▁shoes 68271
▁Kaur 68236
▁load 68211
▁Show 68170
▁dogs 68146
▁Dis 68135
▁resignation 68116
▁Ap 68111
akh 68105
▁harmful 68084
▁weren 68070
▁lunch 68065
▁blast 68057
▁Smith 68029
▁investigate 67977
▁Soviet 67937
▁escape 67932
▁gradually 67916
▁tickets 67913
▁fly 67879
ole 67867
▁conducting 67846
▁brings 67829
▁lake 67790
▁computers 67775
▁suspect 67773
▁Bombay 67762
▁minerals 67759
▁Cong 67751
ited 67693
▁mon 67668
▁sets 67628
AC 67596
con 67566
▁Reliance 67565
ced 67519
▁transactions 67505
▁52 67504
▁def 67472
▁47 67465
my 67464
▁familiar 67431
▁emotions 67405
▁preparation 67391
▁Abu 67374
member 67340
oh 67297
yan 67256
▁ent 67247
▁visa 67237
▁99 67233
▁Investigation 67219
OS 67215
▁passing 67215
amed 67189
ause 67189
▁dies 67177
▁ant 67166
▁nose 67148
aram 67141
▁fees 67130
▁core 67098
▁reduces 67093
▁mandatory 67062
▁collect 67048
▁Computer 67034
▁forgotten 67026
cy 67003
▁calcium 66995
room 66994
▁Br 66989
▁Aren 66980
▁necessarily 66977
▁turns 66977
▁earned 66974
ility 66963
' 66957
▁circuit 66956
▁Trust 66937
▁flag 66936
▁prefer 66930
▁survived 66926
▁primarily 66879
▁TMC 66878
▁lights 66849
▁refers 66778
wara 66764
aking 66719
▁formal 66698
▁server 66688
▁channels 66687
▁bringing 66633
▁variant 66619
▁opinions 66615
▁flat 66594
▁reg 66591
▁Amendment 66561
ort 66556
▁catch 66517
▁powers 66517
ises 66503
▁practices 66480
▁dec 66464
ote 66453
▁militants 66444
▁RSS 66395
pped 66394
▁Administration 66394
▁print 66282
ement 66260
▁Has 66259
ark 66237
▁journalists 66196
▁Abhishek 66173
▁engines 66172
de 66163
▁celebration 66163
▁walked 66148
▁listening 66142
▁Arab 66093
▁Protection 66081
▁Thousands 66079
ord 66066
▁behalf 66064
IS 66046
inch 66042
▁retired 66039
get 66027
▁Christians 65969
▁shortly 65962
abh 65955
▁Acc 65952
▁Ye 65951
-20 65930
▁firing 65879
▁el 65878
▁argument 65863
▁mm 65857
▁ED 65808
▁Michael 65761
AM 65741
cent 65696
ibility 65637
inn 65627
▁edition 65627
orn 65579
▁principal 65579
▁AL 65573
▁Pre 65529
▁mult 65495
▁vast 65489
▁mixed 65454
OU 65447
▁earthquake 65446
▁borders 65437
▁returning 65423
▁calories 65411
ored 65394
▁usual 65386
▁Death 65366
iles 65365
gan 65343
▁ji 65319
▁terrible 65310
▁investments 65283
▁inspired 65281
▁updated 65242
▁pleasant 65206
▁losses 65199
rad 65191
ops 65182
▁collaboration 65180
▁Mand 65174
▁Joint 65135
▁Rec 65127
▁applies 65115
▁voting 65108
▁charging 65082
▁electrical 65039
▁experiment 65038
▁participating 65021
ibilities 64987
▁lay 64960
▁personality 64959
run 64930
▁Das 64928
▁equally 64926
▁appealed 64918
Z 64909
▁sensitive 64906
▁believes 64903
que 64900
avi 64871
▁Head 64859
▁resign 64842
AS 64821
▁acts 64820
▁violation 64804
▁Democratic 64799
▁CO 64787
US 64776
▁Bigg 64762
80 64749
▁humanity 64747
▁Lucknow 64727
ested 64679
ner 64672
▁professionals 64662
▁Shahid 64660
ral 64652
▁clothing 64645
▁pending 64631
▁principle 64630
▁ap 64613
▁BSP 64588
▁adequate 64565
▁intended 64561
▁Premier 64542
▁highway 64526
▁activists 64516
used 64512
▁poetry 64463
▁equivalent 64457
▁Press 64416
ree 64402
der 64357
▁voters 64329
▁unusual 64326
osh 64299
▁corporate 64295
▁samples 64284
▁notes 64275
▁min 64274
▁improvement 64231
▁stronger 64220
▁Ak 64209
▁Thomas 64193
▁followers 64179
▁Budget 64173
▁completion 64161
▁Port 64150
▁quantity 64137
▁definition 64132
▁° 64080
▁relation 64052
▁vary 64051
▁600 64040
▁murdered 64025
-2 63997
▁Kong 63997
▁popularity 63977
▁Ireland 63974
▁approached 63969
so 63963
▁courts 63924
▁Sit 63922
▁efficient 63916
▁Kovind 63913
▁realized 63909
▁depression 63895
▁Video 63894
law 63828
ying 63794
▁voted 63790
enger 63784
▁fairly 63780
▁letters 63780
IN 63773
▁shock 63771
18 63762
▁Grand 63734
▁decade 63730
omer 63727
▁spokesman 63717
▁Hong 63714
pal 63675
▁portion 63653
▁CPI 63641
cl 63626
▁toward 63625
▁obvious 63621
▁batsman 63609
ann 63600
▁labour 63599
ear 63581
▁Would 63579
▁existence 63567
aul 63543
▁enemy 63539
▁Dec 63530
▁export 63526
ined 63516
▁chest 63512
▁Mobile 63511
▁aims 63496
▁IC 63476
▁belongs 63459
▁congratulated 63453
▁admit 63448
▁virtual 63448
▁encourage 63445
▁provision 63377
known 63373
▁remarks 63371
▁Jan 63336
▁medications 63324
▁voltage 63317
▁footage 63312
▁shortage 63309
▁rem 63299
▁figures 63298
▁Nehru 63292
▁Sciences 63291
▁stability 63274
▁Ayodhya 63237
gh 63228
▁cat 63208
▁represent 63205
▁Name 63196
ency 63159
▁division 63126
ately 63106
▁mutual 63090
▁polling 63078
ges 63060
▁honor 63052
▁comfort 63050
▁presided 63047
▁choices 63036
▁regulations 63027
▁pot 63019
▁disaster 62998
MC 62995
▁parent 62965
▁moments 62955
▁retail 62944
▁maintaining 62941
▁presidential 62941
▁brief 62928
▁Matthew 62868
▁favourite 62858
▁deeply 62855
▁functioning 62854
.6 62853
▁amounts 62842
▁sudden 62798
iya 62795
▁Res 62785
▁Pandey 62781
▁normally 62757
▁sauce 62754
▁LED 62743
▁resident 62727
▁Festival 62708
▁Ocean 62693
▁Member 62684
▁| 62673
mi 62652
▁democratic 62649
▁component 62644
▁Find 62634
wan 62630
▁Em 62590
▁protesting 62590
▁corner 62577
▁temporary 62566
▁des 62559
▁5- 62556
itive 62529
▁Old 62507
▁remembered 62478
▁reference 62462
▁Prof 62448
▁pool 62444
▁ret 62416
▁powered 62383
▁maintenance 62341
▁owned 62336
▁51 62334
▁reaching 62320
▁council 62319
▁SS 62314
▁2002 62309
▁positions 62294
▁monitor 62242
▁Without 62227
▁versions 62207
▁Young 62153
▁drivers 62118
▁Cho 62108
▁boil 62083
▁mountains 62057
▁efficiency 62037
▁adult 62025
▁replied 62024
▁attempts 62023
▁hall 61990
▁contesting 61954
oring 61953
▁Babu 61931
ued 61914
▁motion 61909
nes 61892
▁criticism 61886
▁aw 61881
▁provider 61848
po 61825
▁personally 61800
▁native 61793
▁Srinagar 61775
▁threatened 61765
é 61764
▁Executive 61740
▁consideration 61724
▁branch 61698
ign 61687
▁hosting 61680
ese 61675
▁Sure 61634
▁Joseph 61631
▁beings 61620
▁storm 61620
▁1,000 61601
▁strategic 61596
▁teeth 61551
▁refer 61526
▁diverse 61515
▁semi 61499
▁arrive 61493
ube 61458
▁avail 61456
ital 61450
▁album 61447
▁370 61410
▁Account 61372
▁displayed 61367
▁equation 61355
▁Katrina 61348
▁expert 61348
▁surprising 61339
▁somebody 61327
▁1990 61271
▁punishment 61243
▁tur 61235
▁bread 61232
▁Change 61216
▁possession 61198
▁Ajit 61188
▁sand 61178
▁skill 61162
nagar 61112
▁chat 61111
▁85 61097
▁blame 61092
▁Still 61088
het 61068
▁chain 61016
▁bacteria 60994
▁index 60971
▁tight 60964
▁pleasure 60951
▁machines 60924
▁Say 60913
▁Sal 60885
▁Whether 60800
▁Nitin 60779
▁preparations 60741
▁Sidhu 60719
▁Money 60660
▁bird 60655
▁nutrition 60651
▁Perhaps 60645
ved 60644
▁Commerce 60638
▁outcome 60634
▁Devi 60627
▁thanked 60597
▁trailer 60578
etic 60549
▁celebrations 60532
we 60512
▁tension 60504
▁clash 60503
son 60501
▁ratio 60500
▁accordance 60473
▁sleeping 60455
▁domain 60432
ctors 60421
The 60396
▁attitude 60336
ky 60335
▁papers 60295
▁limits 60286
▁extend 60283
▁Language 60244
▁applying 60229
▁medals 60228
DA 60222
▁AC 60218
▁fore 60202
▁fitness 60197
▁constituencies 60151
.7 60132
▁photograph 60122
▁pure 60099
▁Conf 60067
▁Jud 60032
ular 60030
▁Scheme 60028
▁crew 60017
▁watched 59986
▁nut 59967
▁explanation 59945
▁salary 59898
▁Queen 59872
pan 59847
▁promoting 59833
▁Parents 59830
▁Cust 59765
▁Tom 59762
ater 59748
▁Sitharaman 59743
▁featured 59728
▁sil 59719
▁Guru 59708
▁assault 59700
▁attractive 59691
▁Abdullah 59685
▁Prov 59685
▁bag 59655
king 59649
ares 59630
▁administrative 59621
ality 59601
▁Rajesh 59600
▁feed 59596
▁ear 59583
board 59559
▁Mahindra 59553
▁worker 59502
▁inspiration 59499
▁Oil 59494
▁mag 59472
ick 59453
▁automatic 59449
▁belief 59440
▁objects 59424
▁Construction 59411
▁Speaker 59401
▁pres 59400
▁sixth 59394
oli 59389
▁Fadnavis 59386
▁attached 59348
ond 59332
▁annually 59328
▁enable 59328
▁count 59323
charge 59291
▁empty 59291
▁breakfast 59286
▁requirement 59258
▁Inf 59252
▁kidney 59228
▁smoking 59226
▁advertising 59190
rant 59172
▁dear 59156
▁Malik 59132
▁Cond 59130
▁Tendulkar 59120
▁Bhag 59098
▁describe 59098
▁Online 59077
▁procedures 59072
▁profile 59071
▁Indira 59066
▁Consequently 59060
▁zone 59000
▁drama 58998
▁rock 58997
orry 58994
rap 58994
▁reasonable 58917
▁bro 58863
▁Jaitley 58855
▁forth 58845
▁pm 58817
▁explosion 58795
▁SE 58757
▁Ambani 58746
▁reduction 58724
▁Des 58720
▁rapid 58716
▁tasks 58695
▁Joe 58677
▁Col 58667
▁cry 58660
▁abuse 58644
▁continuously 58644
▁nutrients 58641
▁temperatures 58641
▁hotels 58635
▁trained 58593
hand 58590
▁blend 58586
▁recognize 58583
▁resulted 58575
▁putting 58564
▁newly 58562
▁decrease 58546
sc 58521
▁armed 58520
▁prescribed 58486
▁Stadium 58470
▁Real 58468
▁grief 58447
ES 58435
▁loving 58418
▁competitive 58368
▁Bus 58356
IM 58344
▁suit 58344
▁Cover 58309
▁allowing 58307
▁SMS 58296
▁suggest 58285
▁dep 58279
▁Kan 58267
bed 58239
▁merely 58235
ues 58233
ple 58229
rats 58220
rid 58205
▁elderly 58200
▁bond 58181
▁technique 58150
▁amongst 58142
▁percentage 58142
▁noticed 58119
▁summit 58108
▁Connect 58101
▁installation 58093
▁qualified 58089
▁hearts 58074
16 58071
▁innovation 58061
▁techniques 58045
rib 58023
▁nervous 58011
▁PS 58008
▁liver 57985
▁Federal 57982
▁assistant 57966
▁availability 57914
SE 57911
▁boat 57903
-4 57891
ury 57878
ora 57869
▁bomb 57849
eng 57845
▁governor 57800
▁architecture 57760
▁800 57744
▁coal 57738
▁Ok 57729
▁Ban 57728
▁overs 57717
▁1000 57714
▁54 57700
▁analy 57693
▁stick 57690
▁consecutive 57688
▁doses 57675
▁Communication 57662
▁comprehensive 57661
▁delay 57654
▁estate 57650
▁closer 57649
▁somewhere 57619
▁skipper 57594
▁excess 57549
▁furniture 57546
gar 57545
▁witness 57515
▁Ladakh 57512
cept 57505
▁Light 57504
▁NDA 57503
▁anxiety 57481
▁pattern 57478
cing 57444
▁Should 57438
▁balls 57437
▁returns 57436
▁motorcycle 57433
▁speaks 57427
▁supplies 57426
▁com 57421
lying 57416
ifying 57368
ancy 57363
▁addressing 57363
▁secondary 57363
uri 57351
▁Leader 57351
being 57329
▁panic 57316
▁blocked 57304
OC 57278
olic 57269
▁description 57251
ips 57226
▁labor 57213
▁suspected 57186
▁Mir 57140
▁supp 57130
▁survive 57130
▁subjects 57086
▁retirement 57082
▁fiber 57080
▁flash 57077
pat 57073
▁Bengali 57073
▁asks 57066
▁Fl 57052
AP 57022
▁appointment 56993
uter 56981
▁raped 56913
▁vacation 56898
▁vs 56890
▁Petrol 56877
▁Municipal 56876
▁Moh 56843
▁GDP 56824
▁ease 56773
▁kingdom 56769
▁professor 56764
▁Kangana 56758
▁Northern 56715
▁None 56698
port 56691
▁1980 56681
▁chicken 56659
▁menu 56596
iling 56558
▁Sah 56548
▁manufacturers 56542
17 56525
▁72 56459
▁twenty 56436
▁decline 56427
▁TDP 56415
▁hide 56398
▁fired 56361
ually 56359
▁Design 56355
▁client 56336
▁bedroom 56304
▁Program 56303
▁heritage 56255
15 56237
aus 56233
▁farming 56224
▁muscles 56185
▁Roman 56183
▁satellite 56171
▁chair 56157
▁Off 56156
▁integral 56140
▁talent 56138
▁mess 56135
▁Think 56134
▁thankful 56105
▁Cont 56091
▁Wh 56083
▁intention 56077
▁gender 56071
▁const 56053
▁tend 56010
ba 55971
▁grams 55965
oke 55956
▁spring 55947
▁Dam 55932
▁DC 55914
preet 55901
▁expanded 55885
▁dam 55873
▁calendar 55865
▁Metro 55856
▁Nirmala 55835
▁Championship 55833
rated 55831
▁aimed 55823
▁promises 55798
▁thereafter 55791
ft 55783
athi 55781
▁fastest 55780
▁lying 55733
▁wonder 55724
▁IN 55712
▁Small 55705
TA 55701
▁expecting 55683
▁entrance 55661
▁sum 55642
▁toilet 55631
▁ass 55630
▁parliamentary 55626
▁constituted 55623
▁arm 55622
▁rub 55616
▁cough 55605
▁Down 55596
▁continuous 55572
▁56 55537
▁painting 55526
▁produces 55520
aps 55518
ula 55510
▁OK 55451
SP 55449
▁behaviour 55424
▁withdraw 55419
▁consent 55396
▁Sk 55315
▁item 55315
▁Latin 55299
▁er 55288
▁represents 55288
▁1, 55237
▁uns 55227
▁politician 55224
▁Ant 55197
bers 55194
▁penalty 55176
▁Korean 55169
▁Tal 55117
▁Professor 55095
▁replaced 55075
▁Moon 55061
▁Pawan 55035
▁possibilities 55027
▁expansion 55016
▁Long 55014
▁Especially 54993
IB 54990
̣ 54971
▁exc 54969
▁significance 54945
▁Tests 54943
40 54917
▁128 54914
▁dollar 54900
▁1999 54890
▁settled 54890
▁severely 54875
▁destroy 54873
▁Ed 54869
▁Mon 54868
▁witnessed 54866
India 54855
▁Joshi 54847
▁input 54835
▁pair 54823
▁Sum 54808
▁Industries 54801
▁che 54801
▁Income 54782
▁alongside 54760
▁achievement 54756
▁Culture 54725
▁broad 54716
▁Canadian 54714
▁Search 54709
▁correctly 54705
▁dose 54702
▁pack 54701
▁nic 54698
▁Manipur 54679
▁chapter 54679
▁admission 54663
bir 54654
▁Personal 54648
▁united 54648
▁agent 54646
▁caste 54629
▁favour 54596
▁Shiva 54595
▁recognised 54589
ired 54587
▁Galaxy 54585
▁Members 54571
ullah 54553
uts 54548
da 54547
▁Credit 54537
▁Hossain 54507
▁incredibly 54505
▁lit 54474
▁pol 54440
▁phases 54437
▁involves 54428
▁incredible 54427
ables 54418
▁potassium 54417
▁coverage 54404
▁absence 54385
▁passport 54372
▁specifically 54358
utely 54339
▁Plan 54282
▁Mur 54253
▁Hollywood 54250
▁Empire 54242
▁Private 54204
▁beds 54200
▁180 54199
▁HDFC 54182
▁relating 54181
ove 54158
▁funding 54154
▁globe 54150
▁Bi 54146
▁sustainable 54141
▁Cur 54135
▁Devendra 54125
▁safely 54118
▁Absol 54111
▁fraud 54094
▁surely 54067
ira 54030
▁cleaning 54021
ef 53983
▁Che 53967
▁Plus 53958
▁Principal 53951
▁Lear 53943
▁Stay 53940
▁Street 53895
▁Major 53881
▁Environment 53871
▁Banks 53852
▁drinks 53832
▁whereas 53827
▁globally 53821
▁mill 53818
14 53813
▁Forest 53801
▁unless 53787
▁variants 53761
▁Vietnam 53759
▁ph 53746
▁Netherlands 53733
▁sample 53733
▁carb 53729
▁outstanding 53677
view 53669
van 53655
SA 53646
▁dialogue 53615
aji 53610
▁replace 53593
ert 53574
▁acids 53557
▁Apparently 53548
▁bin 53534
▁physically 53529
▁Sharad 53526
▁composition 53524
▁premises 53516
RI 53510
izes 53508
▁clinical 53503
▁row 53498
▁joining 53496
tra 53485
▁muscle 53481
▁jointly 53476
▁discount 53464
▁Nir 53437
▁readers 53419
▁enemies 53418
ppers 53414
▁destination 53399
▁Superintendent 53380
▁sentenced 53376
▁Industrial 53369
▁hyd 53369
▁stressed 53369
▁Pacific 53347
▁silence 53314
▁Holy 53298
▁whenever 53295
▁interface 53294
▁Kalyan 53289
▁Patil 53276
▁citizenship 53276
ema 53265
▁Insurance 53249
▁pivotal 53229
▁Ann 53214
▁surrounding 53210
▁comprises 53188
▁ranked 53188
▁Schools 53185
▁philosophy 53151
▁repeat 53147
▁53 53063
▁automatically 53042
▁feedback 53040
▁import 53040
▁seed 53040
unt 53034
▁res 53019
▁95 53001
▁generated 52966
▁grant 52961
▁signal 52961
rating 52948
▁Land 52947
▁ref 52946
▁diagnosis 52921
▁Sab 52904
▁Spirit 52899
hana 52893
▁extensive 52869
▁Patna 52854
▁warrant 52854
▁Ukraine 52844
ern 52802
▁cure 52802
▁fighter 52800
▁Political 52797
iy 52793
uss 52771
▁Hon 52767
▁dish 52737
▁duration 52723
▁painful 52680
▁exercises 52676
▁Swaraj 52664
▁Applications 52637
MA 52636
▁centers 52635
une 52625
▁crimes 52624
▁combat 52575
▁Smart 52563
▁religions 52536
▁recover 52535
▁Kaif 52506
vel 52505
▁Sikh 52503
▁Bath 52501
▁BS 52489
▁ash 52489
▁objectives 52484
▁housing 52467
iveness 52435
▁wine 52433
▁metres 52419
▁Nawaz 52403
▁Need 52371
▁tele 52369
▁condemned 52368
▁Sharif 52357
▁outbreak 52353
▁Pass 52337
▁heads 52313
▁questioning 52305
aged 52299
▁Photo 52273
▁updates 52256
▁rel 52252
▁Motor 52223
▁Sara 52207
▁accessible 52193
▁tennis 52188
▁duties 52170
▁Raja 52165
▁La 52157
PS 52124
▁communicate 52113
▁dist 52109
▁pension 52085
▁traditions 52076
▁Airtel 52072
▁Crime 52061
mit 52060
▁Te 52057
▁asleep 52042
▁Instead 52031
▁stones 52026
▁Valley 52000
EC 51994
▁pur 51959
▁golden 51955
▁guidance 51953
▁nominated 51953
▁apartment 51951
▁Benef 51931
▁59 51924
▁Miss 51913
ards 51903
▁initiatives 51889
class 51880
▁obviously 51880
▁setup 51863
▁manual 51860
▁cable 51843
▁Sm 51841
▁wheat 51830
ores 51809
▁naturally 51779
▁depth 51778
▁settings 51763
pping 51761
▁layer 51732
▁ought 51731
adh 51719
▁Celsius 51704
▁pride 51681
▁Cr 51675
▁fail 51672
▁lifetime 51624
▁Rural 51620
ola 51608
hy 51569
▁Building 51568
▁Elections 51534
▁reforms 51532
▁noise 51499
▁sheet 51498
match 51494
▁> 51483
▁sending 51476
▁ev 51466
▁passes 51453
▁litre 51452
▁capabilities 51448
▁celebrities 51448
▁att 51443
60 51442
▁gathering 51435
▁ang 51425
▁sessions 51422
▁cal 51417
▁perspective 51403
▁Disc 51394
▁Set 51393
▁operational 51391
▁exceed 51377
▁Agreement 51372
itude 51366
▁performing 51352
▁Woman 51337
▁Pra 51316
▁coconut 51296
▁attract 51292
oph 51290
pend 51243
▁pink 51228
▁processor 51179
▁Manohar 51175
osing 51171
▁Nand 51153
▁fold 51140
13 51080
▁burning 51076
▁Amb 51074
▁floods 51073
▁Having 51063
▁guard 51060
ny 51055
aman 51050
▁OS 51035
▁raw 51019
▁kil 51008
▁Bluetooth 51007
▁islands 50987
▁cow 50976
▁ensuring 50926
▁Training 50885
▁IIT 50867
▁Number 50862
▁strictly 50849
▁choosing 50841
▁cautious 50839
▁premium 50833
ML 50828
▁classic 50818
▁stroke 50806
▁generate 50797
▁Sweden 50793
▁Manoj 50791
▁presently 50771
▁Gar 50767
▁deposit 50765
▁campus 50755
▁commissioner 50734
▁Def 50720
▁recognition 50718
bar 50717
▁Marathi 50704
▁Gal 50671
▁Mukesh 50669
▁hoping 50661
▁substances 50647
▁Staff 50643
▁styles 50618
▁fulfilled 50612
▁judgment 50595
work 50589
▁judges 50589
▁Myanmar 50580
▁antioxid 50566
▁originally 50516
▁Mat 50504
▁differ 50504
ns 50487
▁Abraham 50466
▁ge 50458
▁afford 50457
▁mood 50428
▁suspects 50423
▁con 50419
▁Summit 50415
▁ocean 50395
▁govt 50389
▁squ 50384
▁singing 50378
▁viewed 50376
▁vegetable 50365
▁Penal 50344
▁comprising 50343
▁Select 50330
▁CRPF 50327
▁Texas 50315
▁concluded 50272
▁HC 50196
▁Gang 50182
▁zero 50177
▁spotted 50166
▁romantic 50158
▁unity 50155
raj 50143
▁extreme 50139
▁Network 50121
▁bedrooms 50119
IP 50116
▁prohibited 50109
-- 50105
▁Club 50090
▁onto 50087
▁Max 50083
▁repeated 50051
▁Del 50050
▁CD 50042
▁dealing 50016
oth 50002
▁tonight 50000
▁brands 49996
PC 49989
▁react 49985
ching 49982
▁deleted 49975
oe 49945
ided 49941
▁mad 49941
▁Soon 49940
▁scam 49940
▁poster 49939
▁root 49939
bit 49938
ique 49931
▁fool 49915
▁controversial 49905
▁discharged 49905
▁Ja 49896
▁sharp 49873
fer 49866
usion 49864
▁1998 49849
▁editor 49849
▁laugh 49844
ix 49837
▁concerning 49836
▁condolences 49834
▁Ahmad 49805
21 49798
▁downloaded 49775
▁Mukherjee 49768
ray 49764
▁legislation 49750
asty 49742
▁crossed 49740
mon 49735
▁Journal 49731
▁recruitment 49686
bh 49679
▁Israeli 49677
utes 49669
▁titled 49656
▁gre 49638
▁Bay 49619
▁chronic 49615
▁Muk 49591
▁62 49574
▁profession 49561
▁patience 49554
▁weapon 49541
▁ride 49512
▁cheese 49509
ware 49503
▁panchayat 49495
DP 49478
▁stake 49454
▁poem 49451
▁cr 49443
▁int 49435
▁connections 49428
▁Thereafter 49406
▁Gill 49389
▁Mad 49389
▁colleagues 49387
ped 49345
▁Baj 49344
▁chose 49344
▁Auto 49343
ED 49312
▁Capital 49304
▁pilot 49286
▁tomato 49279
▁organic 49277
▁Better 49266
▁ser 49259
astic 49248
▁conclusion 49244
▁Hel 49232
▁peak 49229
min 49201
▁Aishwarya 49194
▁usage 49178
▁@ 49177
▁57 49161
▁Hey 49161
▁Access 49154
▁Price 49149
▁reward 49132
▁arrival 49131
LA 49127
cted 49124
▁pet 49109
▁promotion 49053
▁covers 49039
▁potatoes 49031
che 49018
▁repair 49017
▁Thailand 48998
▁Gadkari 48991
ades 48987
oin 48975
▁memories 48973
ni 48925
ndra 48921
▁qualities 48891
▁statue 48888
▁dependent 48878
▁Turkish 48875
▁Customers 48872
▁quoted 48870
▁missile 48861
▁58 48858
▁specified 48858
▁Hard 48815
▁attending 48807
▁reactions 48780
mat 48752
▁Cal 48744
▁bronze 48733
▁journal 48724
ologist 48711
▁opt 48705
▁supporters 48704
▁Things 48684
▁Uddhav 48681
▁HIV 48670
▁Afterwards 48658
▁Various 48644
▁CBSE 48639
▁hopes 48630
▁cute 48625
▁reserved 48607
▁weekend 48597
▁Vis 48580
▁complained 48550
▁Division 48544
▁arts 48544
▁oath 48536
▁lady 48510
▁Dutt 48502
▁Tej 48482
▁Expl 48462
ups 48392
▁honoured 48386
▁Los 48383
▁competitions 48382
ener 48317
▁Manish 48317
▁politicians 48303
▁differently 48284
▁universe 48276
ock 48272
▁remote 48265
iously 48260
ieve 48238
▁venture 48237
owing 48230
▁Vijayan 48220
▁William 48215
yn 48189
▁portal 48188
▁lesson 48185
▁Jaipur 48164
ret 48145
▁heavily 48130
▁orange 48113
▁apex 48112
▁appreciate 48100
▁cloud 48081
,999 48069
▁1996 48060
▁USD 48058
▁Working 48026
▁delayed 48023
▁Band 47997
▁trials 47992
▁Relations 47976
▁stream 47957
.20 47951
▁crazy 47948
▁visual 47947
▁confirm 47937
▁translated 47933
▁traveling 47915
▁fallen 47906
▁rev 47903
inking 47900
▁split 47889
▁sens 47888
▁database 47862
▁flower 47853
▁coll 47819
▁grade 47810
▁Between 47806
be 47795
▁representative 47789
▁thin 47772
ohyd 47771
▁cups 47762
▁Nag 47761
▁Non 47755
▁Officials 47750
▁inches 47720
▁TH 47713
▁treatments 47691
▁indicates 47688
▁transform 47687
▁2.5 47684
tal 47679
▁stuck 47671
▁actively 47670
▁interaction 47665
▁Gul 47663
▁reviewed 47655
ashi 47604
▁Ob 47604
aly 47588
▁hosted 47586
▁Meteorological 47566
▁Nat 47559
▁prevention 47555
umin 47554
▁Report 47554
form 47553
▁proteins 47553
▁occasions 47547
RA 47544
▁batting 47536
▁Body 47528
▁Pand 47485
▁targeted 47456
▁66 47441
▁Parliamentary 47441
▁writes 47429
▁gorgeous 47412
▁recording 47411
IL 47383
▁Philippines 47380
alk 47379
ume 47365
▁celebrating 47365
▁satisfaction 47359
▁Sukh 47344
▁establishment 47309
▁Goyal 47306
▁integrated 47300
▁managing 47293
▁graduate 47279
▁Kim 47277
▁resource 47277
▁engineer 47268
▁Island 47259
▁vaccinated 47253
asing 47228
load 47199
▁Hasan 47183
▁frame 47172
ingly 47162
▁prosperity 47152
▁Prophet 47136
▁swimming 47134
▁Ha 47096
▁drawn 47091
▁designs 47090
▁succeeded 47074
▁mod 47071
▁starred 47071
▁Others 47069
party 47064
▁encouraged 47064
▁NC 47051
▁deals 47048
▁smoke 47047
▁Steve 47041
▁Want 47028
▁kilometres 47028
▁Net 47022
▁dev 47021
ishes 47012
▁lowest 47011
▁organ 47011
▁roll 47006
▁seventh 46988
▁chocolate 46983
itor 46979
▁Market 46968
quality 46947
▁confirmation 46945
▁Asked 46936
▁Indo 46915
▁Subsequently 46911
▁converted 46907
▁Sindhu 46903
aches 46889
Is 46887
▁Robert 46883
RS 46861
▁ending 46850
month 46843
roid 46843
▁ICICI 46818
▁Safety 46816
▁neighbours 46790
▁arranged 46776
▁Pulwama 46766
▁investing 46763
▁proven 46760
▁locked 46728
▁enjoying 46719
▁beg 46714
▁BC 46696
▁strengthening 46692
▁Pandya 46679
ned 46667
▁experiencing 46657
▁conspiracy 46644
ologists 46624
▁commit 46623
iance 46610
▁hardware 46607
▁Mahendra 46606
▁explore 46601
▁hidden 46601
▁Fort 46589
▁stolen 46546
▁towns 46542
▁Eat 46509
imum 46500
▁superstar 46489
▁Azad 46486
▁diagnosed 46470
▁Traffic 46467
▁festivals 46461
In 46441
▁assessment 46410
▁DNA 46405
▁Govt 46389
iples 46379
▁artificial 46377
uth 46371
▁intense 46361
▁brilliant 46342
pr 46340
▁iPad 46325
▁Hope 46322
▁topics 46308
▁Modern 46293
▁Daily 46284
▁Vish 46254
▁Care 46243
illed 46239
▁varieties 46230
▁clashes 46199
▁SA 46184
▁Enter 46183
▁folks 46169
rol 46164
▁amaz 46162
▁overcome 46162
▁disorder 46149
▁Ang 46142
▁corn 46139
▁cre 46139
▁defense 46128
▁largely 46107
rab 46087
anta 46058
▁Kam 46049
▁Nevertheless 46025
▁Wash 46016
ony 46013
▁interact 46012
▁Prevention 45990
▁kilometers 45984
▁attempted 45982
▁airports 45981
▁substance 45963
▁CP 45956
▁Redmi 45952
▁statistics 45950
person 45948
▁ring 45938
▁Urban 45918
▁contributed 45910
▁corporation 45909
inda 45887
▁darkness 45878
▁writers 45878
▁mic 45869
▁dem 45851
erv 45840
▁tremendous 45827
▁blind 45799
▁talented 45774
ude 45765
ulating 45744
▁ne 45742
▁Ps 45736
▁marked 45734
▁pointed 45727
▁importantly 45725
▁acquired 45723
▁manufactured 45712
▁soldier 45705
▁plot 45694
▁cop 45687
ki 45679
▁Ganguly 45658
▁Maj 45645
▁AB 45629
▁punished 45614
eshwar 45602
▁athletes 45595
▁threats 45577
▁Books 45559
▁Met 45555
▁gang 45548
▁missed 45546
▁directors 45541
▁bound 45540
ura 45539
▁Legislative 45529
▁mosque 45529
▁Chidambaram 45527
▁passion 45519
▁advocate 45513
▁holidays 45504
▁roof 45493
▁spices 45491
long 45489
za 45468
▁Moses 45464
▁horm 45464
▁ultimately 45452
▁Sand 45442
▁generations 45438
▁habits 45434
commerce 45427
ature 45422
▁examined 45422
▁contained 45420
earing 45418
▁tonnes 45406
ao 45395
▁Switzerland 45395
▁struck 45384
▁Pray 45382
▁Line 45367
oun 45362
▁Revolution 45360
▁ODIs 45352
▁Fans 45344
▁RJD 45337
state 45331
▁flying 45329
▁EC 45322
▁predicted 45315
▁exports 45311
▁mel 45309
▁Kabul 45288
▁institute 45280
▁Welcome 45266
▁supplied 45265
▁700 45248
▁Padma 45240
▁structures 45236
▁Bhushan 45234
inary 45218
▁Pres 45217
ff 45213
▁balanced 45210
▁constitutional 45198
ili 45194
▁entrepreneurs 45189
▁longest 45187
▁gra 45186
▁Med 45184
▁Put 45179
▁magazine 45175
▁Labour 45171
▁resulting 45162
wing 45156
▁exhibition 45134
ward 45111
▁mothers 45103
▁tender 45097
▁Rep 45066
▁shame 45065
▁certificates 45056
▁doubts 45055
▁airline 45049
▁Command 45045
▁culprits 45030
▁Hotel 45016
▁administered 45010
▁fulfill 45007
▁escaped 45005
ject 45001
▁burn 45001
▁equ 44984
▁divorce 44973
▁Mag 44956
▁league 44922
▁Mill 44918
▁instant 44877
▁125 44868
▁reaches 44836
▁demise 44826
▁Val 44819
▁cel 44797
▁praise 44797
▁Mix 44793
▁waters 44785
▁Authorities 44772
▁Cultural 44772
^ 44771
▁postponed 44765
▁newspapers 44748
▁arise 44740
▁Islands 44727
▁Ashwin 44721
▁extension 44720
eds 44704
▁1994 44697
▁Third 44694
urb 44687
▁typical 44677
▁prizes 44670
▁Creat 44669
▁collapsed 44668
▁accomplish 44661
▁knowing 44639
▁Question 44634
▁norms 44619
▁1970 44607
▁firms 44606
lish 44604
▁sol 44603
▁Angeles 44598
▁Arabic 44593
▁push 44586
▁hockey 44568
▁inflammation 44553
▁violent 44529
▁essentially 44521
▁entitled 44508
▁Varun 44506
▁Arts 44499
▁74 44492
▁Natural 44488
bal 44469
▁universal 44462
▁refund 44454
▁Hall 44436
▁regime 44416
▁Anti 44406
▁widespread 44396
▁Forces 44385
ashed 44374
▁minds 44373
AL 44372
▁counsel 44364
▁observe 44359
▁arguments 44344
▁moves 44344
▁Alam 44338
▁poly 44337
▁overnight 44332
▁Johar 44330
▁slogans 44309
▁Gopal 44295
▁67 44286
▁NE 44273
▁musical 44257
uous 44256
▁simpl 44255
▁Heart 44249
ulations 44247
▁hell 44244
▁hill 44240
▁lighting 44240
▁psychological 44236
▁1997 44233
▁delegation 44222
▁smell 44202
▁scientist 44190
▁suggests 44173
▁remarkable 44172
ike 44160
▁immunity 44156
▁loud 44132
▁creates 44115
ower 44101
ills 44096
▁operated 44091
▁secured 44037
▁favor 44003
ava 44001
▁servants 43994
▁BBC 43981
▁ver 43976
▁regret 43967
▁mentally 43948
▁banner 43946
▁tr 43935
▁fellow 43923
▁NIA 43909
▁bother 43908
▁separated 43896
▁beans 43889
▁improves 43880
▁rounds 43864
▁proceedings 43859
▁Az 43854
▁pump 43839
▁wise 43838
▁speaker 43832
▁routine 43824
▁reform 43813
▁harassment 43798
▁congrat 43795
▁examinations 43790
▁Ranaut 43787
▁employed 43781
▁Iranian 43778
▁med 43775
▁Tim 43749
elled 43741
oes 43697
▁municipal 43686
▁avoided 43668
▁drawing 43659
▁Harsh 43652
▁Tripura 43622
▁1991 43610
▁repeatedly 43603
99 43594
▁Seven 43586
▁Lahore 43577
▁Form 43576
▁framework 43575
▁£ 43574
▁63 43558
rim 43557
▁Sushma 43554
▁belonging 43549
▁Mi 43539
oa 43531
▁blessings 43527
▁theatre 43505
▁Nearly 43487
▁Companies 43482
▁spouse 43479
▁fertil 43477
▁bra 43475
▁turning 43471
▁Putin 43448
▁comparison 43443
▁www 43443
▁makers 43433
▁coalition 43430
▁Communist 43429
▁Allahabad 43411
▁Pur 43409
▁facilitate 43396
akumar 43395
▁50,000 43370
▁Argentina 43340
▁Kochi 43325
▁tons 43323
,4 43322
▁dying 43320
▁nab 43301
▁raising 43278
▁HT 43263
▁mish 43262
▁involving 43252
▁Maruti 43247
▁branches 43218
▁Higher 43215
▁drops 43207
▁badly 43204
▁washing 43191
▁Rav 43186
▁1993 43171
▁Cooperation 43169
▁Something 43164
▁refriger 43157
▁Sav 43154
▁Compl 43134
▁module 43133
ua 43128
▁Sardar 43125
▁impressive 43123
▁Tra 43118
▁lasted 43118
▁Travel 43109
▁saving 43106
▁ISRO 43067
▁fishing 43053
▁Pe 43032
▁consume 43031
▁involvement 42993
days 42992
▁laptop 42991
▁engage 42974
mm 42949
iding 42916
▁ships 42908
▁Ka 42891
▁MoU 42879
▁Sonam 42869
▁lo 42856
▁Sign 42855
asa 42852
▁cord 42848
▁NO 42829
▁Citizenship 42822
▁Sandeep 42813
▁5,000 42797
ires 42792
▁sy 42781
▁Medicine 42767
▁chemicals 42748
▁kn 42745
▁relative 42698
icy 42689
▁cyber 42687
▁transaction 42669
▁switch 42666
▁Hum 42664
▁Arora 42653
▁Vikram 42643
du 42635
▁innovative 42634
▁performances 42627
▁stim 42621
▁gap 42597
▁Hasina 42560
▁BNP 42539
▁namely 42518
▁Nadda 42512
▁Mod 42511
▁immense 42509
▁hub 42505
▁richest 42477
▁tribute 42469
-5 42456
avan 42439
▁Country 42428
▁photography 42420
▁Dinesh 42409
vent 42408
▁pers 42397
made 42386
▁accomplished 42382
▁Directorate 42376
cc 42374
▁apolog 42367
▁shift 42367
▁Ba 42357
▁CB 42356
▁Doctor 42349
▁simultaneously 42338
▁Catholic 42330
▁compare 42319
ocks 42311
▁completing 42308
▁Dep 42306
▁rank 42306
▁Hardik 42290
IT 42288
▁paint 42286
mni_Mtei 42285
▁Lakh 42258
▁territories 42249
▁130 42248
house 42247
irus 42242
▁grows 42237
▁horse 42223
▁profits 42216
▁Ty 42212
▁decor 42206
▁organs 42196
▁restore 42192
▁babies 42188
▁Aut 42184
,7 42171
▁Charles 42170
▁Tiger 42163
▁End 42158
▁criteria 42146
ears 42137
▁routes 42127
▁1950 42126
▁decorated 42116
▁bones 42114
▁moderate 42114
▁CE 42113
▁Teachers 42096
▁Through 42091
▁absconding 42085
▁Chris 42075
▁Site 42068
▁disrupted 42037
ensive 42031
▁habit 42024
▁enterprise 42014
▁Mayor 42013
▁Ganga 42008
▁functional 42007
▁Kot 42003
▁Varanasi 42001
▁frequency 41987
▁protecting 41985
▁Aryan 41977
▁gate 41970
▁unf 41968
,2 41964
▁Rome 41964
▁achievements 41946
▁stunning 41935
▁stadium 41932
gin 41930
▁Manager 41928
▁dancing 41927
▁Deshmukh 41917
▁Cancer 41913
▁Tour 41905
▁Addressing 41904
▁Narayan 41904
22 41898
▁Vid 41896
ahs 41890
▁hike 41870
ads 41860
▁Story 41845
▁flav 41839
▁Harry 41838
▁permit 41834
▁adjust 41829
▁opens 41791
▁announce 41785
ult 41779
▁Arunachal 41779
dom 41753
▁Dar 41747
▁Luke 41742
▁Ki 41740
▁mechanical 41737
cle 41713
▁Cop 41680
▁designer 41680
▁dishes 41673
▁Madras 41668
screen 41666
▁1960 41664
ased 41653
▁criticised 41647
▁absolute 41638
isha 41634
▁68 41628
▁harder 41623
▁youths 41613
▁equality 41610
▁Secondary 41601
▁discover 41588
▁350 41583
▁Jews 41569
▁convicted 41569
▁moral 41555
atives 41549
▁Suzuki 41548
ull 41534
▁Ast 41531
aved 41511
ET 41497
▁Na 41479
▁Golden 41468
▁PV 41468
▁Trinamool 41468
▁Investment 41442
zy 41428
▁Ke 41428
▁Nokia 41428
▁undertaken 41420
▁roughly 41402
▁coastal 41390
lin 41379
▁77 41376
▁Rain 41352
▁apparently 41350
▁sacrifice 41346
▁baking 41342
▁metro 41341
▁Type 41329
▁membership 41329
▁periods 41329
▁meets 41326
▁AIIMS 41295
▁Sang 41291
▁Sunny 41289
▁8- 41284
,1 41263
▁Rawat 41254
▁Prem 41248
uram 41236
like 41230
▁Pradhan 41230
▁wisdom 41227
yal 41218
▁forecast 41212
▁1995 41201
▁labourers 41187
▁diversity 41169
▁Kul 41167
emia 41139
▁fabric 41137
▁precious 41137
lete 41132
▁respected 41131
▁girlfriend 41126
▁mail 41125
▁Live 41122
▁glory 41122
▁ethnic 41121
▁Lake 41113
▁autopsy 41113
▁Sidd 41111
▁offence 41110
▁acres 41106
▁comedy 41105
▁Pad 41098
ा 41097
▁inv 41086
▁Community 41070
ept 41066
▁Bumrah 41059
och 41047
aur 41043
▁somewhat 41042
▁distancing 41033
▁shipping 41025
ald 41002
▁ble 40976
ING 40972
▁mild 40945
ih 40937
▁Nick 40919
uz 40918
▁unclear 40916
ails 40909
▁Md 40906
▁unlimited 40900
▁Hussain 40899
▁Ragh 40899
▁Tri 40898
▁considerable 40878
▁delighted 40873
oned 40866
▁Aditya 40866
▁keen 40863
▁mechanism 40863
▁resort 40861
▁debit 40853
▁latter 40852
▁processed 40851
▁translation 40849
▁activist 40845
▁Advani 40830
▁harmony 40829
▁convert 40808
▁respiratory 40804
▁frequent 40789
▁RE 40773
▁vessels 40773
,6 40770
▁Verma 40760
▁pal 40760
▁ded 40758
▁amid 40753
▁scary 40751
hood 40743
▁Kuldeep 40719
▁Ay 40708
▁Programme 40694
▁conver 40691
▁confusion 40663
RC 40646
▁assigned 40646
ett 40619
▁cotton 40619
ump 40617
oles 40614
▁Gand 40614
inated 40612
mal 40612
▁indicate 40611
▁disorders 40610
▁cheaper 40609
▁concrete 40582
▁achieving 40579
DF 40562
▁serves 40542
ees 40528
▁bottle 40523
ifies 40519
▁Usually 40518
▁detect 40505
▁excessive 40505
read 40485
▁Call 40475
▁reveal 40470
,3 40464
▁Approximately 40450
▁Samajwadi 40442
▁Organ 40434
▁checked 40434
▁transparent 40419
▁calculate 40415
▁requests 40409
▁Akhtar 40408
▁consumed 40394
any 40372
▁tears 40362
▁psych 40350
▁Prote 40340
▁Puri 40338
▁den 40338
▁beneficiaries 40337
▁forests 40327
▁Rajinikanth 40311
rec 40284
▁tall 40280
▁gifts 40274
▁2.0 40266
▁laughing 40264
▁Sol 40260
▁venue 40255
-6 40246
ga 40243
▁introduce 40210
▁unemployment 40207
▁ri 40197
▁compete 40183
▁Jal 40170
▁KL 40152
25 40147
▁Gh 40143
▁civilians 40128
▁producers 40123
▁Agra 40120
▁Marketing 40111
▁Ravindra 40109
▁Ambedkar 40100
▁cooked 40060
kh 40058
▁ast 40046
▁Islamabad 40034
▁define 40025
ials 40023
▁blessed 40019
▁vine 40015
▁Om 40008
▁Bhopal 39991
▁aside 39978
▁Mass 39975
aching 39972
▁br 39959
▁episode 39949
▁overseas 39948
uation 39944
▁Support 39943
,8 39942
aker 39941
▁Southern 39913
down 39908
ris 39907
▁Tr 39884
▁2- 39876
▁Far 39871
▁confused 39864
▁introduction 39850
▁traders 39845
▁₹ 39837
▁hence 39827
▁ANI 39824
▁liquor 39799
▁Whatever 39795
▁Freedom 39775
▁Pant 39768
ister 39753
▁Sha 39747
▁Rana 39746
▁cle 39744
▁Aam 39733
▁casualties 39730
▁Sen 39722
▁Aviation 39699
▁Bharti 39653
▁col 39646
▁poems 39644
▁Madh 39640
▁acceptable 39640
▁Devgn 39608
▁formula 39608
▁1992 39607
sp 39599
▁syndrome 39587
▁cm 39580
▁DMK 39578
bi 39572
▁Kas 39572
star 39550
▁Pak 39546
▁diplomatic 39543
▁Already 39537
▁Ver 39524
▁Sud 39507
▁Follow 39486
-8 39473
▁EP 39473
▁Rakesh 39468
kin 39464
▁proceed 39464
▁lock 39455
▁emerging 39440
▁Punjabi 39424
DC 39418
aked 39397
inate 39396
▁Talking 39394
▁divide 39393
ests 39390
▁agitation 39390
▁Must 39386
▁Motors 39372
▁Gautam 39363
▁youngest 39357
▁JP 39352
▁Barack 39351
▁disclosed 39340
▁Full 39333
▁findings 39333
▁programming 39332
▁hits 39328
▁designated 39313
▁extraordinary 39309
▁strategies 39307
▁Martin 39305
▁Admission 39292
▁distinct 39279
▁providers 39271
oll 39268
▁Jack 39266
▁Eight 39265
▁camps 39263
▁magic 39254
eous 39228
▁Dil 39218
▁Bhutan 39213
▁timely 39208
▁expenditure 39183
▁worlds 39169
▁CS 39161
▁del 39151
▁Daniel 39137
▁residential 39133
▁savings 39132
ense 39124
▁Inspector 39119
▁rumours 39117
▁2,000 39115
▁champion 39113
▁sexually 39107
▁applicants 39104
▁fatty 39101
▁Football 39098
▁Bachelor 39085
▁Maldives 39078
▁segment 39075
rict 39072
▁Self 39066
▁operates 39065
▁wireless 39063
▁praised 39060
-7 39054
▁Mel 39028
ames 39018
▁minus 39013
▁folk 38996
▁tra 38994
▁containing 38993
▁Hundreds 38987
eless 38984
▁Studies 38983
▁Xiaomi 38967
▁transition 38961
▁plug 38952
▁Dhan 38945
▁bills 38930
▁Help 38929
▁phenomenon 38927
▁parameters 38904
,9 38893
▁eliminate 38893
▁educated 38888
▁lung 38873
▁1947 38866
▁NCB 38866
▁theft 38859
▁Mall 38856
▁instruction 38847
▁Governments 38829
ace 38820
▁€ 38813
▁indicated 38812
▁breaking 38807
▁qualify 38806
▁preliminary 38803
ahar 38791
▁appearing 38787
▁microSD 38780
▁electoral 38763
▁Deepak 38754
ke 38744
▁filing 38723
▁nuts 38720
▁addresses 38718
▁nationals 38698
▁contributions 38677
ero 38676
▁default 38671
▁manufacture 38669
▁Sultan 38667
▁lab 38664
▁78 38661
▁classical 38661
▁narrow 38656
▁Lo 38655
▁reservation 38655
▁Meeting 38654
▁representing 38649
▁Prom 38642
▁00 38623
▁isolated 38618
▁TRS 38612
tain 38609
uch 38600
▁tab 38593
▁lens 38579
▁grace 38569
▁SO 38548
▁Airlines 38546
▁Battle 38539
▁mor 38522
▁regarded 38513
▁Shami 38511
▁fort 38509
iation 38507
▁increasingly 38486
▁removal 38479
▁69 38476
▁Som 38475
▁withdrawal 38465
▁id 38455
▁developments 38446
▁transmitted 38445
▁angle 38438
▁extract 38437
▁wished 38418
▁Rup 38417
▁Mor 38412
▁ears 38412
▁Judge 38409
▁Jadeja 38408
▁Pr 38402
▁zones 38402
osed 38387
▁restored 38387
field 38386
arian 38350
▁imm 38343
▁wet 38320
rin 38317
AD 38313
▁agenda 38313
▁Town 38310
go 38300
ont 38280
▁Dilip 38280
ship 38276
▁Florida 38275
TP 38273
▁integrity 38272
ount 38270
▁Beijing 38256
imes 38252
▁rent 38245
▁emb 38244
▁Khanna 38240
ook 38226
▁lawyers 38212
▁Technical 38210
▁Total 38203
▁Writ 38189
▁hel 38168
▁crude 38127
▁bowler 38121
▁restricted 38119
▁sees 38119
,0 38106
▁detected 38097
▁unveiled 38095
▁struggling 38085
▁contra 38084
▁rating 38072
▁pounds 38070
▁Bob 38064
oses 38046
▁withdrawn 38038
▁pr 38021
▁possess 38018
▁witnesses 38018
▁inqu 38016
▁thinks 38012
▁Intelligence 38010
▁Qatar 38010
rics 38005
▁Ranjan 38004
▁Vas 37995
▁Sahib 37986
ights 37982
▁tank 37976
▁copyright 37967
phone 37965
▁Officers 37956
▁76 37950
,5 37947
▁intake 37946
▁val 37941
▁allocated 37930
▁shocking 37928
RO 37927
aled 37910
▁EV 37909
pir 37908
▁unfortunate 37902
inners 37895
▁Ins 37894
reat 37892
▁governance 37878
rah 37865
▁cultures 37862
tained 37860
▁Greece 37852
ten 37850
▁Nation 37850
▁Same 37839
▁impressed 37835
▁Ms 37830
owned 37826
▁Swami 37817
▁AK 37801
American 37797
arpur 37792
oking 37772
▁Taiwan 37772
▁bowling 37756
▁movements 37755
▁edge 37751
gen 37744
▁Inst 37740
▁Bed 37736
▁Nagpur 37727
▁blamed 37708
▁reflect 37708
▁Happ 37705
▁Kund 37701
▁presentation 37686
▁Incre 37671
▁Girl 37668
▁risen 37640
▁Armed 37636
▁Rab 37621
▁inner 37615
▁Talk 37599
▁Vir 37598
omy 37583
▁hormone 37555
▁Abd 37549
▁washed 37542
▁Complete 37541
▁covering 37537
wood 37528
▁Jh 37527
▁filmmaker 37525
▁Much 37520
▁destruction 37513
▁pursue 37505
▁im 37504
▁roots 37497
▁vol 37493
▁Military 37471
▁pull 37469
▁challenged 37465
▁Rafale 37453
▁fighters 37450
▁specialist 37442
▁discipline 37425
▁cab 37389
ait 37387
▁imprisonment 37384
▁bid 37382
▁scope 37379
▁networking 37377
▁Legal 37376
▁Shar 37376
▁mercy 37363
▁ur 37359
▁Syed 37357
▁royal 37342
▁nomination 37310
▁couples 37299
▁assume 37298
▁connecting 37298
▁pen 37294
▁bars 37289
isc 37285
ports 37276
▁Bag 37273
ract 37272
▁limitations 37268
antly 37262
▁Anurag 37255
▁Div 37247
▁pulled 37243
▁Bah 37240
ela 37239
▁refugees 37228
▁broadcast 37227
▁exit 37225
▁fright 37224
▁Had 37223
▁tablet 37219
▁Bur 37211
▁agents 37210
▁Agricultural 37208
▁cap 37208
▁monsoon 37204
▁Steel 37200
▁plate 37197
anga 37188
▁lessons 37187
▁exposed 37142
▁bone 37141
▁Pol 37140
▁throw 37140
▁minority 37131
fall 37129
▁mankind 37121
rie 37119
▁viruses 37112
▁Sanskrit 37097
▁Mirza 37096
athy 37085
▁heading 37074
▁veteran 37071
▁Meh 37064
▁uncle 37063
ressed 37045
▁AS 37039
▁Directed 37024
▁Ep 37011
▁stylish 37005
▁fin 37004
▁Ganesh 37001
onal 36980
▁Left 36980
▁irrit 36945
ster 36939
uff 36938
hin 36931
▁brigade 36919
▁incorrect 36915
▁NASA 36908
▁Isa 36898
▁tear 36859
▁commented 36852
▁Gas 36845
illi 36843
arma 36825
▁consistent 36820
▁grains 36820
▁Goddess 36772
rified 36766
▁bre 36766
▁trends 36763
▁Rest 36760
▁1984 36744
▁Border 36737
▁laboratory 36725
president 36719
▁Chicago 36675
▁neighbouring 36664
orm 36661
gg 36636
▁tied 36636
▁sacred 36630
▁gains 36620
▁Jacob 36616
▁selfie 36615
▁NEW 36610
▁Exchange 36605
▁IAF 36598
▁tribal 36597
▁essay 36588
val 36572
▁heating 36556
▁separately 36554
▁73 36553
▁Series 36550
▁intelligent 36549
oud 36547
▁dust 36542
▁tap 36542
▁errors 36533
gu 36528
▁cutting 36526
24 36524
▁consuming 36522
ript 36518
▁Belgium 36509
▁patterns 36504
▁Disaster 36488
▁Snapdragon 36485
▁84 36476
▁hungry 36461
▁gram 36453
▁intervention 36452
jan 36441
▁Sector 36432
▁occupation 36416
▁reputation 36414
▁handling 36397
▁caution 36384
garh 36383
▁confidential 36372
▁trace 36372
▁mining 36356
▁enormous 36354
▁Atal 36350
▁gods 36342
▁cond 36333
▁grounds 36320
uru 36294
▁diss 36293
▁abandoned 36292
▁shoulder 36291
▁Saint 36287
ergic 36269
thi 36269
▁nonetheless 36263
▁beef 36240
▁anytime 36228
▁weird 36219
▁nearest 36213
▁Mun 36210
▁Order 36196
▁engineers 36190
▁reb 36186
▁circle 36185
▁carries 36174
▁UTs 36169
▁stakeholders 36161
iri 36155
▁interrog 36151
tered 36125
▁moist 36123
▁Dhar 36110
▁bleeding 36110
▁screens 36106
▁intellectual 36099
▁Within 36095
▁Process 36085
ball 36065
▁concentration 36061
▁imports 36025
▁Rel 36023
▁notified 36004
▁Sl 35999
▁rarely 35985
ament 35976
▁brave 35966
▁cant 35966
▁Equ 35962
ipp 35953
▁Job 35940
▁stepped 35936
▁civilian 35930
▁div 35911
▁Hem 35908
▁Rules 35904
▁decreased 35897
▁termed 35895
▁discrimination 35869
ork 35867
▁Adam 35864
▁Television 35858
▁chart 35852
▁servant 35847
▁conf 35842
▁20,000 35841
oi 35840
▁Malhotra 35835
▁backed 35832
▁Taking 35831
bl 35821
▁varies 35811
▁Amaz 35800
▁Brah 35797
▁acute 35797
▁disp 35795
▁throat 35795
▁communications 35784
▁tablets 35768
▁earliest 35737
▁derived 35729
▁1.2 35724
▁Dan 35723
▁Henry 35720
▁Region 35700
▁Jam 35697
tle 35694
▁Managing 35694
▁Silver 35688
▁businessman 35684
▁parks 35681
▁Brahm 35678
ij 35677
▁Rail 35677
▁hydrogen 35674
▁yield 35673
▁Bang 35670
uses 35666
▁communic 35661
zz 35644
▁1989 35636
▁reader 35634
▁hum 35625
▁undergo 35624
▁discussing 35610
here 35607
▁amenities 35590
▁chairperson 35585
▁aff 35579
ason 35575
eter 35566
▁accordingly 35562
▁Regional 35522
▁Tele 35515
▁contrast 35515
▁Clean 35511
▁Lakshmi 35500
▁collapse 35499
▁Chowdhury 35485
▁CC 35484
▁chill 35483
▁alter 35470
▁Denmark 35465
▁realised 35463
▁Scotland 35448
lend 35439
oj 35436
▁Aadmi 35431
▁Yash 35430
onic 35413
▁Tiwari 35413
▁MD 35408
▁Wikipedia 35405
FC 35404
▁Treatment 35396
▁AR 35382
itate 35377
ming 35374
▁Sridevi 35372
▁weakness 35370
▁Priv 35367
▁1971 35366
▁Ru 35362
▁receives 35358
▁Often 35356
▁Jackson 35346
▁Pinarayi 35346
▁recipe 35342
▁BSF 35318
▁Someone 35309
▁fluid 35303
aff 35294
▁gather 35293
TS 35289
▁agreements 35288
▁tag 35284
▁deserve 35279
▁mat 35276
▁Ten 35271
fl 35264
▁ignored 35263
▁Prices 35256
▁Jain 35252
gi 35251
arks 35249
▁NRC 35220
▁breathe 35205
▁bagged 35204
gy 35203
▁GPS 35191
▁Bitcoin 35186
▁soap 35181
▁tissue 35167
▁Ray 35163
▁disappeared 35156
▁sim 35148
▁attendance 35147
itnesses 35144
aim 35132
▁dairy 35132
rem 35129
▁Oxford 35129
BA 35127
▁specifications 35127
▁vulnerable 35119
ented 35116
▁duo 35112
▁fra 35095
II 35088
▁highlighted 35085
weight 35079
▁productivity 35069
ference 35057
▁circulation 35054
▁peoples 35052
▁Senate 35051
▁faculty 35051
vis 35034
▁adverse 35001
▁capture 35001
▁Ji 34988
▁Brown 34973
erc 34965
▁surrounded 34956
▁Gurd 34951
▁legend 34946
▁98 34943
▁outfit 34934
▁Chaudhary 34928
▁instances 34915
▁affecting 34914
had 34911
▁Mehta 34910
udd 34901
▁spo 34899
ident 34894
▁Films 34887
▁comply 34879
point 34875
ologies 34874
set 34873
▁Place 34869
▁Tem 34862
▁Vishnu 34858
▁Radio 34842
▁insult 34834
mar 34831
▁eng 34826
▁recommendation 34813
▁Ro 34804
▁radiation 34803
wide 34801
▁tow 34801
▁pred 34795
▁View 34779
▁burnt 34778
▁authors 34775
▁contrary 34766
▁County 34765
ional 34752
▁lifted 34749
born 34747
▁rot 34744
icular 34735
▁influenced 34732
▁Mizoram 34727
▁NS 34723
▁Petroleum 34718
▁reverse 34706
coh 34705
▁Key 34700
▁instructed 34695
▁Save 34688
▁instantly 34686
▁Jawaharlal 34684
▁Vajpayee 34680
araj 34669
MS 34661
▁workplace 34655
DI 34650
▁arrangement 34639
▁Deep 34636
irm 34631
▁Electronics 34628
▁Mike 34621
▁winds 34618
▁happ 34607
▁prestigious 34599
▁ranks 34599
▁Tomar 34597
▁tongue 34593
▁Roh 34558
▁shapes 34535
▁Wa 34525
▁formats 34520
▁unlikely 34518
▁140 34511
aka 34505
▁abilities 34503
▁remake 34502
▁gu 34491
▁draft 34489
▁predict 34486
▁measured 34485
▁cra 34484
▁actresses 34480
▁Amritsar 34474
▁bow 34472
iment 34462
▁ports 34455
▁Climate 34453
▁ir 34451
ls 34449
pes 34447
▁boundary 34442
▁examine 34432
▁invite 34419
awa 34407
▁sheep 34407
ae 34399
▁stocks 34388
▁executed 34383
▁phosph 34377
▁controls 34375
eness 34371
▁Memorial 34371
▁Jai 34366
▁unnecessary 34366
pa 34349
▁Poland 34349
rying 34343
▁Accordingly 34339
▁instrument 34333
▁asset 34332
ords 34329
▁mal 34328
▁worshi 34320
▁Er 34305
▁solely 34305
▁Student 34299
▁leaf 34281
▁exclusive 34272
▁Build 34255
▁scenario 34232
▁sole 34232
▁engagement 34230
▁supplement 34201
▁mob 34198
▁mathematics 34191
▁Deb 34188
▁scenes 34186
▁Forum 34183
▁cleaned 34172
▁troubles 34165
▁copies 34160
organ 34159
▁Awami 34159
▁Champions 34159
▁remedy 34157
own 34153
▁Baba 34152
▁golf 34146
▁Fe 34139
▁88 34121
▁visits 34120
▁conservation 34119
▁Mil 34115
▁wherever 34108
EL 34105
▁Badal 34101
ison 34093
▁cart 34091
▁resist 34088
ergies 34083
▁gross 34069
bing 34064
▁83 34062
▁Upon 34060
▁Ayurveda 34058
▁purchasing 34056
▁rupee 34054
▁upload 34047
▁triple 34041
▁160 34039
▁Birthday 34013
▁Born 34011
▁Front 33999
▁torque 33985
lets 33981
▁Nature 33972
▁Aj 33968
▁ 33957
▁CPM 33956
▁Date 33955
alled 33953
▁tragedy 33952
▁slot 33951
▁substantial 33947
▁contemporary 33944
▁UPA 33940
▁Ghosh 33937
▁occupied 33928
▁hardly 33925
▁unfortunately 33920
▁realise 33917
▁buyers 33912
▁Quest 33911
rot 33900
▁icon 33899
▁triggered 33892
FI 33874
▁beh 33874
▁removing 33874
▁unidentified 33872
▁Micro 33870
▁Chandrababu 33864
▁deny 33860
▁Rama 33856
▁manifest 33853
▁explains 33851
▁Baby 33843
▁86 33838
essed 33835
▁Game 33829
23 33820
asi 33819
▁Po 33813
▁Fre 33810
▁Mount 33792
ulated 33782
▁Char 33780
▁decre 33780
▁FI 33778
▁rob 33768
.30 33765
▁gratitude 33764
▁aut 33759
▁bowlers 33756
▁critic 33750
aze 33749
head 33747
▁Akhilesh 33736
▁Haz 33723
▁subsequent 33717
▁Educational 33707
▁flows 33704
ound 33703
▁Mas 33699
▁valley 33697
▁tech 33692
▁enables 33687
add 33678
▁profitable 33673
▁stupid 33662
tern 33656
▁Abbas 33651
nath 33650
▁SUV 33647
urg 33643
▁implementing 33635
lam 33629
urn 33629
▁autom 33615
itt 33609
friendly 33605
▁contested 33594
▁annoy 33593
▁authentic 33592
▁Panchayat 33575
▁wing 33571
▁precautions 33554
90 33551
▁Collector 33548
▁Mus 33539
▁equity 33537
▁publication 33535
▁Barcelona 33522
▁franchise 33514
▁streaming 33506
▁spots 33501
aran 33492
▁Scientists 33492
▁screening 33483
▁exposure 33482
▁attracted 33478
iti 33477
▁Defense 33475
lers 33469
▁seasons 33469
▁Tar 33454
▁Alt 33427
▁Rhea 33427
▁der 33426
▁dig 33423
▁Manchester 33412
▁po 33404
▁Emirates 33403
▁Warner 33401
▁Urdu 33398
▁commenced 33398
▁rises 33383
▁targets 33378
▁tweets 33369
▁beaten 33368
bo 33364
▁seeks 33362
▁mystery 33356
▁printing 33351
▁apple 33346
▁complications 33343
▁Meghalaya 33331
▁reporting 33320
▁Convention 33318
▁tiny 33311
▁fame 33307
otic 33301
mAh 33294
70 33277
NC 33276
▁Kanpur 33269
▁resume 33267
▁jack 33265
▁concepts 33263
▁pronounced 33262
▁giant 33261
ica 33260
▁Stat 33259
▁lovers 33254
▁Direct 33253
▁MA 33250
▁literary 33247
▁mineral 33247
▁tracks 33221
▁printed 33217
▁burden 33212
een 33197
▁Jewish 33197
▁Degree 33194
▁acc 33193
▁Clinton 33188
▁travelled 33185
▁graphics 33168
uro 33154
▁remanded 33141
▁theater 33129
▁acquire 33123
icles 33119
▁consist 33119
▁Area 33107
▁tackle 33105
▁plain 33101
▁fibre 33087
▁assess 33082
▁rad 33082
▁Piyush 33072
▁ascer 33072
▁97 33070
▁cope 33061
ouse 33054
▁Looking 33054
outs 33052
▁3.5 33048
▁crashed 33048
▁Different 33044
▁classified 33043
▁Jadhav 33042
▁Using 33040
▁trusted 33038
▁spin 33036
▁Pet 33028
▁Index 33027
▁Agarwal 33012
rees 33003
▁rely 33002
▁shelter 32995
▁weekly 32987
▁Sym 32986
▁heated 32983
▁Tan 32981
▁ignore 32978
crib 32973
▁Boy 32969
▁MT 32967
▁Marriage 32941
▁Yojana 32938
▁hydro 32936
lessly 32934
▁flowing 32927
tains 32918
▁Furthermore 32914
▁destinations 32912
izer 32908
▁71 32902
▁Hello 32898
▁rankings 32894
▁treating 32890
▁titles 32884
▁fib 32882
▁consultation 32872
▁innocent 32864
▁ho 32862
east 32858
igh 32852
osition 32851
▁Indore 32848
▁defend 32847
▁Loc 32843
▁dried 32842
▁emphasis 32840
▁corresponding 32837
▁uploaded 32837
▁Cool 32822
icking 32799
▁Revenue 32788
▁Nam 32781
▁Night 32771
fare 32769
▁NH 32757
▁tem 32751
▁Medic 32750
▁starring 32746
▁terminal 32740
▁designers 32731
▁releases 32728
▁affair 32726
▁existed 32710
▁afterwards 32707
▁inflation 32707
itors 32706
▁Planning 32699
▁hur 32696
▁focusing 32691
▁Romans 32653
ift 32652
▁Initially 32650
▁Charan 32649
▁attackers 32649
ampur 32647
▁Acts 32644
▁mini 32644
▁Lankan 32636
▁riding 32628
▁adorable 32626
▁cleared 32626
▁sorts 32610
▁bags 32595
▁enquiry 32595
▁counting 32594
▁Mer 32590
▁phot 32590
▁instruments 32588
▁Kids 32582
▁Shikhar 32576
itable 32571
▁aer 32562
▁transformation 32550
▁describes 32541
▁grass 32530
hara 32526
▁legislative 32520
▁negotiations 32520
▁sanctions 32517
▁forum 32514
▁slic 32511
▁renowned 32508
▁ambulance 32506
▁coordination 32494
▁Secret 32492
▁Birth 32466
▁identification 32463
▁knee 32458
▁Standard 32457
▁speakers 32450
▁outdoor 32448
▁Sikkim 32446
▁unexpected 32427
▁hunger 32423
▁Bhuvneshwar 32422
▁Kabir 32421
▁Nigeria 32420
tes 32405
▁gen 32398
▁density 32394
ults 32389
aving 32387
▁copper 32386
▁employer 32386
▁arrests 32368
▁technological 32368
▁invitation 32356
VE 32344
▁fond 32344
▁elder 32341
▁heroine 32337
▁radical 32336
ural 32329
alling 32322
▁Gulf 32322
▁lips 32313
▁Dark 32312
▁genetic 32312
▁accessories 32310
ention 32303
▁bul 32297
oster 32295
▁congratulate 32291
hal 32281
▁110 32281
ding 32273
ream 32269
▁Ve 32259
▁Mann 32255
atively 32243
pm 32216
rist 32215
▁Palace 32207
iate 32200
▁Wales 32200
▁legendary 32191
▁boundaries 32176
▁fre 32173
▁Karachi 32165
▁disadvant 32153
ipation 32139
how 32126
ulates 32118
▁fewer 32118
▁Flipkart 32114
▁lift 32100
ayan 32084
▁Success 32076
AI 32075
▁Ambassador 32075
▁sworn 32070
▁heav 32069
urt 32049
▁SIT 32049
ience 32048
rows 32043
met 32035
EN 32018
▁Lalu 32013
▁BM 32012
▁occurring 32009
▁collision 32006
▁deadly 31990
▁bell 31989
▁households 31987
▁fiscal 31983
▁physics 31983
▁Royals 31974
▁interrogation 31972
ella 31970
▁Ur 31962
▁ours 31948
▁responses 31948
▁Berlin 31945
▁effectiveness 31943
26 31941
▁calculated 31939
-10 31933
nam 31931
▁Employees 31928
▁Xi 31924
▁operator 31920
enn 31917
▁cos 31913
▁amendment 31904
▁Animals 31896
▁Gehlot 31894
▁Summer 31890
▁Pain 31887
ridge 31877
ipe 31869
▁desktop 31850
▁comb 31842
▁strikes 31838
▁vacant 31818
▁hyp 31815
▁interim 31814
ression 31813
▁Imp 31812
▁clarified 31812
rent 31807
▁handled 31807
▁Hassan 31802
ano 31795
▁railways 31789
▁directing 31786
cess 31785
▁12- 31785
▁Portugal 31784
uming 31782
▁curious 31781
hit 31778
ocation 31773
▁capability 31771
stand 31761
inc 31748
▁cricketers 31748
▁ple 31744
▁touched 31736
▁allegation 31731
▁cooperate 31722
▁protects 31717
▁Dravid 31714
▁driven 31712
hai 31703
▁Eid 31700
▁greetings 31686
▁fascinating 31682
rier 31673
▁Commonwealth 31668
▁consciousness 31662
▁tenure 31650
▁critics 31645
▁hes 31644
rons 31638
▁Naz 31635
▁Noida 31634
▁entity 31633
▁tail 31633
▁stops 31627
▁Pranab 31624
▁eternal 31607
▁waited 31606
▁3,000 31600
▁Train 31599
▁1948 31597
▁· 31593
▁batsmen 31592
▁identical 31592
▁Raju 31583
▁wars 31582
aria 31577
▁Roshan 31574
▁convinced 31574
inner 31559
▁urgent 31558
▁adds 31557
▁consequence 31545
▁FC 31542
▁MC 31540
▁enthusiasm 31538
▁eaten 31529
km 31525
▁Bec 31516
▁eas 31504
▁protestors 31504
▁clock 31498
▁deficiency 31494
▁Chen 31493
▁preventing 31493
arge 31477
▁Movement 31471
▁container 31466
▁stranded 31464
▁Rajk 31459
,500 31457
▁slight 31457
▁Highway 31456
▁trapped 31451
▁Republican 31450
▁Vladimir 31448
▁Survey 31421
berg 31416
▁Production 31414
▁Norway 31413
▁revised 31413
▁bold 31406
▁Ident 31399
▁Emergency 31392
▁Celeb 31382
▁Quality 31380
▁gaming 31378
▁Manj 31375
▁massage 31362
ife 31358
▁PP 31358
▁Realme 31346
▁shed 31345
▁bay 31342
ugs 31338
▁moisture 31333
ritis 31331
▁Fortunately 31321
▁eighth 31320
▁landing 31307
▁optim 31291
▁Alliance 31278
▁Shraddha 31275
▁signing 31273
▁96 31271
▁beliefs 31268
▁enforcement 31263
▁breaks 31260
â 31259
ux 31255
oma 31254
istry 31231
▁Review 31228
▁regards 31225
inth 31222
▁uniform 31219
▁Ronaldo 31218
hips 31216
▁Spe 31214
ova 31200
▁approaches 31199
arily 31190
ott 31190
ales 31185
▁File 31184
▁Consumer 31180
▁monitored 31171
▁Sony 31170
wala 31167
▁preserve 31160
BC 31157
▁Justices 31153
▁hoped 31146
▁studio 31142
isk 31138
▁filling 31138
▁blocks 31131
▁cas 31130
▁outer 31130
▁asserted 31118
ona 31113
▁accounting 31108
▁pit 31097
▁Java 31094
▁Register 31094
idd 31090
▁Cy 31087
▁NTR 31085
▁hosts 31078
▁priest 31072
▁spaces 31063
▁outrage 31062
▁imagination 31061
ild 31060
▁fatigue 31060
▁NI 31056
▁Till 31049
▁clubs 31049
▁Link 31048
▁Haasan 31046
▁unc 31046
▁genuine 31039
▁Surat 31029
▁lecture 31013
▁− 31003
▁JNU 31002
▁da 30996
▁PAN 30995
atch 30994
aging 30993
▁staged 30989
iving 30979
▁kiss 30973
▁fathers 30958
▁Poll 30957
▁UNESCO 30955
▁Rishi 30937
NA 30934
▁invested 30926
▁Buddhist 30924
▁associate 30923
▁DGP 30916
▁evident 30910
uting 30907
▁tensions 30902
▁allies 30900
▁carrier 30899
▁Phone 30890
▁Bra 30888
▁Hand 30853
▁Stop 30825
▁hat 30820
ief 30816
▁Nor 30816
▁irrigation 30815
▁Independent 30814
▁Nov 30813
▁holders 30810
▁advise 30800
▁literally 30796
▁tobacco 30793
▁lands 30789
Ch 30783
▁cake 30776
▁eagerly 30772
▁kit 30759
▁wanting 30758
▁Lab 30746
▁india 30741
RP 30740
▁Truth 30740
▁neutral 30737
▁prisoners 30737
▁incorporated 30736
▁Han 30730
▁economics 30726
▁Hebrew 30725
▁flooded 30722
lu 30716
▁Cell 30714
▁publicly 30710
▁bas 30707
employ 30701
DS 30700
▁buried 30700
aling 30699
▁scores 30696
regn 30692
▁Sher 30691
▁thereby 30691
▁Low 30682
▁BSNL 30673
▁estimate 30667
▁retain 30666
▁Jordan 30664
rup 30660
▁telecom 30656
▁applicant 30655
▁lif 30655
▁Ju 30651
▁enhanced 30643
▁transparency 30643
▁Infrastructure 30640
▁Portuguese 30638
▁Sydney 30633
▁sle 30633
▁claiming 30628
▁suggestion 30619
▁est 30609
uls 30608
▁arises 30608
▁Selection 30592
▁sung 30590
▁Beat 30589
▁prep 30586
VP 30582
iff 30572
ential 30568
▁expanding 30563
▁Akbar 30559
▁Shivraj 30551
side 30543
▁Prior 30531
▁expertise 30522
▁Navjot 30516
▁observation 30507
PA 30495
▁6- 30494
▁compound 30487
▁outcomes 30485
▁alarm 30482
▁kings 30477
▁biological 30457
▁Honda 30446
clock 30445
▁Chouhan 30440
▁posting 30437
▁Village 30432
▁IMD 30430
▁estimates 30426
▁Jasprit 30410
▁elsewhere 30408
▁indigenous 30407
udi 30400
▁III 30400
▁DVD 30398
itch 30397
▁87 30396
▁forthcoming 30396
▁Solar 30386
▁belie 30386
▁hem 30385
▁isolation 30384
▁Nay 30376
anned 30369
▁Buddha 30365
▁compassion 30365
▁unprecedented 30362
▁Mang 30361
▁Shukla 30355
▁sciences 30352
▁theatres 30349
▁Gir 30337
▁2030 30308
▁10- 30306
otherapy 30305
▁Heritage 30301
▁Af 30298
▁settlement 30297
▁ren 30293
hold 30291
▁dri 30289
▁Indeed 30288
▁ster 30282
▁fil 30279
▁ranking 30276
▁consisting 30273
▁Details 30270
▁CN 30264
▁IPS 30253
izers 30239
unk 30239
ounded 30236
а 30236
▁Heat 30230
▁Mufti 30228
▁Prepar 30222
▁cloth 30221
▁highlight 30220
▁Large 30213
▁Supp 30211
▁RR 30205
▁preferred 30205
▁Alexander 30197
▁disputes 30183
▁mere 30177
▁critically 30165
▁liability 30158
▁toxic 30152
▁mer 30138
▁Dutch 30130
ashes 30128
▁checking 30126
IA 30123
rel 30120
▁Georgia 30115
than 30108
▁adventure 30104
▁phrase 30098
▁1986 30085
iful 30084
▁migrant 30084
▁complain 30082
▁Similar 30074
▁gotten 30071
▁Os 30070
▁Vij 30066
tha 30056
▁taxi 30056
▁Highways 30052
▁Int 30052
box 30049
▁NDRF 30047
▁Gop 30043
▁Electric 30038
▁collective 30036
words 30029
▁nationwide 30029
aks 30025
▁mus 30022
OM 30013
lay 30009
▁Anna 29990
▁Vardhan 29983
▁intest 29980
▁Sushil 29977
iter 29969
▁probing 29967
oz 29963
▁Kat 29962
ule 29960
▁Prabhas 29959
▁convenience 29959
ories 29957
▁fishermen 29949
▁thorough 29941
▁medicinal 29940
▁precisely 29940
mes 29935
OW 29934
▁Girls 29933
▁Ham 29915
▁casino 29910
▁purchases 29907
wad 29901
▁faithful 29889
▁tracking 29877
▁Kir 29869
ech 29859
▁jewellery 29855
▁subscription 29853
▁tor 29847
▁responding 29843
▁occup 29839
▁conscious 29836
▁Sudden 29831
instein 29823
▁Library 29822
▁virtually 29817
light 29814
▁grave 29810
▁inex 29805
▁thirty 29802
▁presents 29799
wat 29797
▁variable 29786
र 29785
hour 29776
lim 29773
akers 29769
ius 29761
▁Pratap 29761
▁sunlight 29760
▁Coast 29756
▁Rani 29753
▁odd 29753
inter 29752
ior 29752
▁Tam 29744
▁realistic 29723
▁lasts 29721
▁Tir 29714
onda 29713
▁wondering 29713
▁deposits 29712
▁Es 29708
▁Boris 29704
▁OnePlus 29703
▁pat 29694
▁Housing 29690
▁256 29688
una 29685
▁attractions 29684
▁Cross 29645
▁gentle 29639
▁burned 29638
▁closing 29628
▁Atlantic 29625
ems 29624
▁mang 29624
▁replacement 29624
reg 29620
▁82 29619
anc 29618
▁declare 29617
akar 29612
▁fo 29612
▁Ford 29605
▁reserve 29605
inger 29603
▁1988 29597
making 29587
▁Workers 29585
arshan 29579
▁graduated 29578
ette 29573
▁delight 29558
missions 29547
par 29546
▁Dem 29541
fort 29539
▁tries 29537
▁viewers 29516
▁coaches 29507
▁param 29507
▁institutes 29499
▁tragic 29498
▁BE 29493
▁XI 29492
▁acquisition 29481
▁Physical 29480
▁arrives 29478
▁paintings 29472
rey 29470
while 29461
▁bio 29460
▁hom 29458
▁pour 29447
▁Software 29446
▁lungs 29445
▁surveillance 29445
▁jet 29442
▁Return 29439
▁referring 29437
▁Kumaraswamy 29436
▁electronics 29436
affe 29432
▁Championships 29429
▁Netflix 29428
▁parallel 29428
▁Model 29420
▁CAA 29415
▁reign 29412
ols 29406
▁Kon 29402
▁tw 29401
orial 29385
▁Sky 29385
rology 29384
▁Aff 29383
lo 29376
OD 29370
hab 29370
▁furn 29370
elf 29368
▁waves 29366
▁develops 29364
▁Sourav 29363
▁execution 29360
for 29352
▁Gogoi 29352
▁porn 29342
▁pricing 29342
pro 29330
▁enterprises 29330
▁protested 29324
▁Const 29321
▁THE 29319
▁True 29318
▁Current 29299
▁Nad 29286
▁chemistry 29278
uda 29277
agh 29276
Pakistan 29273
▁Bu 29265
▁compliance 29262
▁Chapter 29256
iced 29250
▁Chakraborty 29249
empt 29247
alli 29242
aring 29239
▁qualification 29238
ME 29229
▁irre 29227
▁tributes 29227
▁aggressive 29226
▁wages 29221
ific 29213
▁contacts 29210
▁accommodation 29209
zed 29206
▁encouraging 29205
▁entities 29199
▁Bajaj 29197
▁inhabitants 29195
▁Nagaland 29186
▁Disease 29179
▁landed 29179
▁conversion 29175
▁characteristic 29158
anas 29157
▁attempting 29154
▁DELHI 29151
▁communal 29142
▁Hinduism 29139
▁legally 29130
▁deb 29126
ician 29122
▁emissions 29120
▁stri 29118
▁stretch 29108
▁Gates 29105
well 29100
▁ammunition 29096
▁hang 29094
▁suspension 29094
aken 29091
umber 29088
▁bet 29086
▁establishments 29086
▁Vadra 29078
▁launching 29072
▁Jer 29065
▁hor 29055
▁width 29053
arat 29051
▁Pictures 29045
▁pays 29044
▁Days 29042
.00 29038
▁photographer 29033
▁dining 29030
▁renewable 29030
▁palace 29023
ope 29017
▁impacts 29016
SO 29014
▁beloved 28992
▁Annual 28988
▁aviation 28959
▁Calcutta 28946
ogging 28938
▁tie 28935
▁graduation 28923
▁Whats 28918
▁twelve 28916
General 28912
▁inclusive 28910
▁blow 28891
▁grandfather 28890
▁Richard 28888
▁frustrated 28887
▁nights 28885
▁Harris 28874
▁wives 28874
eta 28866
▁Wall 28857
▁owns 28853
▁Against 28851
▁inst 28838
▁nurses 28838
den 28835
▁essence 28835
▁batteries 28830
▁Sing 28828
▁discovery 28828
▁ma 28828
▁Rashid 28825
ester 28822
▁Metropolitan 28821
▁Log 28819
▁Raman 28814
▁soy 28813
▁Users 28811
▁dough 28805
▁creativity 28796
▁1987 28794
▁smiling 28790
▁fears 28784
ect 28779
▁recall 28776
▁Victoria 28774
▁involve 28771
▁ju 28771
aves 28769
▁sympt 28769
▁label 28767
▁exceptional 28762
▁compatible 28749
▁Aaron 28731
ho 28724
▁attraction 28722
▁representation 28718
joy 28716
aste 28713
▁Durga 28711
▁automobile 28710
aming 28707
▁protocol 28707
rou 28705
encing 28703
▁Omar 28703
icate 28700
▁Chang 28699
agg 28698
▁Jas 28686
▁Kozhikode 28684
▁Products 28678
▁Vinod 28670
▁oils 28670
▁Chemical 28665
▁Sindh 28665
▁strain 28664
▁Mu 28662
▁spec 28662
▁Kiran 28659
▁developers 28651
▁apologise 28644
▁gently 28643
lands 28642
▁mir 28637
▁1972 28630
ailed 28628
▁Challengers 28621
▁glasses 28618
▁Basic 28617
▁dioxide 28610
ells 28604
▁Leave 28604
▁sentiments 28596
rog 28587
▁Linux 28586
▁dra 28584
▁commander 28579
▁margin 28577
▁exclusively 28576
▁< 28573
▁1983 28570
hem 28568
rogen 28565
▁meter 28559
▁hy 28557
▁dignity 28554
▁bullet 28550
alpur 28547
▁Going 28547
▁lyrics 28542
▁Trophy 28534
-9 28530
▁prevented 28524
▁tri 28521
▁..... 28513
▁reacted 28508
ida 28501
ien 28490
ked 28486
▁ambassador 28481
▁94 28474
iel 28472
▁Raut 28472
▁16- 28468
▁Hindustan 28468
▁glucose 28466
iant 28461
▁pharmaceutical 28458
▁fielded 28456
▁steady 28453
▁integration 28449
▁recognise 28448
▁graph 28439
▁advis 28436
GA 28435
▁refuse 28435
▁jurisdiction 28432
▁certification 28430
▁acqu 28427
acter 28425
▁mol 28404
▁Bhavan 28402
▁Alex 28395
▁Beyond 28393
litre 28387
▁89 28382
▁61 28380
▁Naval 28367
▁swing 28359
▁Share 28358
▁shades 28353
bel 28349
▁condemn 28349
▁boyfriend 28347
▁Vikas 28345
▁trillion 28343
▁Phot 28340
UR 28338
▁Resources 28327
▁Rajendra 28326
amon 28324
▁IAS 28318
▁emails 28317
alt 28316
▁prevents 28311
▁wor 28287
▁urge 28278
▁ownership 28270
▁prov 28265
most 28263
gal 28262
▁guaranteed 28262
iac 28261
▁bonus 28257
▁Hy 28253
▁jump 28252
▁Entertainment 28233
▁Nas 28218
▁Harvard 28210
rav 28208
▁potentially 28199
oney 28191
▁decent 28190
▁queen 28190
▁MBA 28185
▁regardless 28184
▁adopt 28182
▁launches 28178
▁economies 28176
▁searches 28171
▁ped 28170
▁preferences 28167
▁spectrum 28159
▁notable 28154
▁ads 28152
▁healing 28149
▁lover 28147
▁FIFA 28132
-15 28116
▁intensity 28111
▁array 28103
▁MSME 28102
▁foreigners 28101
▁relaxed 28096
ims 28087
̄ 28084
▁quarantine 28068
▁Lee 28063
▁Competition 28061
▁females 28059
▁traveled 28059
hik 28058
▁hanging 28057
▁Cyber 28053
▁entrepreneur 28053
▁experiments 28047
▁appro 28036
▁lists 28034
▁termin 28028
▁pose 28026
▁offline 28019
▁remark 28019
▁utter 28013
▁contrad 28011
deep 28010
▁miracle 28010
idence 28007
▁licence 28007
▁frag 28003
▁mortality 27995
▁bonds 27994
▁Jonas 27993
▁puts 27991
▁imported 27986
▁poison 27980
infl 27977
▁Ret 27967
▁endeav 27961
▁900 27960
▁ensured 27959
▁Teacher 27958
▁VP 27956
▁violations 27951
▁Var 27950
▁worries 27948
् 27946
▁dynamic 27937
iser 27923
ask 27921
▁oral 27916
edic 27907
called 27904
▁continent 27896
ym 27885
alam 27884
▁Sch 27881
▁Case 27878
▁sequence 27877
▁93 27875
о 27872
▁migrants 27861
▁Mayawati 27855
action 27854
▁personalities 27853
▁buyer 27852
▁Kad 27847
▁ward 27839
▁stays 27837
isions 27832
asts 27822
▁favourable 27821
▁borrow 27815
▁reception 27783
▁corrupt 27782
▁dozen 27780
▁settle 27780
▁influential 27778
▁Jaishankar 27771
▁Raw 27764
▁strengthened 27760
▁ultimate 27758
▁wheel 27753
aja 27750
roll 27749
▁wal 27749
▁Accident 27745
▁specially 27742
▁sake 27739
▁Elizabeth 27729
▁biopic 27729
▁Rang 27727
▁donated 27718
▁Shilpa 27717
▁ep 27715
▁formally 27712
▁Mans 27711
vendra 27708
sa 27707
▁108 27698
▁raids 27691
wari 27690
▁characterized 27688
▁Friend 27687
▁Francisco 27684
▁GS 27677
▁brows 27676
car 27674
▁Da 27674
▁wage 27671
▁Registration 27666
place 27663
▁commence 27662
▁KP 27658
▁Economics 27654
▁DO 27648
▁scoring 27641
▁evaluation 27631
▁Gowda 27626
nds 27622
▁Depending 27620
▁Wait 27620
▁Results 27618
▁tone 27609
▁Ball 27596
▁contacted 27585
▁demonstrated 27585
▁Austria 27584
▁devoted 27582
▁somehow 27581
▁79 27580
▁nowadays 27571
▁surgical 27567
▁spectacular 27559
▁superb 27551
▁thermal 27549
▁sanctioned 27548
▁drives 27541
▁92 27529
▁wom 27516
▁Puducherry 27515
▁customs 27511
ker 27509
▁violating 27497
▁Axis 27495
aba 27485
▁Ever 27485
▁Early 27472
UT 27463
asha 27462
▁cere 27460
▁Qualcomm 27441
▁hole 27440
▁RT 27436
▁wildlife 27428
pers 27417
▁establishing 27413
round 27407
irst 27405
▁focuses 27403
▁alike 27401
▁144 27395
▁forming 27386
▁Alzheimer 27384
▁cattle 27380
iring 27377
35 27369
owed 27358
▁judgement 27358
▁Bat 27346
▁Jagan 27337
▁Samuel 27337
▁Comple 27330
▁proposals 27328
▁surge 27328
▁Trad 27321
tend 27320
▁conditioning 27320
▁DG 27317
▁cheating 27309
▁Anant 27307
▁occurrence 27306
▁nevertheless 27304
▁distinction 27303
▁1975 27299
▁ISIS 27294
▁scholars 27287
▁1979 27286
▁argued 27282
▁controlling 27280
yas 27279
▁thrown 27267
hra 27263
▁audiences 27260
▁pushed 27258
▁conveyed 27257
32 27245
▁legislators 27244
▁Pa 27243
▁Albert 27238
▁minorities 27237
▁Banking 27231
▁Tech 27228
28 27227
▁ecosystem 27224
▁utilized 27224
▁remedies 27223
▁sparked 27220
▁cancel 27218
▁evacuated 27217
▁survival 27215
▁Boston 27209
▁mayor 27206
▁Movie 27198
▁regulation 27198
▁BRICS 27195
aan 27190
▁Animal 27186
▁deadline 27184
▁loses 27182
▁Pooja 27180
▁memorial 27180
▁preference 27174
▁Politics 27158
esis 27157
▁gut 27154
▁Sources 27153
▁stopping 27152
▁tense 27148
▁fac 27143
▁rect 27131
til 27128
▁Employment 27127
bage 27126
▁helicopter 27120
▁contin 27116
▁Rich 27111
▁Rio 27111
▁Ref 27110
▁crushed 27102
▁reiterated 27099
▁operators 27089
▁freely 27085
▁deteriorated 27082
▁evolution 27080
▁wa 27077
kg 27050
▁Saf 27050
▁commerce 27050
▁superior 27044
▁teaches 27043
▁Drug 27033
▁shots 27024
▁Bet 27022
It 27017
▁packaging 27014
page 27010
▁syn 27007
▁procurement 27004
▁mixing 27002
fe 27001
▁Ber 26996
▁promoted 26985
largest 26984
▁Messi 26981
▁infant 26972
▁Bridge 26964
esome 26960
▁Gl 26956
▁Corruption 26944
iro 26942
▁1945 26936
inos 26935
▁Ran 26933
▁Cro 26921
ival 26920
▁originated 26913
▁singles 26908
key 26899
uit 26895
▁Azhar 26890
▁awaited 26887
ruct 26880
▁modes 26880
▁partial 26872
▁supervision 26870
▁desires 26868
▁13- 26854
▁Citizens 26853
▁Jail 26853
▁Turn 26852
▁assumed 26851
▁adapt 26849
▁Guard 26844
▁finals 26841
▁beating 26839
▁hills 26830
▁Amar 26825
▁Sleep 26823
▁arriving 26820
▁favorable 26820
▁dealt 26817
oted 26813
▁105 26813
eal 26811
▁Level 26807
▁corporations 26805
▁Bij 26801
▁Scheduled 26801
▁passage 26796
ained 26790
cher 26789
▁distinguished 26787
▁Sonakshi 26784
▁Madrid 26781
▁intend 26775
GP 26768
▁earning 26765
▁Reg 26763
oked 26760
▁Bhup 26750
cel 26746
▁convention 26742
▁NA 26741
▁punish 26738
▁cardiovascular 26723
▁wooden 26722
▁eliminated 26720
▁HE 26713
▁Van 26711
▁conferencing 26709
▁Countries 26707
▁luxury 26707
oting 26705
▁1962 26690
▁financing 26685
igned 26682
▁infectious 26679
▁machinery 26677
▁Coming 26676
▁filter 26674
▁churches 26672
▁construct 26670
▁Dance 26665
▁pap 26660
▁fifty 26655
aut 26646
▁hyper 26646
▁av 26643
▁Bush 26639
▁teaser 26638
▁Randeep 26631
ties 26623
▁Magistrate 26623
▁Cap 26620
▁secular 26619
ayam 26610
▁Interest 26608
▁pilots 26608
▁managers 26606
▁invent 26605
▁dimensions 26603
▁additionally 26595
▁Stalin 26586
▁viol 26586
▁Swedish 26584
▁independently 26566
▁conventional 26561
▁Effect 26554
▁Exam 26553
▁authorized 26552
▁Rad 26548
▁beta 26544
▁Mitchell 26542
uction 26540
▁Fat 26535
▁smallest 26533
▁bless 26527
▁Ga 26524
BI 26520
▁newborn 26520
century 26519
life 26512
▁profound 26508
oves 26495
▁Short 26493
▁attorney 26490
▁Records 26486
▁releasing 26486
▁siblings 26483
ca 26469
▁Future 26469
▁Block 26466
▁dedication 26466
cons 26459
▁slammed 26457
▁worthy 26457
▁Persian 26452
▁packages 26445
rations 26435
▁ens 26432
ankar 26428
▁funeral 26417
verage 26415
▁provinces 26415
ision 26407
▁Aer 26400
▁deeper 26399
▁Shroff 26398
▁invented 26398
agram 26395
▁basketball 26394
▁fet 26390
▁wore 26387
mentation 26384
▁Advisor 26382
▁disk 26377
▁ste 26368
▁Winter 26366
▁Dhabi 26362
▁finds 26358
▁Ek 26357
ived 26356
▁magnificent 26352
▁impacted 26343
reet 26341
▁Rock 26340
▁ber 26327
▁sour 26326
▁protective 26325
sk 26323
▁violated 26321
▁interfere 26320
LE 26318
▁allotted 26314
BS 26308
▁argue 26307
▁certified 26307
▁selfies 26307
▁Pun 26304
▁regulatory 26301
▁unions 26293
▁Years 26281
ney 26277
▁Ibrahim 26277
▁bitter 26272
▁illust 26267
ded 26263
▁dietary 26258
▁Vinay 26257
mond 26253
▁exped 26253
▁Hopefully 26249
▁signals 26249
▁minimal 26248
▁momentum 26246
▁Jayalalithaa 26238
acc 26235
▁republic 26228
▁Syrian 26217
▁inaugurate 26202
▁quantities 26202
▁beaches 26200
ele 26198
uj 26193
▁skilled 26188
omed 26184
▁understands 26183
▁volunteers 26181
▁Hero 26180
▁Laksh 26176
▁mg 26175
▁summary 26174
▁nar 26164
rang 26155
▁airlines 26154
▁clip 26152
▁militant 26150
▁Janhvi 26149
▁confessed 26145
omet 26143
ands 26126
▁Airways 26124
▁gearbox 26124
▁Nic 26121
▁Hi 26114
▁Match 26110
eller 26104
▁proportion 26098
umar 26097
▁workshop 26094
▁maritime 26092
▁considerably 26089
▁robust 26086
▁Taj 26081
chi 26072
scale 26069
▁Panch 26062
▁Ren 26059
▁riots 26056
▁Path 26052
▁memorable 26052
▁ov 26048
ato 26045
▁1969 26040
▁1.3 26037
fa 26036
▁conferred 26035
▁negligence 26026
▁Sil 26024
puri 26019
▁Malaika 26018
ressing 26013
tic 26013
▁constitute 26003
▁campaigns 25993
▁Sikhs 25991
▁thread 25982
ios 25976
▁maker 25971
▁inspection 25970
▁fulfil 25957
▁passionate 25956
▁motivated 25945
▁Bhubaneswar 25937
ensions 25933
▁Subhash 25924
▁shirt 25921
-18 25920
apan 25917
▁sodium 25908
▁Communications 25902
▁81 25899
▁cy 25897
▁Disney 25896
▁Phase 25891
omb 25890
▁1985 25888
▁Criminal 25882
▁tractor 25879
▁opp 25878
▁string 25875
▁acquitted 25872
▁aud 25870
▁accuracy 25868
▁vom 25867
▁ally 25865
▁ate 25865
▁determination 25862
▁worrying 25858
China 25856
arnath 25856
▁Ancient 25854
▁Until 25850
▁Voting 25850
▁Hrithik 25849
▁Finland 25848
▁Mysore 25847
▁retained 25842
▁OP 25828
▁shr 25825
▁auspicious 25823
▁overwhelming 25821
▁Kisan 25819
▁specialized 25813
▁supreme 25791
▁specialists 25788
▁auction 25776
▁Dip 25768
▁opposing 25768
▁investor 25764
asted 25763
▁verification 25759
▁Invest 25756
▁contents 25755
▁Umesh 25754
AF 25737
▁modified 25733
irth 25729
ough 25711
▁Sale 25710
uma 25709
▁fiction 25709
▁highways 25706
berry 25705
des 25701
▁Patnaik 25690
▁Push 25689
▁epic 25689
▁rival 25688
▁greeted 25685
▁ladies 25683
ainted 25679
imate 25677
▁Advocate 25676
▁Final 25670
▁featuring 25664
▁whatsoever 25658
▁upgrade 25657
▁humanitarian 25651
▁OBC 25646
▁elaborate 25643
atha 25642
▁1973 25638
▁wid 25636
▁highlights 25634
▁Mid 25626
▁jumped 25624
icks 25614
zes 25609
finals 25604
▁gaining 25603
HA 25599
▁ty 25599
▁Hyd 25598
▁mirror 25596
▁aspirations 25588
▁Andrew 25584
▁vessel 25584
xic 25583
▁immun 25577
▁Quran 25575
hee 25571
▁magnitude 25569
▁mig 25566
▁Vivek 25562
lor 25553
▁epidemic 25551
▁petitions 25531
▁Sidharth 25528
rul 25523
▁Fer 25521
▁1920 25519
ape 25512
-17 25508
▁Unit 25507
▁salaries 25505
▁mindset 25504
▁Comm 25503
▁Huawei 25501
▁Sensex 25501
▁suspicious 25496
▁touching 25489
▁91 25487
endra 25482
olog 25481
▁5000 25478
▁benefited 25478
▁edit 25476
▁Official 25472
ashing 25470
▁SSP 25468
ety 25463
▁Nawab 25458
▁appreciation 25449
▁clos 25445
▁criminals 25442
▁males 25441
riv 25434
▁varied 25434
▁ICU 25431
▁Benjamin 25426
list 25421
▁scar 25419
tar 25413
▁novels 25410
RL 25405
▁Learning 25405
▁reserves 25405
▁strive 25401
▁Sonu 25398
▁vacancies 25398
▁CA 25390
hyd 25389
zing 25389
▁170 25385
▁Chairperson 25385
▁landscape 25384
▁tradem 25384
▁harsh 25381
▁rational 25380
▁Branch 25373
▁exceptions 25373
years 25368
▁Bihari 25365
-12 25362
▁affection 25361
▁obesity 25361
▁decides 25359
▁sporting 25355
▁stat 25351
▁Qureshi 25348
▁politically 25344
▁Siddaramaiah 25339
▁herbs 25339
band 25337
▁sur 25333
pect 25329
▁upro 25324
▁enrolled 25322
using 25320
▁burst 25315
▁liberty 25310
▁Christianity 25305
▁450 25304
▁Method 25301
▁perception 25298
▁amended 25294
▁pistol 25287
▁solving 25283
▁reveals 25282
▁posed 25281
▁random 25278
▁gast 25274
▁1961 25272
▁acknowledged 25268
▁parked 25267
▁discharge 25265
▁accepting 25261
▁Jitendra 25260
oven 25257
▁expense 25254
▁bridges 25251
▁firmly 25248
su 25238
Sh 25235
▁Beach 25235
▁ruler 25234
▁Lady 25231
awan 25229
▁drunk 25225
▁Corporate 25223
▁sovereignty 25219
▁Krish 25215
▁collections 25215
orted 25212
▁Karn 25206
▁beautifully 25199
▁Player 25192
▁Cases 25191
▁championship 25189
▁Harish 25188
ota 25186
▁wasted 25177
▁ed 25176
NS 25173
athan 25170
illing 25168
▁Caribbean 25167
▁utmost 25162
▁Bip 25148
▁affiliated 25142
▁collecting 25136
▁grey 25136
▁hopeful 25133
▁ranging 25129
▁Exp 25128
▁leak 25125
▁Generally 25123
maker 25121
▁Visit 25120
▁hospitalised 25119
aces 25113
▁conflicts 25111
▁Bir 25109
▁reflected 25105
aki 25096
▁1930 25091
want 25084
▁14- 25080
▁Naveen 25068
▁Pathan 25067
▁Chahal 25066
▁hiding 25066
▁functionality 25063
▁wondered 25060
▁Fast 25057
▁enabled 25057
iet 25053
isp 25047
▁committing 25046
▁fingers 25040
▁amino 25032
▁blessing 25032
▁Certificate 25031
▁subsidy 25029
▁hatred 25026
▁tip 25020
net 25008
▁fate 25004
▁temporarily 25003
▁pilgrims 24999
▁Jr 24998
lies 24994
▁distress 24991
ples 24989
▁vent 24989
▁Product 24988
▁upto 24987
▁Hamid 24986
▁illnesses 24985
cious 24981
▁Acting 24980
▁worn 24978
▁Yemen 24970
▁30,000 24969
fi 24967
▁ann 24957
▁Guwahati 24951
▁Bose 24948
anya 24947
▁obst 24947
▁sometime 24947
▁announces 24944
-16 24942
▁workout 24940
▁Mantri 24937
▁Living 24935
▁ceiling 24935
sen 24932
▁Irani 24929
▁cave 24928
play 24926
▁Deol 24926
▁config 24914
▁embassy 24914
acks 24902
▁anxious 24902
▁pitch 24899
▁twitter 24899
▁mush 24894
▁condol 24891
▁Important 24890
▁probability 24884
▁lunar 24877
▁Naik 24873
▁finger 24869
▁guns 24866
▁Pink 24863
▁prof 24857
ements 24854
▁commands 24849
ori 24841
▁2-3 24840
▁appliances 24835
▁LPG 24832
▁menstru 24832
▁celebrates 24828
▁chem 24824
▁prayed 24822
▁repay 24821
▁raises 24820
▁sanitation 24814
▁cops 24810
▁sorrow 24806
▁BP 24801
utions 24800
▁lately 24797
▁Dog 24792
▁af 24785
▁disg 24785
▁pleas 24778
▁span 24774
▁ton 24772
▁Sin 24768
▁pinch 24767
▁horrible 24764
▁lon 24762
ergy 24752
▁Ti 24750
▁cub 24746
▁Response 24744
▁psychology 24742
mented 24740
▁ME 24729
▁erupted 24727
▁tissues 24720
▁DS 24715
▁gambling 24715
▁DRDO 24711
▁trick 24711
izz 24710
▁transformed 24708
▁san 24706
▁Stock 24699
▁tooth 24691
▁Works 24690
bon 24689
▁attacking 24688
▁Primary 24682
▁Way 24681
▁encry 24676
ifier 24675
ukh 24673
feeding 24651
▁steadily 24651
rounder 24650
▁consistently 24641
▁neighbors 24641
▁subscribers 24639
▁autonomous 24636
▁tract 24631
▁Jaish 24630
▁Certain 24626
▁rou 24626
ste 24623
▁ISO 24615
▁rough 24607
orie 24606
▁dresses 24605
▁Season 24603
eed 24601
▁Rashtriya 24599
▁crossing 24599
▁earnings 24598
vy 24596
otes 24592
▁respects 24592
▁ATM 24576
▁Commercial 24572
▁recalled 24566
▁ICMR 24565
▁Mars 24563
▁Matt 24560
▁Carolina 24554
▁Suk 24554
▁1982 24551
▁nursing 24549
▁DI 24548
▁Person 24548
aining 24538
pet 24537
agn 24535
▁Representatives 24529
▁meanwhile 24528
vin 24527
▁attain 24527
▁knife 24527
▁Easy 24523
ection 24511
▁fatal 24511
▁servers 24508
▁beer 24502
▁circles 24501
27 24499
▁kick 24488
▁Poon 24482
▁rocket 24469
▁178 24465
▁insects 24465
encies 24463
▁strang 24460
ayed 24457
▁oppose 24454
▁Engineer 24449
▁dressed 24449
45 24446
▁planted 24444
▁IB 24441
▁bicycle 24441
section 24430
▁Presidential 24429
▁reads 24424
▁codes 24421
▁clarity 24419
ille 24416
▁Efforts 24416
▁categor 24413
▁supportive 24413
mark 24412
▁Husband 24404
▁Kalam 24395
▁lakes 24391
olution 24388
▁Bell 24388
▁Wor 24384
▁AIDS 24383
▁Fore 24383
ther 24370
▁Little 24369
▁safer 24365
▁du 24364
▁freed 24361
▁grain 24354
▁Buddhism 24353
▁Iqbal 24345
▁rolled 24344
▁HP 24337
▁Rashtra 24331
▁conversations 24330
▁policeman 24328
▁empowerment 24327
ning 24319
ict 24314
▁diagn 24314
▁flagship 24313
gaon 24306
▁Dharmendra 24304
▁colon 24304
▁compulsory 24289
▁Democracy 24286
▁dated 24286
▁Rob 24285
▁internationally 24285
Go 24283
▁IM 24278
▁Angel 24274
▁demonstrate 24272
▁DD 24239
▁safeguard 24239
▁partition 24235
▁MG 24234
▁baseless 24234
▁Broadcasting 24232
▁kills 24231
▁lip 24230
▁Azam 24228
▁Srinivas 24226
▁bottles 24225
▁Southeast 24220
▁Pot 24218
LC 24214
▁SIM 24210
▁Ly 24198
▁Courts 24194
▁FA 24193
▁necessity 24193
ganj 24164
elt 24161
▁stating 24161
▁cited 24160
▁bapt 24157
▁belonged 24152
▁Experts 24145
inity 24143
▁Vivo 24141
▁entertaining 24137
▁doubles 24132
▁trucks 24132
IR 24131
▁1964 24130
▁tower 24127
▁Develop 24118
▁Yuvraj 24111
▁cargo 24107
▁Examination 24106
▁Mos 24097
▁cats 24094
▁Hill 24093
▁signature 24091
▁Tag 24089
▁Getting 24079
▁Lic 24079
▁grandmother 24079
▁PDP 24078
▁Kashmiri 24077
▁Hockey 24074
▁empire 24074
▁intensified 24072
▁pel 24071
▁feat 24070
▁Oscar 24063
▁financially 24053
▁Rahane 24052
aint 24045
▁Particip 24044
▁Text 24043
▁urine 24042
▁Bhar 24037
▁Chh 24037
▁Attorney 24036
▁CH 24019
▁flee 24019
क 24018
▁prot 24018
equ 24009
▁laundering 24009
▁peacefully 24008
tery 24004
▁Jinping 24000
▁Shivaji 24000
▁verify 24000
▁4,000 23990
▁symbols 23989
▁Siddharth 23988
▁tut 23987
▁Together 23985
▁credited 23984
▁Literature 23981
ammed 23979
▁lashed 23979
▁empower 23977
▁angel 23970
itated 23969
▁declaration 23969
abilities 23966
▁Columbia 23961
▁Math 23960
last 23959
▁northeast 23959
▁Photos 23954
▁inconvenience 23942
▁marriages 23941
HD 23923
▁inch 23916
▁toilets 23916
orer 23913
▁Chancellor 23910
▁coinc 23910
▁heroes 23910
▁Irish 23909
▁delivering 23909
▁Vol 23908
ogle 23906
▁judiciary 23903
▁dignitaries 23897
▁opener 23896
▁Mahal 23895
▁prohib 23895
▁Knight 23891
▁listened 23880
▁diarr 23878
▁Color 23873
▁util 23872
▁Mehbooba 23870
▁cuisine 23863
▁Kaushal 23862
▁premier 23859
▁clarify 23857
▁Reuters 23853
▁reflects 23852
▁IF 23850
▁shoulders 23848
icing 23847
▁Relief 23847
▁ultra 23847
▁1976 23844
▁tim 23842
▁themes 23837
has 23835
rich 23835
▁Py 23835
▁Mughal 23830
▁Vers 23830
▁Shi 23825
cies 23824
▁factories 23824
▁~ 23823
▁IV 23822
▁damages 23818
▁marine 23818
▁valued 23814
▁closest 23807
▁enhancing 23805
▁musician 23804
arb 23803
▁tube 23795
iva 23793
▁Leaders 23793
▁ing 23793
▁Labor 23792
▁uncon 23786
▁desk 23778
▁motive 23772
anti 23770
▁therap 23766
▁editing 23760
uary 23759
▁publishing 23748
TV 23742
▁Bhagat 23741
▁inspector 23733
▁disagree 23731
▁Province 23728
▁interviews 23727
▁Bend 23724
mp 23722
▁whoever 23720
▁Popular 23718
▁Covaxin 23717
▁alternatives 23711
▁tast 23711
▁cruise 23708
▁Sec 23701
▁breach 23701
▁fray 23701
▁sincere 23699
▁Shanghai 23697
▁Shastri 23691
We 23690
rum 23689
▁wire 23682
was 23680
▁har 23678
▁decoration 23673
uf 23670
▁Dalit 23670
▁paise 23667
▁cod 23665
▁dial 23664
▁impression 23662
▁societies 23661
▁portfolio 23654
iki 23653
owers 23645
ums 23644
▁cleanliness 23644
▁Karthik 23642
iph 23628
▁inspire 23623
▁Gram 23621
▁Gujarati 23619
▁soccer 23613
31 23610
▁advisor 23610
▁dozens 23610
rome 23602
range 23594
▁apparent 23594
▁Aud 23590
▁Sai 23588
▁enters 23588
▁Rand 23576
▁Meet 23574
isted 23573
▁backward 23572
▁KCR 23569
▁costly 23567
reamed 23566
▁Tw 23561
▁improvements 23559
▁pond 23557
▁electron 23554
▁fer 23552
▁treaty 23545
▁Sel 23537
▁amb 23535
▁1956 23532
▁socio 23528
▁175 23523
▁lim 23520
di 23517
▁halls 23516
ju 23510
esty 23509
▁hygiene 23507
▁Ros 23505
▁congregation 23503
Hz 23501
oming 23498
▁awaiting 23496
▁inj 23493
orus 23487
▁compounds 23487
▁Oman 23480
▁meaningful 23478
▁lets 23467
ping 23466
▁forty 23466
▁Fear 23465
▁Maharaj 23464
eri 23459
itative 23459
▁flesh 23459
▁exh 23454
.- 23450
▁Rishabh 23446
▁excitement 23438
▁ox 23435
▁sustain 23435
VA 23432
▁apost 23432
ading 23431
▁listing 23430
▁3- 23425
▁commanded 23421
▁pics 23418
▁tox 23418
▁Kol 23410
▁contracts 23410
▁Commander 23409
▁badminton 23406
▁Rub 23405
ibly 23400
final 23399
▁Vicky 23399
▁Vehicles 23397
▁intent 23395
▁sits 23390
▁cultivation 23388
▁leather 23386
▁Mohanlal 23384
fight 23383
▁Ashish 23381
▁county 23381
▁spreads 23381
▁Pandit 23379
▁chargesheet 23379
▁Biotech 23376
▁circular 23375
▁ensures 23364
▁spray 23360
▁answering 23351
▁1974 23348
▁det 23347
▁walks 23347
▁antib 23345
andi 23344
lad 23344
▁Count 23344
▁priests 23343
▁Author 23341
▁recogn 23339
dar 23332
▁Embassy 23328
▁ext 23326
▁oven 23324
▁ideology 23321
inent 23319
▁imagined 23316
cast 23313
▁Bahadur 23307
▁column 23305
▁Kath 23303
▁SM 23303
▁Parishad 23302
▁flooding 23302
▁amendments 23300
▁cogn 23298
▁switched 23298
▁Pos 23296
▁speedy 23296
▁detention 23294
▁committees 23293
si 23288
▁Knowledge 23285
▁AT 23284
▁Ayush 23279
▁arch 23278
▁coat 23277
▁tolerate 23276
▁Kod 23271
▁finest 23270
imal 23255
▁Sham 23253
▁promptly 23252
lex 23246
▁canceled 23243
▁assaulted 23242
▁Close 23241
▁Week 23238
▁Williams 23225
▁Rom 23220
oration 23218
▁adviser 23214
▁boss 23212
▁pron 23207
▁Rajkumar 23206
▁Swiss 23200
▁Hans 23199
▁fabulous 23199
▁Seth 23189
▁rush 23187
▁Lt 23185
▁penned 23184
▁Phil 23183
▁breed 23182
▁Scientific 23179
inar 23178
▁immigrants 23177
▁Cinema 23176
▁op 23175
▁desert 23174
▁relaxation 23162
▁disability 23158
▁inaugural 23158
▁paired 23153
▁feared 23152
cers 23147
▁Chet 23146
▁horses 23144
▁compromise 23138
▁fails 23137
▁Dear 23134
▁pin 23134
▁1.4 23131
▁flexible 23129
▁emotion 23128
▁marty 23123
▁Sik 23120
alla 23114
▁Grad 23114
▁lin 23113
▁liter 23111
▁booking 23104
▁cosm 23103
▁evaluate 23099
▁Systems 23093
▁litres 23093
▁Amir 23091
▁viewing 23088
▁RS 23087
▁Host 23081
▁evolved 23081
ban 23077
▁Run 23074
▁bowled 23074
▁enjoys 23073
▁ranges 23070
▁Mrs 23066
▁measurement 23065
▁exhaust 23063
▁fortunate 23061
▁elders 23055
top 23046
▁Kush 23046
▁Khar 23042
▁Varma 23042
▁stain 23035
▁Maria 23033
▁unp 23033
hib 23027
uration 23026
▁Ras 23019
▁metals 23013
ographic 23012
▁emerge 23009
▁Prab 22992
▁remind 22986
▁Ped 22982
▁Wood 22981
▁tum 22981
▁IANS 22980
▁failing 22970
▁residing 22969
▁RCB 22966
▁connects 22966
▁searched 22965
▁particles 22960
iny 22957
▁configuration 22956
▁Pok 22949
▁humidity 22946
▁productive 22945
▁goddess 22941
▁logo 22940
▁Innovation 22935
33 22931
▁1965 22927
▁Sangh 22925
under 22922
▁Spec 22922
▁registering 22914
▁soup 22901
▁allocation 22897
▁grants 22896
▁Territory 22893
▁contributes 22887
OL 22886
▁Arabian 22883
▁thrilled 22874
MI 22873
▁Fair 22873
▁validity 22872
▁1967 22871
▁heal 22868
▁junior 22866
▁cancers 22864
▁Fashion 22863
▁correspond 22853
▁wounds 22847
▁ult 22844
▁Bul 22841
akshi 22836
▁Environmental 22836
▁transported 22836
▁Stephen 22822
▁extensively 22822
▁Ain 22821
▁toys 22821
▁competing 22811
▁Kr 22808
▁owing 22805
▁sharply 22804
▁lat 22799
oice 22792
▁Gate 22788
▁remand 22786
▁Ext 22780
▁salv 22780
▁Thane 22777
▁caps 22776
backs 22775
▁TikTok 22771
▁30- 22762
▁disappear 22762
▁chlor 22758
▁Hyundai 22755
▁joints 22754
▁Gauri 22752
▁discomfort 22750
▁Raina 22744
▁knock 22740
ikes 22729
▁Twenty 22728
▁AIADMK 22725
iction 22722
▁anticipated 22719
▁motorcycles 22715
▁1977 22709
▁legitimate 22709
amy 22708
▁182 22702
▁FDA 22702
▁Picture 22698
▁satellites 22698
▁Cold 22696
water 22693
wise 22687
ags 22686
isting 22684
▁gates 22683
▁quad 22683
▁Bhat 22680
ogen 22673
▁contributing 22672
heed 22671
▁narrated 22661
▁reliability 22659
away 22652
▁legacy 22652
▁1981 22649
▁sincer 22649
▁supplements 22646
▁sore 22644
▁Mot 22642
phones 22639
▁heights 22637
amma 22628
▁pursuing 22628
▁tunnel 22624
▁shooter 22622
▁bu 22621
▁disin 22617
hani 22616
▁unhappy 22613
election 22607
▁Bagh 22606
▁classroom 22604
▁Anderson 22596
▁remov 22582
▁convey 22575
▁publish 22571
▁Cra 22567
▁ambitious 22562
▁Enforcement 22551
▁disposal 22550
oval 22549
▁Disha 22548
▁conv 22547
▁Javadekar 22545
▁potato 22544
ye 22536
▁15- 22536
▁inspiring 22536
▁Sood 22530
▁Electrical 22521
oti 22514
▁Kher 22509
▁Neither 22506
je 22503
▁obtaining 22493
▁threatening 22490
▁ascertain 22488
▁slave 22485
ached 22480
▁antibiotics 22479
▁disabled 22479
▁trophy 22474
▁tune 22473
▁lasting 22467
akk 22465
oom 22456
▁panels 22453
▁feeding 22452
▁meditation 22452
▁Sexual 22448
ifications 22447
▁Louis 22446
cont 22445
▁hectares 22441
▁demonstration 22436
▁Page 22425
▁Bik 22422
▁summoned 22422
ikar 22421
aph 22410
▁Sales 22410
inating 22401
▁177 22401
▁Physics 22398
▁Samb 22396
▁compact 22396
asw 22394
▁Violence 22394
uv 22392
▁gray 22391
▁Jodhpur 22388
▁boats 22383
▁scooter 22383
▁restoration 22379
▁Saur 22377
oids 22375
▁Reports 22372
▁figured 22371
▁geographical 22371
▁counterpart 22368
hens 22365
▁monetary 22363
▁criticized 22358
jun 22353
vant 22352
▁trou 22350
▁Jersey 22349
▁Muzaff 22346
▁athlete 22341
▁Satish 22339
Pacific 22334
adu 22334
oning 22331
▁Roads 22329
▁Parrikar 22328
▁Activities 22326
▁approaching 22321
eli 22320
▁Ground 22320
▁specify 22320
▁Mallya 22317
▁Asif 22315
power 22314
▁Mund 22311
▁youngsters 22311
▁pic 22310
kumar 22308
▁calc 22308
▁PhD 22306
▁Sup 22304
▁cheer 22303
▁Opt 22300
lock 22290
▁optical 22286
▁Luck 22284
▁Pul 22283
▁secrets 22283
▁uncomfortable 22281
▁Siddiqui 22280
illy 22278
▁Greater 22278
▁loyal 22273
▁Rath 22269
▁Mediterranean 22264
▁promotes 22262
▁speeds 22262
▁filming 22261
▁WWE 22258
emb 22239
▁alerted 22235
▁employers 22229
▁objected 22229
▁pu 22228
▁1978 22227
▁clim 22225
ometer 22221
▁warming 22217
uka 22210
FO 22206
cha 22199
▁fined 22196
▁submission 22188
▁Gun 22185
▁architect 22183
▁institutional 22181
▁accommod 22178
▁scholarship 22172
▁Param 22171
▁seller 22170
standing 22165
▁governing 22164
▁lik 22155
▁Understanding 22152
▁bull 22151
▁interacted 22150
▁similarly 22150
▁caf 22145
▁Upd 22143
bound 22136
▁implications 22133
▁lamp 22132
▁Chauhan 22130
▁Khur 22130
▁census 22130
▁Centres 22118
▁Moto 22114
aro 22104
▁Junior 22099
▁floors 22099
▁extingu 22097
▁SI 22095
▁elegant 22087
▁Ev 22080
▁queries 22080
▁Allu 22077
anning 22074
▁steam 22073
▁Melbourne 22070
President 22069
▁tale 22069
▁360 22068
▁drain 22065
itha 22064
▁spacious 22060
▁cuts 22057
▁bothered 22056
.25 22052
▁Palestinian 22049
▁CSK 22048
▁Sant 22048
▁Ved 22048
▁Kenya 22045
▁OC 22044
▁Od 22042
cles 22041
▁Territories 22041
е 22036
▁emphasized 22036
▁hospitalized 22032
▁renamed 22031
▁Sudan 22030
▁Va 22029
▁Channel 22025
▁Colle 22025
▁Bench 22016
▁intensive 22016
▁campaigning 22013
▁sem 22012
▁sensors 22012
▁funded 22010
▁stringent 22010
ird 22009
kal 22009
▁boards 22000
▁1940 21999
▁Shakti 21998
▁havoc 21997
▁Sound 21996
▁Ishant 21995
▁utilize 21992
appa 21990
▁Pope 21987
▁competitors 21986
▁dwell 21981
▁Bro 21977
▁Treaty 21977
urity 21974
▁Bhav 21974
afar 21972
▁exchanges 21971
▁partially 21967
▁scalp 21965
▁Less 21964
▁py 21964
apped 21955
▁pets 21955
▁jawans 21953
rants 21952
riya 21951
▁Lieutenant 21949
▁Sy 21948
tt 21944
▁concentrate 21943
eling 21942
▁Menon 21941
▁retire 21941
▁Ratna 21939
▁gall 21939
▁Id 21938
▁petroleum 21932
▁sentences 21925
▁Mexican 21921
Ah 21917
▁curb 21917
▁Hu 21914
▁manif 21913
▁satisfy 21911
▁Table 21903
▁Istanbul 21900
▁knees 21900
rous 21896
▁Religion 21896
▁organize 21893
ension 21892
▁Commit 21892
▁Ath 21890
▁physi 21888
▁Rev 21885
▁compet 21884
▁Kapur 21869
ipped 21868
orous 21868
▁disclose 21867
▁drought 21864
▁receipt 21864
▁engaging 21862
▁accommodate 21857
aha 21855
▁designing 21851
▁surfaced 21851
▁Hind 21848
put 21846
▁coin 21844
▁Est 21842
iod 21837
NG 21835
part 21835
▁Beauty 21832
▁Crore 21832
▁electro 21829
▁MO 21826
ception 21823
▁Tharoor 21823
▁bikes 21821
ected 21819
▁Anj 21818
▁crack 21814
rain 21813
▁Electronic 21812
▁attracts 21812
▁sixes 21812
▁livelihood 21803
▁variations 21802
▁rainy 21794
wani 21792
▁turb 21790
▁shell 21789
OP 21787
▁impose 21787
▁Neeraj 21783
▁interpretation 21780
▁scan 21780
▁strengths 21779
▁wre 21776
ication 21774
odies 21773
▁artistic 21773
▁coaching 21773
▁Kishore 21765
▁Universities 21765
▁brush 21764
▁tre 21763
▁1968 21755
▁dense 21753
▁sealed 21752
▁kms 21751
▁metabolism 21751
nding 21744
▁nitrogen 21744
▁throne 21741
▁Virginia 21740
▁clue 21734
angal 21729
▁likewise 21729
▁batch 21726
gue 21721
▁nod 21721
iers 21720
▁keyboard 21719
▁revolutionary 21714
▁composer 21711
▁honored 21711
▁Taylor 21708
▁unfair 21706
▁praying 21705
▁Brand 21700
rs 21699
▁timing 21686
▁Kott 21685
▁Nish 21681
▁Kish 21670
▁Doing 21669
word 21660
eries 21654
▁hire 21654
ruction 21645
rus 21642
▁gym 21641
▁acceptance 21635
▁notices 21632
▁IRC 21628
▁Professional 21627
▁twin 21624
▁halt 21621
▁1-0 21619
▁civilization 21619
▁Bhai 21617
▁math 21615
▁Euro 21610
▁hiked 21597
▁offences 21592
▁presidents 21592
▁locate 21589
▁Wal 21586
ii 21582
▁divine 21580
▁resumed 21579
▁founding 21577
▁179 21576
▁milestone 21575
anka 21573
izations 21571
▁Shop 21568
▁unlike 21564
▁Hal 21562
▁discoura 21562
▁PG 21560
hea 21558
▁cylinder 21552
Os 21547
▁Partnership 21547
ridges 21544
▁Nanak 21543
▁Bil 21541
▁magnetic 21539
▁succumbed 21539
▁prevailing 21536
▁0.5 21535
▁Umar 21534
▁laser 21534
▁relate 21530
▁Aware 21525
ager 21522
▁Adv 21514
▁Czech 21514
▁divorced 21514
athing 21513
▁Bangladeshi 21512
▁wick 21509
aster 21508
▁ministerial 21503
igen 21491
table 21491
▁jets 21485
▁Respons 21484
stone 21479
▁prolonged 21478
And 21472
▁Venugopal 21469
▁insulin 21466
▁vis 21463
▁Saty 21461
▁Shashi 21452
FA 21451
▁sensation 21449
▁motivation 21448
▁Tur 21443
▁Drugs 21442
▁cou 21434
▁Kart 21423
ahu 21417
▁bride 21417
winning 21407
▁immensely 21407
▁Made 21403
▁loaded 21403
arch 21397
olk 21389
▁Mem 21389
▁fried 21389
▁accum 21388
▁targeting 21382
▁identifying 21377
▁Dream 21374
▁gatherings 21374
iver 21372
▁inhib 21369
asc 21366
irc 21365
▁ii 21363
ande 21362
▁comprised 21362
eline 21359
rance 21359
LY 21355
▁Got 21355
▁separation 21355
▁documentation 21354
▁simpler 21353
▁Nair 21347
▁obstacles 21347
▁installing 21344
apor 21339
▁packed 21337
▁Mahab 21334
▁Bin 21333
▁Crown 21332
▁Jet 21324
▁cooperative 21324
▁fe 21324
▁inclusion 21323
▁Sus 21319
▁eclipse 21319
▁Javed 21315
▁que 21296
▁Aad 21291
cop 21290
▁recipient 21289
▁sends 21286
▁opted 21283
▁fasc 21278
▁spl 21277
IV 21275
▁Eli 21273
▁Irrfan 21273
▁char 21273
▁Rajan 21270
95 21263
▁Ghulam 21263
▁Dead 21261
▁eager 21258
▁Advanced 21247
iar 21239
▁preserved 21235
▁Kane 21232
andra 21229
▁Actors 21228
▁dil 21219
▁Cry 21217
▁tribes 21216
▁Leela 21215
▁Tre 21215
▁ut 21210
▁Jun 21207
▁Study 21207
▁deeds 21206
▁Pilot 21203
▁progressive 21198
▁Tru 21197
▁Kom 21192
ا 21190
inson 21188
▁patent 21188
▁voter 21186
▁divers 21184
▁Coffee 21179
▁Ravichandran 21167
▁openly 21148
▁threw 21147
▁sweets 21142
omm 21140
rected 21140
▁rallies 21137
▁Buy 21135
▁declining 21134
gest 21132
▁Haf 21130
Us 21127
▁injustice 21126
▁measuring 21122
▁cryptocurrency 21119
▁insight 21117
▁apology 21116
▁nutritional 21112
▁deficit 21110
▁Owaisi 21105
▁Vodafone 21104
▁Mandir 21101
▁nurse 21098
▁corridor 21097
▁deciding 21096
▁beverages 21084
▁permanently 21079
▁automated 21075
oons 21073
▁velocity 21073
े 21072
▁advisory 21072
fect 21068
fire 21067
agraph 21066
urally 21066
▁superintendent 21066
▁Boeing 21064
▁Kashyap 21057
▁arom 21047
▁caring 21046
▁Soh 21044
▁Chandray 21038
▁durable 21031
▁Unlike 21030
▁exported 21028
▁750 21026
▁magazines 21023
▁Cristiano 21019
▁cam 21018
▁leaked 21018
▁cured 21017
▁ailments 21008
▁compliment 21008
▁accessed 21000
▁formerly 21000
48 20999
▁nominations 20999
apa 20996
▁Jobs 20995
▁ES 20992
▁raid 20988
▁cardiac 20985
▁constable 20983
▁Mental 20979
▁packs 20979
amil 20971
▁legislature 20969
▁Scott 20967
▁Gra 20955
▁mac 20951
▁MW 20949
aughter 20948
produ 20946
▁enacted 20941
▁nowhere 20940
▁guided 20936
ania 20935
▁rubber 20929
▁Santosh 20928
▁Brothers 20927
▁Protests 20924
▁neighbor 20919
▁drone 20915
▁4- 20909
▁cement 20906
▁Hot 20904
▁recy 20900
▁tens 20899
forward 20895
▁Mahmud 20893
и 20888
▁Shahrukh 20884
▁Techn 20880
▁departed 20877
▁healthier 20873
▁layers 20869
anted 20867
▁populations 20867
▁ruined 20867
▁distant 20854
▁recovering 20854
▁flexibility 20852
▁hurting 20851
ford 20842
umes 20837
▁flames 20833
▁sentiment 20833
▁serial 20831
▁Zone 20829
▁midst 20827
▁Kazakhstan 20826
▁Solomon 20823
▁deposited 20821
▁obligations 20819
face 20811
▁assure 20810
rets 20809
▁coins 20805
jeet 20803
▁inauguration 20797
▁Fin 20792
TH 20783
▁Swamy 20783
▁1.6 20781
▁disputed 20781
avati 20777
▁Month 20776
▁conce 20771
ctive 20762
▁Pankaj 20761
ption 20760
▁trips 20760
▁expressing 20759
▁wider 20756
▁TVs 20755
▁nabbed 20751
▁poses 20729
▁Hold 20727
▁Starting 20726
▁Operation 20718
▁Protest 20716
▁ramp 20716
▁bored 20710
▁Dist 20706
agan 20702
▁Sanj 20700
eni 20697
▁Overall 20697
▁Andaman 20696
iber 20693
▁pipeline 20693
▁crown 20692
▁champions 20691
▁dece 20688
▁complaining 20682
oys 20678
rest 20678
▁donation 20678
▁apartments 20674
▁diameter 20666
-30 20665
▁Garden 20661
▁Parv 20660
JP 20659
▁1949 20653
▁consensus 20652
▁talents 20648
▁nephew 20647
▁coup 20643
▁pill 20643
▁prosecution 20642
▁Rash 20639
wear 20634
▁Aside 20632
▁circulated 20623
rif 20616
▁Egyptian 20612
▁procession 20609
asaheb 20607
▁repe 20606
▁unpleasant 20606
dev 20603
▁01 20602
▁finishing 20601
xy 20598
▁satisfactory 20597
▁objection 20585
▁Valentine 20583
oint 20580
­ 20574
▁illegally 20570
heer 20565
amps 20564
▁Electricity 20562
▁purple 20555
cts 20551
▁cooper 20547
-200 20546
sha 20540
▁Ven 20539
▁rulers 20535
ially 20531
▁1966 20530
▁CR 20528
▁Plant 20527
nic 20526
liant 20524
▁keys 20522
▁variables 20521
hers 20520
▁halted 20518
▁elevated 20516
reek 20515
▁Il 20511
LD 20508
▁Image 20506
▁boiled 20504
▁20- 20501
▁optimal 20497
▁depressed 20492
▁prescription 20490
▁precise 20488
▁boring 20486
lines 20483
▁citing 20482
▁Haj 20481
monds 20476
▁compl 20476
agiri 20475
▁shareholders 20472
▁Tah 20471
▁mysterious 20471
▁Mam 20469
▁RP 20467
▁Payment 20466
def 20462
▁astron 20461
▁museums 20454
▁robbery 20454
▁immigration 20452
▁100,000 20447
pper 20444
▁messaging 20443
▁disappointment 20437
hest 20434
▁Petersburg 20429
▁drew 20426
▁Masters 20424
▁PN 20417
α 20412
orticulture 20411
▁theories 20410
▁protocols 20408
▁regulated 20407
▁romance 20407
▁Las 20406
▁organisms 20401
▁subjected 20393
▁Previous 20392
▁sounded 20391
▁Vire 20386
▁Hom 20377
▁Vo 20375
Moh 20373
▁Strong 20372
▁pocket 20371
▁graphic 20367
▁Jeff 20366
▁Screen 20357
▁forwarded 20357
▁complement 20356
▁worsened 20355
▁generous 20354
▁interactions 20352
▁Leone 20351
▁FDI 20348
west 20347
▁aluminum 20342
▁ninth 20342
▁permits 20342
▁3000 20334
▁104 20331
▁Vivekan 20330
▁myth 20325
▁zinc 20320
EA 20319
▁logical 20319
▁pertaining 20318
▁clause 20316
▁meantime 20313
▁25,000 20310
▁distinguish 20310
▁curfew 20306
▁DM 20303
▁boot 20294
▁Coal 20293
▁Riders 20293
▁ampl 20288
▁Bol 20277
▁festive 20276
▁stabil 20275
▁undergraduate 20273
▁opponents 20272
▁texts 20265
▁15,000 20264
tech 20261
▁Bobby 20257
▁phys 20257
▁planes 20257
▁Terror 20252
▁suppliers 20250
▁witnessing 20246
▁indicator 20244
ria 20240
core 20236
ogram 20236
step 20235
▁Mean 20235
▁iconic 20234
▁deemed 20232
▁gardens 20232
▁supplier 20216
▁weighs 20215
▁developer 20210
▁Kartik 20209
▁visas 20207
▁vain 20203
icated 20202
bhar 20201
▁Gil 20201
▁clouds 20196
▁Cas 20190
vern 20186
▁Excell 20186
▁accusations 20185
▁Pompeo 20184
▁raping 20182
▁TM 20181
▁segments 20180
dep 20170
▁Active 20167
▁norm 20167
ekar 20163
▁Researchers 20163
▁displays 20160
▁voices 20160
uel 20155
▁fashionable 20149
vir 20147
ulla 20146
▁Ready 20140
▁planets 20140
▁Dri 20139
▁Nik 20139
▁associations 20136
▁frust 20131
▁Emperor 20129
▁belt 20129
▁fleet 20127
37 20122
▁FM 20122
lessness 20117
▁Were 20112
▁logic 20112
▁Wars 20111
▁LG 20109
▁implies 20108
orter 20107
▁outlets 20103
acles 20101
azi 20100
▁Century 20100
▁Ts 20095
▁Ahead 20089
▁missiles 20089
▁reside 20087
active 20085
▁locally 20085
36 20083
▁deter 20080
▁forbidden 20077
▁bacterial 20070
▁Pradeep 20068
inkle 20061
mega 20061
▁neuro 20057
38 20055
▁utility 20055
▁MI 20052
▁Mith 20052
▁believing 20051
▁bearing 20045
▁Chrome 20040
▁fed 20038
▁missions 20034
▁Zia 20032
▁projected 20031
▁finalised 20021
▁Princess 20017
▁shouted 20015
▁regulate 20014
▁indoor 20009
▁Lu 20006
▁Ansari 20004
▁underlying 20003
cript 20001
▁Nifty 20001
▁Brazilian 19995
▁Ashraf 19992
▁Above 19989
▁Wind 19989
▁travelers 19980
▁VAT 19975
▁contingent 19974
rote 19973
▁Sagar 19971
ounding 19970
▁dos 19970
▁uncertain 19968
▁Zuckerberg 19962
▁fract 19958
▁commodities 19957
abetes 19956
▁relieve 19954
▁selecting 19953
▁Ajinkya 19949
▁Chhat 19949
▁macro 19946
▁Box 19945
▁linear 19945
▁adoles 19942
▁reflection 19942
▁Teh 19939
rench 19938
▁cont 19935
idel 19916
▁euro 19916
▁nerve 19914
▁teachings 19913
▁wealthy 19912
▁Masjid 19906
▁Smriti 19906
▁Bor 19902
▁Hari 19902
▁saddened 19901
▁Chan 19898
▁40,000 19895
▁inputs 19892
▁researcher 19892
▁divisions 19888
▁posters 19885
▁Honey 19884
▁Rajeev 19882
▁Isha 19878
pha 19875
▁chip 19875
▁Sex 19874
iq 19867
▁provincial 19864
▁Oppo 19863
pted 19862
▁journalism 19852
▁showers 19850
▁Testing 19849
▁verified 19846
iry 19843
▁Yellow 19840
▁straw 19833
osa 19818
▁Ramadan 19817
▁paddy 19803
▁creatures 19801
▁temper 19800
iatric 19798
▁Asad 19797
▁angles 19796
▁scholar 19796
34 19795
▁exercising 19794
kan 19793
▁closure 19787
ogue 19785
auses 19780
▁Francis 19779
▁Hitler 19778
HS 19775
▁Rahim 19770
▁Jab 19769
▁hunt 19764
▁painted 19761
▁Indus 19760
ahan 19752
oper 19752
▁determining 19751
urch 19750
▁practically 19750
▁Puja 19748
▁departure 19746
▁Arms 19744
▁integ 19744
stitutional 19743
▁mouse 19741
antic 19740
▁slated 19737
▁unemployed 19737
▁Interior 19731
▁Farooq 19730
▁licensed 19730
▁Nationalist 19723
▁Pil 19720
▁Universal 19718
▁liberal 19717
▁taluk 19711
▁wicketkeeper 19708
▁parad 19707
▁Bez 19704
isa 19700
RF 19697
▁slide 19697
▁absorbed 19694
▁Radha 19693
▁Saina 19689
▁1963 19687
▁Houston 19686
▁Mahm 19684
68 19682
▁Session 19680
▁disrupt 19675
▁coc 19674
angu 19672
▁justified 19668
▁obligation 19668
▁gay 19667
▁chaos 19666
▁briefly 19659
▁borne 19654
▁Dw 19648
▁jailed 19647
▁craft 19646
▁Rank 19645
ules 19644
▁revenues 19640
▁hal 19639
▁soci 19639
▁Anupam 19629
economic 19625
wi 19619
▁Kannur 19619
▁transl 19619
▁undertake 19612
▁excellence 19611
▁Samaj 19603
rew 19602
▁Patiala 19600
▁Yah 19597
29 19594
pati 19591
▁observ 19582
▁rein 19575
▁Shyam 19574
anced 19570
▁stiff 19564
▁Ananya 19560
sy 19558
▁offensive 19558
▁Statistics 19556
▁Shak 19555
atri 19553
▁Walk 19552
obe 19549
▁Aar 19549
poll 19548
▁Shir 19547
▁desirable 19537
eria 19536
▁arrange 19536
▁Reading 19535
▁altogether 19530
▁attributed 19528
▁publications 19527
▁dissolved 19526
▁Amy 19521
imeters 19511
▁Goods 19511
▁extending 19509
▁CV 19507
▁iP 19506
▁Psych 19502
▁subs 19502
▁crowded 19501
▁Altern 19495
▁Capitals 19495
▁rituals 19494
▁briefing 19490
▁transmit 19486
▁colored 19477
▁arising 19476
▁structural 19476
▁progressing 19473
FT 19471
ilit 19471
▁pushing 19466
▁Pers 19465
▁Battery 19464
▁dominated 19460
▁Um 19459
▁ration 19457
▁Hash 19451
▁Import 19451
▁execute 19451
rator 19440
▁Dim 19432
acle 19425
▁IG 19422
▁beside 19422
▁Ish 19420
▁merged 19419
iaz 19417
uli 19415
▁Pras 19412
▁reject 19408
▁extends 19404
▁rehabilitation 19400
▁Cities 19399
▁Tower 19398
▁cousin 19398
▁sacrifices 19393
▁collector 19392
▁Nabi 19391
cotics 19390
▁comprise 19388
▁Directors 19387
▁indicators 19386
▁jewelry 19385
aspur 19383
▁es 19382
▁approx 19380
▁pros 19378
▁nails 19377
▁architectural 19376
▁resur 19376
▁Sunrisers 19375
▁hind 19373
▁mile 19364
arajan 19357
iga 19357
▁101 19357
▁onboard 19354
▁disturbed 19352
▁Pennsylvania 19351
▁Ranchi 19351
▁Lim 19342
▁naval 19338
▁Kur 19335
roc 19334
▁Jim 19331
▁molecules 19331
▁Features 19325
▁humble 19324
▁suited 19323
▁bombs 19319
▁infants 19314
▁Iron 19310
communications 19308
▁Forbes 19305
▁spr 19305
▁Pap 19300
▁fatalities 19298
▁withdrew 19297
▁Secretariat 19294
▁pac 19291
▁Prabhu 19290
▁Bhansali 19289
▁Chandrasekhar 19286
▁Ir 19286
▁Kishan 19286
▁administrator 19286
▁Declaration 19283
▁miser 19283
▁1500 19282
▁Pension 19281
▁charity 19280
▁mega 19277
▁incomplete 19276
▁Ghaziabad 19275
▁Sundar 19275
▁hybrid 19275
▁priorities 19275
▁preventive 19271
▁dominant 19269
▁misleading 19267
▁laptops 19259
▁Mathematics 19258
▁convicts 19257
▁1946 19252
▁Hur 19247
▁shade 19244
▁gases 19239
▁Edward 19236
col 19232
▁Administrative 19229
▁pipe 19228
▁Rule 19225
osp 19224
coming 19223
▁Graduate 19221
▁Boys 19220
▁enabling 19219
▁Said 19215
▁gly 19212
▁BSE 19209
▁recipes 19209
yam 19207
▁impl 19207
▁sword 19206
▁horror 19205
▁Obviously 19203
▁welcoming 19202
▁aver 19198
▁Chann 19191
iman 19190
▁alleging 19189
▁harvest 19189
▁aston 19188
▁Macron 19187
▁documentary 19187
▁Autom 19186
▁suspend 19186
▁Compet 19184
▁sensitivity 19182
▁Tick 19177
arium 19175
▁disapp 19175
giving 19172
▁wound 19172
BJP 19170
▁orbit 19170
arted 19169
operation 19166
▁Tripathi 19162
▁Li 19159
▁decreasing 19158
▁wherein 19158
arh 19154
▁penet 19152
umi 19151
unction 19151
zo 19144
▁Lat 19144
▁adhere 19140
▁cock 19140
▁laying 19138
▁jacket 19137
▁ft 19136
▁gearing 19136
▁flaw 19132
▁sam 19121
▁suspicion 19119
▁anticip 19112
▁liable 19112
▁lent 19111
▁hypertension 19110
umer 19108
▁Kuwait 19106
▁Farid 19102
▁atoms 19102
▁Players 19094
▁1.1 19093
▁dramatic 19093
mas 19092
▁parade 19092
ilt 19090
▁Ludhiana 19090
▁inflammatory 19087
▁disperse 19083
acity 19080
ailing 19074
▁strongest 19073
▁conductor 19068
▁Tel 19065
▁deserves 19065
▁thieves 19064
▁shadow 19053
As 19051
sized 19051
▁Tibet 19051
▁economically 19051
▁liber 19051
▁BI 19050
▁loose 19040
erving 19039
uffle 19037
▁1.7 19037
▁Patients 19036
▁Karim 19030
ifiable 19022
▁disappointing 19022
▁secretaries 19022
▁basics 19019
▁Course 19014
▁presenting 19008
▁emp 19005
▁cro 18999
▁equations 18997
▁Weather 18996
▁cabin 18996
▁fires 18993
▁Face 18992
▁backup 18991
angle 18989
profit 18988
▁maps 18985
▁ul 18984
▁enc 18983
▁Ele 18978
▁ministries 18978
ought 18975
▁Corps 18973
▁Det 18973
hir 18972
▁Sport 18972
▁smoothly 18972
▁Bond 18964
▁mainstream 18960
▁Vik 18956
▁adoption 18953
rig 18952
▁gene 18952
▁Cou 18948
▁abrog 18948
▁Dutta 18947
▁shy 18944
▁Religious 18937
▁climb 18936
▁portions 18936
▁injection 18933
▁Ud 18932
▁autumn 18928
▁spare 18927
▁ben 18925
▁Khand 18924
▁SG 18915
▁Coimbatore 18914
▁Male 18914
amar 18908
▁Justin 18906
▁cognitive 18904
▁mounted 18903
▁Milk 18901
▁Yeddyurappa 18901
▁makeup 18897
▁Making 18893
▁detection 18883
▁Paswan 18872
▁joke 18868
▁voluntary 18865
▁Rescue 18862
▁colonial 18858
▁workforce 18856
▁Chin 18854
▁Rat 18854
▁greenhouse 18851
▁efficiently 18850
▁robot 18849
rence 18847
▁therm 18847
▁travels 18847
▁grid 18845
н 18842
▁dancer 18840
itiz 18839
▁Diesel 18834
proof 18831
▁capt 18826
▁needy 18820
bling 18818
▁Ernakulam 18817
▁hurry 18815
ville 18814
▁tropical 18814
▁Resource 18811
▁Shipping 18809
irts 18805
haran 18804
▁Property 18803
thy 18802
.99 18794
▁Skill 18793
▁Harbhajan 18792
▁mandate 18789
▁Baloch 18786
▁paths 18784
▁Drive 18781
arkar 18780
jew 18780
▁Lock 18780
▁felicitated 18780
▁Sou 18773
▁prosperous 18773
▁Capt 18769
▁prompt 18767
hera 18765
▁repl 18762
uity 18758
▁prospects 18757
▁AIM 18756
▁algorithm 18755
▁playground 18754
▁lengthy 18753
▁Pen 18752
▁disasters 18751
▁Saj 18750
▁Opp 18749
▁prone 18748
▁episodes 18747
ourses 18745
▁restart 18745
apt 18739
ige 18738
▁Investig 18734
▁trail 18727
▁monuments 18725
▁countrymen 18721
▁2019-20 18717
▁Jo 18716
▁Frank 18714
▁crafts 18712
▁Fox 18710
▁magical 18709
▁arose 18708
▁Economy 18705
▁cyclone 18704
▁unchanged 18702
▁appetite 18701
▁advertisement 18695
▁asthma 18694
enced 18692
▁expects 18675
▁mosques 18674
▁quietly 18660
▁musicians 18658
▁Massachusetts 18657
▁ec 18656
▁stem 18652
▁substitute 18652
▁thriller 18650
▁resistant 18648
▁Vidya 18645
▁Sabarimala 18644
▁guarantees 18644
▁Desai 18643
▁conc 18643
ession 18640
▁Oxygen 18622
▁une 18622
▁subsidiary 18621
▁classification 18619
▁tiger 18614
chain 18611
▁Imam 18610
▁Infosys 18610
▁Jahan 18609
aga 18608
▁noting 18606
▁peculiar 18605
▁Cash 18604
▁bur 18604
ologically 18602
▁hailed 18601
ogl 18598
▁Brother 18597
▁DSP 18596
▁amend 18594
paper 18589
▁ 18589
▁MU 18588
ometric 18587
▁Hegde 18587
▁Jason 18587
▁competent 18587
▁Amrita 18586
▁Keeping 18586
ss 18584
▁flame 18581
▁Room 18579
▁doubled 18579
▁Houses 18577
▁Sem 18576
▁Saeed 18575
▁curriculum 18575
▁boxes 18574
▁mum 18574
▁Dra 18572
▁Mum 18571
▁NP 18570
▁Weight 18568
▁Simon 18566
▁num 18564
▁hip 18561
▁restriction 18558
▁battles 18557
▁Unity 18556
▁resolutions 18556
▁Vehicle 18554
▁mo 18554
▁Vall 18550
anand 18548
▁obs 18548
▁Wuhan 18545
▁trem 18544
▁expelled 18543
▁positively 18543
▁Bahrain 18541
▁pine 18541
aning 18539
verse 18535
▁individually 18535
▁refuses 18534
▁Chemistry 18533
inding 18530
ng 18530
▁Philip 18527
▁elephant 18527
itting 18525
▁distinctive 18524
▁Productions 18516
ado 18514
▁Whenever 18514
▁Vi 18510
▁Mala 18509
▁aqu 18504
▁Pack 18499
amous 18493
▁assail 18481
enses 18477
▁abundant 18476
acies 18473
MB 18467
▁fur 18465
▁privilege 18461
▁philosopher 18458
▁prince 18458
▁planting 18457
▁Gor 18447
ommod 18438
▁Jyot 18435
cks 18432
acts 18431
confidence 18431
▁Prop 18430
uals 18428
do 18422
▁Vill 18418
▁immers 18418
▁multipl 18411
▁peas 18411
Tech 18409
▁yearly 18408
▁inevitable 18405
▁Yog 18403
▁admir 18401
▁Bash 18398
▁Sisodia 18398
▁fung 18398
▁Medal 18397
▁matrix 18397
▁Farm 18396
▁Reform 18392
▁wheels 18388
▁governed 18384
▁bears 18382
grad 18381
65 18374
▁destroying 18374
connected 18373
▁Kor 18373
▁Sarah 18373
▁appoint 18373
▁Elig 18368
▁generating 18361
▁pulses 18359
▁performs 18350
▁lauded 18347
uce 18343
▁showcase 18341
▁defamation 18339
▁layout 18339
▁mut 18337
▁BMW 18336
▁Liberation 18332
▁distra 18328
▁interference 18320
ago 18317
▁promising 18316
▁happily 18315
▁computing 18313
▁Source 18311
▁activ 18309
founder 18308
▁Task 18300
▁dot 18294
rorism 18293
▁dengue 18293
▁hopefully 18292
▁palm 18289
▁tricky 18289
▁saves 18287
▁PR 18285
▁counted 18285
▁od 18282
▁abdomen 18280
▁eve 18279
▁grabbed 18278
▁Nelson 18267
▁introducing 18267
▁barrier 18265
▁bulk 18265
▁Prashant 18261
▁lymph 18259
▁vector 18259
▁holes 18255
▁notion 18251
▁surroundings 18251
site 18243
▁travellers 18241
sey 18229
▁sed 18228
▁IMF 18223
▁Jon 18220
▁Memor 18220
rak 18217
▁bh 18216
▁Farhan 18214
▁comeback 18214
▁teenager 18214
▁Rave 18209
▁bachelor 18209
▁UT 18208
▁kin 18208
▁quarrel 18207
▁genre 18204
▁Mosque 18199
▁canal 18195
▁abused 18193
cket 18192
urers 18189
order 18188
▁Concer 18188
▁unite 18185
▁Population 18183
Ds 18181
rect 18180
▁Advert 18178
▁cooling 18172
gers 18171
▁Ukrainian 18170
ths 18169
▁CT 18169
oto 18166
▁eminent 18164
uct 18159
eti 18158
▁Jong 18157
▁landmark 18157
▁accurately 18149
▁pig 18146
FF 18143
▁conclude 18140
▁pacer 18138
▁expl 18137
atural 18135
▁renewed 18132
▁accountable 18130
▁troubled 18125
▁Thir 18120
▁neighbourhood 18120
▁pulse 18119
▁Mach 18118
▁Complex 18117
▁undertaking 18117
▁Shard 18115
iqu 18113
uten 18112
alls 18110
▁mil 18110
▁atomic 18102
▁hitting 18102
▁buff 18099
ropri 18098
▁marginal 18095
▁sang 18095
▁acknowledge 18093
▁behave 18093
adays 18092
half 18092
▁streams 18086
▁blank 18083
▁locality 18082
▁dynasty 18078
▁Recruitment 18073
▁audit 18072
▁undoubtedly 18071
▁delivers 18070
▁regul 18068
▁neighboring 18065
▁barriers 18064
स 18062
▁drove 18061
▁exploring 18061
pass 18060
▁celebrity 18059
St 18057
▁sheets 18056
▁swe 18056
▁tournaments 18056
augh 18054
▁1,500 18051
▁organizing 18050
wadi 18048
▁Experience 18048
▁COP 18047
▁shore 18047
▁Colombo 18044
GE 18042
ل 18042
▁deterior 18042
▁vibrant 18042
condition 18039
▁dubbed 18038
47 18034
▁dent 18031
▁Williamson 18025
rians 18024
▁Sanjeev 18024
▁Mush 18021
ulu 18020
▁Stokes 18007
▁maintains 18007
▁Jos 18005
▁devastated 18005
▁embarrass 18005
▁fifteen 18002
▁DP 17995
▁FBI 17993
▁sphere 17992
▁magn 17990
arsh 17985
▁accidental 17980
▁Isaac 17978
urated 17976
▁shrine 17974
▁slipped 17974
▁MSP 17973
▁Domestic 17962
▁Jackie 17962
▁Cuba 17961
selves 17960
▁ghost 17960
▁rocks 17949
isal 17947
▁considers 17947
▁Kak 17945
ader 17941
▁dramatically 17938
ylon 17937
ograms 17936
▁uncertainty 17934
▁decorative 17933
▁lightly 17933
Book 17932
▁joins 17929
▁associates 17924
▁1952 17922
mission 17920
▁tallest 17920
▁Abh 17918
▁chairs 17918
▁levelled 17909
▁exchanged 17906
▁Wayanad 17905
▁Arch 17903
▁Kap 17901
▁Raf 17901
न 17897
▁Scindia 17896
▁forensic 17895
▁RC 17894
cription 17893
▁Shinde 17884
▁Holi 17881
obar 17880
▁Audio 17880
▁Internal 17880
▁Lincoln 17874
▁MM 17874
▁Hanuman 17870
▁murders 17867
▁mobility 17866
▁× 17866
dh 17865
▁Rak 17863
▁pun 17863
▁consistency 17862
▁Siv 17850
itz 17847
▁pairs 17846
▁schooling 17845
▁Bedi 17840
▁persistent 17840
▁Ramp 17835
▁apprehended 17832
▁TO 17826
▁labs 17826
▁excluded 17825
▁Fish 17824
▁retali 17821
cost 17807
▁failures 17804
▁Govind 17803
ressive 17802
▁SAD 17802
▁fab 17802
emic 17799
▁hugely 17799
mun 17791
▁magistrate 17789
rine 17785
▁populous 17784
▁thickness 17784
ds 17780
▁indication 17777
▁Delta 17775
▁ceasefire 17773
▁speculation 17773
heri 17772
▁solidarity 17772
icide 17769
▁adjoining 17767
▁Classes 17766
▁1954 17762
▁unanimously 17762
▁Rit 17761
▁abundance 17760
gl 17758
▁defin 17756
▁fights 17756
▁SoC 17755
▁query 17753
▁advertisements 17752
▁DA 17751
▁municipality 17747
▁streng 17742
▁Female 17738
▁references 17736
▁Song 17735
▁cher 17735
▁tally 17734
inning 17732
▁striking 17730
▁Arthur 17727
▁Rud 17726
▁Khattar 17724
▁Bon 17720
▁7- 17719
▁Jones 17718
▁Vil 17711
▁gallery 17709
▁sells 17707
yar 17705
▁Tik 17704
▁Tesla 17703
▁sar 17694
▁fundament 17689
▁evolving 17685
▁tub 17685
▁lean 17676
▁Nine 17673
▁accusing 17673
▁rap 17668
▁determines 17666
▁prim 17658
▁killer 17656
▁Ta 17655
▁Lebanon 17650
▁holder 17647
▁fig 17646
▁rib 17642
▁cour 17641
▁modify 17640
UC 17639
▁fro 17638
▁2.4 17637
▁Vishal 17636
▁consulting 17633
▁diploma 17633
▁gear 17632
▁monument 17632
▁4.5 17629
ARC 17627
▁AFP 17625
▁lawmakers 17625
▁neat 17625
▁blasts 17622
ograph 17618
▁Bhoj 17617
erts 17616
▁mem 17613
▁dirty 17612
ample 17611
coin 17609
▁Sury 17608
▁Chit 17604
▁civic 17604
▁6,000 17601
▁115 17600
▁alias 17600
oshi 17598
▁Kesh 17597
▁Kumble 17596
▁Morgan 17595
▁Hooda 17593
▁biology 17593
oker 17585
oni 17585
▁1955 17579
▁laughter 17578
▁impress 17576
▁satisfying 17575
▁Kun 17574
▁spy 17574
aded 17566
▁Aayog 17566
▁mobil 17566
▁wards 17554
▁narrative 17552
sters 17549
▁optional 17547
44 17545
itter 17545
▁wrapped 17543
▁Grover 17537
artments 17535
▁navigation 17533
▁24- 17532
▁manifesto 17529
▁Hir 17526
▁garbage 17526
no 17523
▁Wilson 17521
arti 17512
nan 17512
▁Kamala 17506
▁Toronto 17503
▁1.0 17501
agi 17500
asy 17497
▁Nil 17495
▁poured 17494
▁assassination 17489
rank 17487
vert 17487
atures 17485
▁ide 17485
▁Ach 17482
▁fingerprint 17482
▁BMC 17479
▁spark 17477
hus 17470
▁https 17469
▁Mani 17468
▁Neg 17468
ि 17462
▁flew 17462
▁ON 17461
▁Says 17461
avel 17457
▁casualty 17457
▁GM 17454
iple 17452
operative 17448
▁Yesterday 17448
anne 17444
▁vib 17444
▁circ 17440
▁meteor 17439
▁′ 17437
▁MK 17433
▁rej 17433
▁Broad 17431
ending 17428
▁arth 17427
67 17426
oman 17422
▁Sehwag 17422
▁crypt 17421
▁conferences 17419
42 17416
▁AA 17415
▁chips 17414
▁prevalent 17414
▁Gorakhpur 17412
nia 17411
apuram 17409
▁deliber 17408
▁printer 17405
affected 17402
▁mature 17402
hot 17400
teenth 17398
▁2.2 17398
▁Standards 17397
aza 17393
▁headlines 17393
doi_Deva 17392
▁Half 17390
▁Veer 17388
▁MB 17387
▁Telecom 17387
andan 17386
▁suffers 17383
▁motiv 17376
blem 17374
▁Passengers 17371
▁drastically 17367
astra 17366
▁Toyota 17359
т 17355
▁creator 17349
▁neighborhood 17346
▁sovereign 17341
▁testimony 17341
▁developmental 17339
▁Danish 17338
▁onset 17337
▁vacuum 17326
▁violate 17325
▁Cambridge 17323
pen 17322
oos 17321
▁examining 17321
▁1.8 17319
▁Jacqueline 17318
uan 17315
▁Gambhir 17315
▁fulfilling 17315
▁Hillary 17308
▁bunch 17300
▁Antony 17296
▁Lif 17285
opp 17284
▁Jayanti 17284
▁Superstar 17284
▁Kargil 17282
▁educ 17279
lan 17277
▁IR 17276
▁indu 17275
▁profiles 17270
▁Advisory 17268
▁Residents 17257
▁solo 17254
▁Eventually 17253
unch 17252
gam 17251
▁calculation 17247
log 17242
▁unlock 17235
▁Customs 17233
▁starrer 17231
▁betting 17225
erve 17222
▁Sustainable 17221
bhai 17219
▁NATO 17219
▁UPSC 17218
▁Schedule 17216
oop 17214
▁Udd 17213
ubs 17212
▁Ho 17212
▁stance 17212
char 17210
-0 17209
▁Bish 17209
▁Sania 17209
▁Movies 17207
rifying 17205
▁dict 17205
▁Advis 17202
▁Nuclear 17199
▁rental 17190
▁serv 17188
▁idol 17185
▁traditionally 17180
▁Jaya 17179
▁confined 17178
▁automotive 17173
itches 17172
▁ASEAN 17170
eding 17165
▁incurred 17164
▁delegates 17163
▁enqu 17159
▁rendered 17158
▁weaknesses 17158
▁UV 17155
▁quarters 17155
ա 17150
▁stunned 17148
▁wings 17146
▁inherent 17145
▁Mind 17139
▁lesser 17138
iries 17136
▁approve 17135
▁lion 17133
cut 17132
▁Promotion 17132
andum 17131
▁resides 17131
ez 17129
ogenic 17127
▁upgraded 17124
▁Venkaiah 17122
▁indirect 17122
▁mas 17121
ror 17120
▁Nonetheless 17117
▁GP 17114
▁Azerbaijan 17113
▁colourful 17112
▁appeals 17109
▁outfits 17109
▁Shab 17105
▁annum 17103
▁pixels 17101
▁martyrs 17099
▁Pri 17094
LP 17089
▁curve 17089
▁homage 17085
ighty 17081
GS 17075
▁Dom 17066
▁Tea 17061
▁jeans 17061
▁versus 17061
▁precautionary 17050
tering 17047
▁placing 17047
▁mechanisms 17046
▁expectation 17043
cope 17041
itations 17038
olt 17038
▁definite 17035
▁AICC 17034
▁distribute 17032
▁practicing 17029
▁adul 17028
▁logistics 17023
▁HS 17021
▁1959 17020
▁donate 17019
▁Goswami 17018
▁exempt 17018
breaking 17017
▁brutal 17017
▁nominee 17016
▁Standing 17014
▁2024 17013
▁Iyer 17013
▁geography 17012
▁speeches 17011
▁Cle 17009
▁Institutions 17009
▁Kand 17009
thirds 17007
▁vandal 17004
▁Neha 17003
▁cancellation 16998
▁vigilant 16998
▁Editor 16995
▁vertical 16995
atra 16989
▁reminded 16989
gir 16988
▁Million 16988
▁northwest 16988
▁steep 16988
▁transit 16981
▁tours 16980
▁Regulation 16977
▁Regular 16974
▁Godavari 16971
omen 16970
▁Rou 16969
▁2025 16968
iner 16964
▁lord 16964
▁suite 16964
press 16963
▁dismiss 16963
▁Ghani 16961
▁arter 16958
▁rolling 16958
enter 16957
▁chains 16956
▁fog 16953
▁reporter 16953
▁rays 16948
▁Coord 16943
far 16941
▁sulf 16941
▁Brad 16933
▁misunder 16933
▁informal 16932
▁Honor 16931
▁suff 16931
uzha 16930
▁thumb 16929
▁brick 16927
efficient 16925
▁devastating 16925
▁Zimbabwe 16924
itating 16921
▁Prob 16914
pose 16912
▁Maha 16910
▁startup 16907
▁Typically 16905
▁agrees 16903
▁Colombia 16902
▁unre 16902
▁Chiranjeevi 16898
nt 16896
▁Late 16896
EE 16894
▁Cham 16894
▁shine 16891
▁GT 16890
▁terrific 16887
▁Integrated 16886
▁1957 16885
▁Santa 16879
▁swim 16877
▁PMO 16876
75 16874
ighter 16872
irmed 16872
▁shorter 16872
ilation 16869
▁enforce 16867
▁jam 16867
▁TC 16866
lick 16865
▁screenplay 16864
▁Prep 16862
▁AG 16859
▁mighty 16858
▁spect 16858
▁heed 16857
▁unacceptable 16856
▁Sameer 16853
▁seated 16849
▁laboratories 16841
uge 16840
▁tal 16834
▁readily 16831
▁cultiv 16830
▁charming 16829
▁Hospitals 16825
▁kits 16819
edar 16814
▁environments 16813
▁SSC 16806
oved 16803
▁Point 16802
ault 16796
▁Anne 16793
▁Iceland 16793
▁Medium 16792
azz 16789
Muslim 16788
▁assumption 16788
week 16785
▁ISI 16784
▁fierce 16777
▁territorial 16776
▁assembled 16773
andy 16772
ह 16770
▁cows 16768
spe 16761
ulator 16761
▁Wing 16760
opathy 16759
▁BR 16758
▁insisted 16757
▁Ibn 16756
▁Mater 16754
▁Preet 16750
▁libraries 16750
▁sink 16749
▁concentrated 16748
▁Safe 16745
▁guards 16736
rators 16729
imedia 16728
▁Joshua 16723
▁perceived 16723
▁Bhawan 16722
▁1958 16719
▁emphasize 16714
▁intervene 16714
▁Wildlife 16711
▁intimate 16711
oad 16710
▁Chittagong 16705
▁puja 16705
▁JEE 16703
▁clever 16703
▁discrim 16701
▁scal 16699
atta 16696
▁Josh 16696
▁Operating 16689
▁deploy 16689
▁Shweta 16687
▁Chile 16682
persons 16677
▁chamber 16677
▁debris 16675
mir 16673
▁collectively 16671
▁booth 16670
▁adversely 16669
▁capac 16669
▁depart 16669
▁Akali 16668
▁dimension 16668
▁discounts 16668
▁imperative 16668
▁tends 16666
▁devotion 16661
▁Platform 16660
▁Speed 16659
▁infl 16658
zer 16656
▁newer 16655
▁Choudhary 16654
▁innovations 16648
▁killings 16648
ange 16645
▁saf 16645
third 16642
▁Distribution 16639
▁deprived 16639
▁Princ 16638
ushi 16632
org 16630
▁incorporate 16627
▁practiced 16625
▁Studios 16623
▁revol 16619
▁Swachh 16618
▁buttons 16617
imp 16614
▁toy 16611
▁Bhu 16610
▁Brit 16610
▁Mangalore 16609
othe 16607
▁Lev 16606
▁cigarettes 16605
▁hardest 16605
▁vendors 16604
▁radi 16598
▁reass 16595
▁Chavan 16593
▁screened 16593
judge 16590
omes 16590
▁euros 16590
▁Academic 16587
▁Maulana 16587
very 16585
▁accelerate 16583
▁ancestors 16582
risk 16581
uded 16581
▁billions 16577
agers 16576
▁Emmanuel 16576
▁Strategic 16574
▁facial 16572
▁Field 16569
▁eligibility 16569
▁harmon 16565
▁petitioner 16563
onom 16560
▁Entreprene 16560
▁Siraj 16560
▁batter 16556
▁gro 16556
▁Acharya 16555
ques 16551
▁Palestine 16551
▁lamps 16551
bul 16547
▁intr 16547
▁tenth 16547
▁trademark 16547
▁Veteran 16544
▁Rose 16543
▁climbed 16539
▁topped 16536
erved 16535
▁NCR 16534
▁underground 16531
49 16527
PCR 16527
▁Trib 16526
▁sq 16526
▁dressing 16525
▁Timothy 16523
▁mourn 16520
▁lightning 16519
rise 16516
▁Focus 16515
itness 16513
▁Square 16513
▁Ayushmann 16512
▁oxid 16512
▁Sharing 16508
▁vers 16507
▁buzz 16506
▁Baahubali 16502
East 16500
▁2023 16494
▁navy 16494
ather 16493
▁hired 16489
▁Nur 16488
▁emperor 16488
▁Madan 16487
▁Given 16486
▁Requ 16484
▁mistaken 16483
▁spine 16482
▁tumor 16482
▁occasionally 16480
captain 16479
▁Kailash 16479
new 16472
▁Digvij 16470
▁Tribunal 16470
▁cycling 16464
iotic 16463
▁neglect 16463
▁rated 16463
alif 16460
▁hug 16460
eks 16458
▁invention 16455
▁uncommon 16454
▁clinic 16453
▁stern 16450
ospace 16449
▁Northeast 16449
▁severity 16448
▁interactive 16445
▁purely 16443
ivers 16440
▁cater 16437
▁meg 16429
▁modifications 16428
itra 16427
▁Mak 16426
▁spends 16423
pts 16421
▁successes 16421
▁trigger 16410
▁Hol 16408
▁Ens 16405
▁dilig 16405
▁TB 16404
▁Laws 16398
▁Kennedy 16390
▁whis 16390
course 16388
▁smuggling 16387
▁Enterprises 16385
ushing 16378
acking 16377
▁Koll 16377
cin 16376
▁denies 16376
▁Sawant 16375
▁Neil 16372
▁Faz 16370
▁workshops 16367
▁Hay 16364
EM 16363
pendra 16363
▁Fuel 16361
▁Jalandhar 16360
▁Hair 16352
▁cult 16348
▁adjusted 16344
▁Win 16340
▁Hills 16338
▁experimental 16331
▁snake 16329
▁Behind 16327
▁genuinely 16323
idity 16320
▁EMI 16319
ogether 16315
▁quote 16315
▁Lot 16313
▁Madhuri 16308
▁Camp 16306
▁Virtual 16304
▁fitted 16304
▁stalled 16294
64 16292
▁garnered 16291
iated 16290
jo 16290
▁corners 16288
▁Norm 16282
▁ident 16282
clusive 16276
▁businessmen 16275
angir 16274
▁variation 16273
▁influences 16272
ections 16271
▁Alaska 16271
39 16267
▁Kum 16264
▁Bis 16260
▁drag 16260
orship 16257
▁dealers 16254
▁Alok 16253
▁panc 16251
▁unfor 16251
▁initiate 16247
▁Pollution 16246
▁UGC 16245
aksha 16244
▁masses 16242
▁Yam 16239
▁2020-21 16238
▁Rajamouli 16238
bank 16234
acked 16233
▁Growth 16232
▁Operations 16232
▁Aggarwal 16230
▁differs 16230
▁contestants 16226
▁conviction 16226
▁emphas 16226
▁grad 16223
▁Neh 16222
▁loop 16222
▁Dalits 16219
▁digit 16218
plate 16216
▁ibn 16215
▁Ank 16212
▁excuse 16212
▁Netanyahu 16209
▁Aman 16207
▁unrest 16207
▁neighbour 16206
▁bon 16205
▁240 16198
▁disabilities 16196
▁http 16196
Ms 16193
▁conclusions 16193
▁propag 16193
ders 16191
▁confusing 16189
▁cru 16189
▁intimid 16189
imb 16188
▁bases 16185
▁cleaner 16185
▁assurance 16183
▁hook 16181
▁qualifications 16176
▁issuing 16168
iat 16158
▁physicians 16151
imm 16148
elected 16146
▁crashes 16144
pired 16141
▁shake 16141
▁altitude 16140
▁Tomorrow 16138
▁evaluated 16137
▁delicate 16135
▁220 16134
▁Alm 16132
▁backing 16131
isma 16130
▁Gov 16130
▁Mountain 16127
▁maiden 16127
▁exploration 16126
▁Lack 16125
▁facilit 16125
▁freel 16124
.10 16122
lude 16121
▁educate 16117
▁Centers 16115
asan 16113
▁commissioned 16110
▁fa 16109
▁helicopters 16108
▁Corridor 16106
41 16100
▁graduates 16099
WA 16098
▁overt 16097
▁mathematical 16095
reed 16094
▁damaging 16094
त 16093
▁absent 16091
▁tribe 16090
rick 16089
▁defines 16085
khar 16083
falls 16080
▁loads 16080
▁surfaces 16080
▁traced 16080
▁cylinders 16077
orable 16076
▁ingredient 16075
▁poultry 16074
▁employ 16065
resses 16059
▁Heaven 16054
▁glorious 16054
▁bullets 16052
▁cann 16051
▁assignment 16050
▁Stand 16049
▁substantially 16043
▁Stone 16042
▁ABS 16040
▁problematic 16040
▁complexity 16036
▁merger 16035
ı 16034
▁imag 16033
▁deployment 16029
piece 16027
can 16025
lation 16024
▁eco 16024
▁jun 16024
five 16019
▁1800 16017
odes 16016
omin 16016
▁honesty 16016
▁NEET 16015
▁Tab 16014
▁KKR 16013
▁sacrificed 16011
▁Ari 16010
▁fare 16008
▁techn 16004
▁southeast 16002
▁Bud 16001
▁Coll 15996
zone 15995
▁alarming 15994
▁incom 15993
heet 15986
minute 15986
▁Map 15986
▁Nizam 15984
▁salute 15983
▁LCD 15980
▁Shimla 15976
▁contempl 15974
▁Amid 15973
▁requesting 15972
▁Empower 15970
▁lending 15968
▁ol 15965
unting 15963
itory 15961
▁quantum 15958
▁Wankhede 15957
itan 15956
oga 15955
▁griev 15953
▁disturb 15948
▁ATMs 15946
▁Chaudh 15946
▁hilarious 15945
▁crowds 15943
selling 15941
▁freight 15941
▁Surya 15934
▁adhe 15930
▁blaze 15929
uters 15928
▁Beginning 15924
▁silk 15924
▁maxim 15922
pol 15920
▁concert 15913
▁Vaish 15911
erg 15909
▁Marshal 15909
▁YS 15905
▁chapters 15902
▁650 15898
▁abortion 15892
▁Location 15889
▁hacked 15889
▁refresh 15889
▁Comment 15885
▁crit 15885
▁beneficiary 15881
ructions 15880
▁aspir 15880
apati 15877
▁necess 15877
▁eldest 15867
▁Rather 15866
▁Previously 15865
▁Oct 15864
▁lac 15859
▁swearing 15859
▁polar 15857
▁Edition 15854
▁Renew 15853
▁fantasy 15852
▁teenagers 15852
▁Expo 15849
▁avoiding 15848
▁rings 15843
▁Lax 15842
▁vag 15839
▁pilgrimage 15837
quer 15827
▁1942 15827
▁hunting 15827
▁102 15824
▁Birla 15823
▁underwent 15820
shad 15818
▁propaganda 15818
▁pillars 15816
inks 15812
▁Ked 15812
▁1951 15806
▁Pujara 15804
▁inund 15803
▁moder 15803
▁exempted 15801
▁utilizing 15799
▁107 15798
▁replacing 15798
abu 15792
▁GO 15792
▁Transfer 15791
▁dare 15791
▁Apollo 15788
▁CNN 15788
▁relates 15786
▁Jose 15781
▁ND 15781
▁intentions 15779
▁Libya 15778
▁tolerated 15775
▁Multi 15774
▁Theatre 15774
ugg 15773
▁Easter 15770
ender 15766
▁bands 15766
▁noble 15766
▁Ashw 15765
▁checks 15763
▁junk 15763
reng 15758
▁1914 15758
▁Bulgaria 15758
▁onwards 15757
▁upazila 15757
-14 15756
▁absorb 15756
burn 15754
borne 15748
rep 15747
▁Akash 15745
▁nationality 15742
▁1939 15741
▁equip 15741
▁broadband 15739
▁3-4 15737
▁linking 15736
urshid 15733
▁refined 15730
▁authorised 15729
▁Deve 15726
▁multip 15726
▁Kn 15724
▁briefed 15724
▁deteriorating 15724
agon 15721
▁Newton 15721
▁complainant 15721
ivir 15719
▁Kav 15719
▁entertain 15718
▁abide 15716
with 15715
▁Palestinians 15714
rink 15707
working 15704
▁controller 15702
▁sanit 15696
▁seminar 15695
▁abandon 15690
icts 15688
▁colleague 15688
▁Ranjit 15685
▁pharmac 15685
▁pledged 15684
▁Aqu 15683
▁Franklin 15683
▁Paytm 15683
▁describing 15683
▁KV 15682
▁binding 15682
▁snacks 15682
▁Tagore 15681
istence 15678
airy 15676
▁nodes 15676
▁Teams 15671
Pal 15670
▁rivals 15668
▁endeavour 15662
onst 15657
▁torture 15657
▁Amin 15655
▁portable 15655
▁attained 15650
udh 15646
igation 15644
▁bore 15643
▁tanks 15643
.50 15639
ipl 15636
uba 15636
▁acceler 15631
▁Bio 15630
▁Iraqi 15630
▁venues 15628
▁Gaj 15626
▁ridiculous 15626
▁shel 15626
▁tape 15625
▁Near 15624
istries 15620
meet 15617
▁newest 15614
rath 15613
▁Faith 15610
▁Kevin 15610
abor 15603
▁counts 15603
▁Flag 15602
▁albums 15598
▁rum 15595
▁qualifying 15593
▁sav 15593
▁Commun 15592
▁rented 15592
▁kidnapping 15591
▁Neel 15586
▁Chak 15585
▁Orange 15585
▁Blu 15584
▁announcing 15584
▁interval 15584
▁proves 15580
▁Too 15579
worthy 15578
▁uphold 15578
▁casting 15572
▁hails 15572
▁upheld 15572
▁gel 15571
▁affidavit 15566
ortun 15562
▁pants 15562
eded 15561
acon 15560
▁Mult 15556
▁floating 15554
▁manip 15554
▁119 15552
▁Writing 15551
▁Aligarh 15541
▁Polish 15539
▁antibodies 15539
▁spite 15535
omatic 15530
▁muc 15530
▁Bare 15529
▁Prithviraj 15529
▁Diet 15528
▁advent 15528
▁frozen 15525
taking 15524
alle 15521
▁112 15521
▁1917 15516
▁Inv 15514
▁Vacc 15513
▁retailers 15510
▁BA 15506
▁li 15503
▁quake 15500
▁outlook 15499
▁partly 15494
▁Mandela 15493
▁Birds 15492
▁Jean 15492
▁commemor 15489
▁Kajal 15487
ution 15485
▁attributes 15485
▁axis 15483
▁merit 15480
▁na 15478
iren 15477
▁2-0 15474
▁Artists 15473
▁CF 15472
aced 15470
ansh 15469
raft 15469
▁replies 15468
ounce 15465
▁undergone 15465
iba 15461
▁Marine 15459
▁recharge 15458
▁observations 15457
▁Role 15454
▁quotes 15454
xt 15451
▁versatile 15451
▁Jew 15450
aband 15447
▁pouring 15447
▁Shaw 15444
▁tent 15443
▁affiliate 15441
▁restrict 15437
itya 15433
shirt 15433
▁unsuccessful 15429
▁Mechanical 15427
▁demonstrations 15426
uating 15425
▁Tap 15422
▁orb 15420
izable 15418
▁lease 15418
▁neg 15418
hearted 15416
▁prote 15415
▁racial 15413
iders 15407
▁Peoples 15406
▁Gol 15404
ollar 15402
▁tranqu 15401
▁seating 15400
▁translate 15398
▁Lower 15396
▁literacy 15396
▁Madhav 15393
▁Hindutva 15391
▁Rece 15391
ochem 15390
▁Croatia 15389
▁Record 15389
weet 15384
ishers 15381
▁2018-19 15381
▁ET 15381
ishment 15380
▁Wedding 15378
other 15377
four 15373
isms 15370
▁racing 15369
▁Charge 15368
▁invasion 15368
▁respondents 15366
oya 15365
erous 15364
▁Won 15364
cam 15363
production 15361
▁Gurugram 15359
▁Sections 15359
▁enforced 15358
▁opponent 15355
akrishnan 15350
▁clay 15349
▁mand 15347
▁Range 15346
fold 15345
▁Nanda 15342
▁Tor 15342
▁medieval 15342
This 15333
▁apologised 15333
▁exhausted 15330
▁21- 15329
otion 15328
raged 15328
▁Michigan 15328
▁Laxman 15327
▁Securities 15326
▁Chandrashe 15325
ui 15324
anagar 15319
▁Riz 15316
▁heartfelt 15312
▁noticeable 15311
▁intens 15305
mod 15304
▁slaves 15304
▁Mandi 15302
▁typ 15301
▁bombing 15300
HC 15299
▁SH 15296
▁suits 15292
iven 15289
makers 15288
oral 15288
▁dement 15288
pta 15287
▁1953 15285
▁partnerships 15284
▁scare 15283
▁seal 15283
▁reset 15279
▁stabbed 15279
▁Mujah 15278
turned 15277
▁handic 15274
▁Lewis 15273
▁vir 15273
cal 15272
▁explosives 15272
▁SARS 15270
▁Din 15269
▁march 15268
▁donations 15267
▁inspected 15264
iable 15263
▁careers 15263
▁dangers 15263
sec 15261
▁KC 15259
▁3.0 15257
▁Dharm 15254
▁likelihood 15254
▁Aziz 15252
▁Glass 15252
▁Tony 15250
▁tolerance 15250
▁overwhelmed 15249
▁Synd 15245
▁pools 15245
▁contempt 15244
▁frank 15244
ruit 15242
olly 15240
▁loc 15238
▁Uzbekistan 15235
▁finances 15235
▁Vadodara 15233
▁Dixit 15231
quet 15229
▁Leh 15227
xiety 15221
▁Khaled 15221
akht 15219
▁Flight 15217
▁Adani 15212
▁Anup 15212
▁Rajapaksa 15212
▁lowered 15212
▁chick 15211
ruits 15208
▁Projects 15208
▁Quick 15208
▁Ober 15207
म 15205
▁writings 15205
▁Result 15203
▁cruel 15203
▁Eve 15202
aught 15199
▁bug 15199
▁southwest 15199
▁entries 15198
▁unconscious 15198
▁Protocol 15197
▁scrap 15192
▁Immediately 15191
adhyay 15190
adia 15188
▁bite 15187
▁Du 15183
▁picking 15178
▁repeal 15177
▁supremo 15169
▁som 15167
▁Maxwell 15166
▁Socialist 15161
ppa 15160
inations 15158
rag 15158
▁desperate 15156
▁Brussels 15154
oomi 15153
▁husbands 15153
▁elephants 15151
▁mold 15150
▁seas 15148
▁surprisingly 15142
▁Supply 15136
building 15135
▁Technologies 15132
ghar 15131
▁inventory 15127
▁Cameron 15126
▁controversies 15126
▁Qualification 15121
ardhan 15120
rolled 15118
▁Beh 15113
▁ax 15113
▁dedic 15111
▁Pop 15109
▁Fourth 15107
▁Gok 15106
▁handset 15105
▁Kajol 15103
▁Beg 15100
cled 15097
▁Anthony 15097
▁Armenia 15097
▁elev 15096
keeper 15095
▁dip 15095
▁livestock 15095
▁Mut 15093
▁Yediyurappa 15092
▁bere 15090
▁7.5 15086
▁landslides 15083
tics 15079
istics 15077
▁defect 15077
▁decisive 15073
asures 15070
held 15070
▁Hell 15068
▁races 15067
▁Persons 15064
rian 15058
thon 15057
▁Supporting 15057
▁alcoholic 15057
▁clearance 15054
inite 15048
ა 15048
▁550 15048
▁Cann 15048
▁framed 15046
▁Monetary 15045
▁Soci 15045
▁surrender 15035
case 15034
▁Ol 15032
▁PCB 15030
▁explaining 15026
▁Jah 15025
▁accredited 15024
▁mount 15024
▁FIRs 15022
weep 15021
▁weaker 15021
▁Subramanian 15017
▁cellular 15013
▁Wild 15012
▁pist 15012
▁Likewise 15010
▁Olymp 15010
▁BH 15007
▁Constitutional 15007
▁Buddh 15006
▁Phys 15005
▁Fun 15004
▁battling 14998
▁accepts 14997
▁rumors 14997
▁RA 14996
▁Multiple 14991
▁shells 14989
▁Mail 14988
▁assuming 14988
▁grab 14987
▁Administ 14983
▁Convers 14981
▁defeating 14976
▁Campaign 14974
▁Mart 14974
arna 14973
▁inn 14973
▁fluct 14972
▁wholly 14967
▁1918 14966
▁Cast 14962
▁Indonesian 14962
chers 14961
▁molecule 14961
▁balcony 14959
pot 14958
▁cease 14958
lights 14957
▁Personnel 14957
▁feast 14952
▁fasting 14951
▁perf 14947
▁Ross 14943
alities 14942
▁Bangla 14940
▁adjacent 14938
▁outlined 14937
rika 14933
foot 14930
alf 14929
▁cultivated 14928
▁trafficking 14928
▁requiring 14927
▁sanct 14926
▁OTT 14924
▁Title 14924
duk 14921
oping 14919
▁50- 14919
▁simplicity 14918
▁escal 14917
▁Fil 14914
▁Regulatory 14913
▁NY 14910
▁lectures 14908
▁Dharma 14907
uations 14906
airs 14904
▁Tob 14904
▁Surg 14900
▁containers 14895
▁prob 14892
▁modules 14891
▁Colleges 14890
▁congestion 14888
▁nit 14886
▁analog 14884
ancing 14881
usted 14879
▁Artificial 14878
▁diverted 14877
▁excise 14871
jected 14870
▁genes 14864
▁Brexit 14863
▁disciplines 14863
▁marketplace 14863
▁unn 14861
▁Misra 14860
▁regulator 14858
pay 14856
▁promotions 14853
▁socially 14851
▁Ramana 14850
▁Afridi 14849
▁Traditional 14848
▁thr 14846
HP 14843
▁Antonio 14840
▁mist 14839
▁quota 14839
▁Mohali 14837
▁steal 14832
▁202 14829
missible 14825
overs 14825
с 14824
▁mutually 14823
▁organising 14822
▁tire 14822
▁commun 14820
olve 14819
rov 14815
▁rebel 14814
aira 14813
apers 14813
ework 14813
▁adjourned 14810
▁helpless 14810
▁AF 14807
▁Sank 14805
▁plates 14805
▁academy 14803
▁shield 14802
▁Tehran 14799
He 14795
▁lacking 14789
ogy 14787
▁Eng 14786
▁Present 14785
▁technically 14784
▁Permanent 14782
rana 14776
▁adv 14776
▁chase 14775
▁saffron 14769
▁Democrats 14767
▁chop 14767
Com 14766
amine 14766
▁rejects 14766
▁Masood 14765
▁verse 14765
▁captaincy 14763
awat 14762
▁draws 14760
isers 14759
astics 14758
py 14756
▁Spring 14751
▁Nutrition 14750
bles 14748
▁Madurai 14748
▁banana 14748
Ind 14744
▁Gaza 14744
▁struggled 14741
▁ABC 14739
metics 14738
▁fortune 14738
▁similarities 14738
▁visitor 14731
elect 14727
▁phrases 14727
▁Xbox 14725
▁Rohingya 14724
▁Secondly 14721
▁statutory 14720
▁Entry 14719
▁0.0 14718
ocy 14717
▁commemorate 14713
▁Ohio 14711
▁Considering 14708
▁Mig 14707
▁emotionally 14707
▁BJD 14706
▁pul 14705
▁Institutes 14704
acing 14701
▁Dise 14700
▁aiming 14700
▁vac 14700
icted 14698
umbled 14698
▁backdrop 14696
ouch 14695
▁contracted 14695
▁holistic 14694
▁aperture 14690
▁Diploma 14684
win 14681
▁elementary 14681
burg 14680
▁Manik 14680
▁inducted 14678
▁consultant 14677
▁migration 14673
▁Guest 14671
▁handy 14671
▁Flood 14670
▁PPP 14669
▁exemption 14669
wn 14668
▁expressions 14668
▁exterior 14667
▁Thrissur 14664
▁synthetic 14664
card 14662
iam 14662
▁appointments 14659
▁Koch 14654
▁vicinity 14654
apping 14653
▁Driver 14651
▁6.5 14650
aditya 14648
▁perpet 14648
▁1900 14647
akrishna 14639
▁Throughout 14639
р 14636
▁supplying 14633
▁vig 14633
▁imper 14632
claim 14628
▁ups 14628
▁biography 14627
▁optimistic 14627
▁Municipality 14626
▁foremost 14622
▁Nathan 14619
▁ignorance 14618
▁pressing 14617
▁remainder 14617
nik 14616
▁Monitor 14613
▁MBBS 14611
▁Geneva 14609
CoV 14608
▁Peru 14608
asion 14607
▁disappoint 14606
▁beneath 14603
▁dash 14601
▁historian 14599
▁Shub 14597
▁4000 14595
yard 14593
iotics 14592
rams 14591
umn 14591
▁Kang 14591
▁proceeding 14587
NL 14585
▁climbing 14585
▁pursued 14585
▁Chawla 14584
▁Megh 14584
enery 14583
▁subtle 14581
▁origins 14580
▁encountered 14579
ashtra 14576
▁accountability 14576
▁Bib 14572
▁vocal 14571
▁chromos 14570
▁fits 14570
▁cluster 14567
▁submerged 14567
taining 14564
aser 14560
▁Ryan 14560
-21 14557
vest 14557
marks 14556
▁indicating 14553
ussions 14548
▁advances 14544
pura 14541
inned 14540
▁INS 14540
▁prog 14540
▁135 14534
▁honours 14531
▁journals 14529
▁Padm 14527
▁Sn 14527
▁elite 14527
▁combinations 14526
wo 14525
▁aboard 14525
▁containment 14522
▁fertility 14518
▁Machine 14517
▁theoretical 14517
▁carriers 14511
▁earmarked 14509
fitting 14508
▁Mauritius 14508
SI 14507
atin 14503
hari 14503
▁Core 14503
▁dirt 14503
▁masters 14502
▁Pall 14500
▁Inside 14497
▁constitutes 14497
▁Tro 14495
▁dental 14493
▁predominantly 14491
▁Salim 14490
▁rifle 14487
▁ample 14485
▁exhibitions 14485
▁Muj 14483
icians 14480
▁Gad 14480
▁PA 14474
▁dire 14474
▁Laboratory 14473
national 14472
▁twist 14471
▁q 14470
▁Radhika 14468
▁hostel 14468
.75 14465
▁ign 14465
▁perpetrators 14463
azar 14453
ended 14452
▁Snow 14451
generation 14446
etermin 14445
▁singers 14443
ocate 14441
▁currencies 14439
▁waist 14439
▁TCS 14438
rehens 14436
▁submitting 14432
▁CDC 14429
▁IOC 14429
▁tops 14429
▁recreation 14428
eda 14426
▁commodity 14424
▁transfers 14423
▁lamb 14418
indra 14417
▁ethical 14416
▁alternate 14415
▁malls 14415
fulness 14414
▁TR 14412
▁Cars 14410
▁UC 14410
▁Rah 14407
.15 14406
pected 14403
▁woods 14401
▁Utt 14398
ictions 14394
▁Poly 14389
elections 14388
arts 14384
▁Belarus 14382
uds 14380
▁Cape 14378
▁essays 14378
▁sli 14375
▁grocery 14374
▁greet 14373
▁KK 14368
imeter 14363
▁conform 14363
▁mentioning 14357
UN 14354
▁guides 14353
mers 14352
dish 14350
▁disruption 14347
aine 14346
▁enthusiastic 14345
▁advancement 14344
▁colony 14343
▁Marx 14340
▁coordinate 14332
▁slain 14332
▁feasible 14331
▁flags 14329
▁Minor 14327
▁boxing 14327
▁levied 14327
▁RTI 14326
▁modeling 14326
▁Kind 14325
▁Et 14319
▁therapeutic 14318
▁unfold 14318
SRTC 14316
▁scandal 14314
▁Bright 14312
▁Russians 14311
▁eleven 14310
▁cum 14309
▁WE 14308
▁theaters 14308
itted 14306
▁marking 14306
▁handful 14304
▁str 14303
43 14298
▁Hor 14298
▁oblig 14298
▁230 14297
▁Ganesha 14296
▁sel 14296
▁Priya 14295
▁mock 14295
▁loyalty 14294
▁Sug 14291
▁Pixel 14285
▁manages 14284
▁debates 14282
▁reck 14280
▁displaced 14279
▁prin 14279
oqu 14278
rient 14278
▁aging 14276
▁tang 14276
▁Dav 14274
ulous 14271
ω 14270
▁Pvt 14269
▁decl 14268
Â 14264
▁letting 14263
heads 14260
▁traits 14260
▁wardrobe 14260
pling 14259
▁dread 14259
▁athe 14257
▁interacting 14255
▁drawings 14253
▁Badminton 14252
▁fuels 14252
▁taxpayers 14251
more 14250
ā 14250
going 14247
serv 14247
▁prompted 14246
▁graduating 14244
▁Root 14242
▁phenomena 14240
ead 14234
▁grandson 14234
ointed 14231
eg 14226
▁reopen 14223
▁erad 14219
chal 14216
▁Cent 14215
▁portrait 14213
▁Imple 14211
▁Chamber 14210
▁Kumari 14210
▁burns 14209
▁Guinness 14202
▁charm 14197
▁Shekhar 14196
▁modest 14196
▁Paper 14195
▁Kid 14185
▁administer 14184
▁tariffs 14183
▁eval 14179
▁Amrit 14178
▁Haven 14178
▁breakthrough 14178
show 14176
▁Inj 14172
▁broader 14171
▁reviewing 14171
quest 14170
reen 14169
▁recommends 14166
▁saints 14164
▁turnover 14157
▁encouragement 14153
▁wrestling 14153
ensed 14150
▁Admiral 14147
▁lag 14147
▁admissions 14142
real 14141
▁Employ 14141
▁Panama 14141
▁Yamuna 14140
.11 14139
▁analysts 14136
▁1-2 14134
alth 14133
▁risky 14132
-25 14131
heres 14131
▁notifications 14130
written 14129
▁Cert 14129
▁Shams 14129
▁candid 14129
▁spell 14129
▁viable 14129
▁Sund 14128
▁Gavaskar 14127
▁Chair 14126
kha 14119
▁Mahajan 14116
▁addiction 14116
▁populated 14116
abled 14115
▁1944 14115
▁trap 14115
idal 14114
▁obsc 14112
▁offerings 14112
lect 14109
▁quant 14107
▁ritual 14107
▁32- 14105
▁Dhanush 14104
▁contractor 14103
▁illum 14102
ental 14098
▁Attack 14097
▁Den 14097
▁sugarcane 14095
agen 14091
▁CID 14091
bor 14088
▁patch 14085
▁penalties 14083
▁unaware 14081
▁accompl 14079
▁farms 14074
▁18- 14070
▁2017-18 14068
jah 14064
▁Intel 14064
▁Dig 14061
▁dances 14061
▁Performance 14060
▁squee 14059
▁Lov 14058
▁diamond 14054
▁qual 14053
▁Fa 14048
san 14046
▁sweat 14042
▁Commissioners 14037
▁casual 14035
▁disturbing 14035
▁Sush 14032
▁Ni 14031
▁treasure 14031
▁Manufact 14030
▁pumps 14030
ensation 14027
▁aired 14026
▁triumph 14026
▁postal 14023
▁texture 14023
▁calculations 14022
▁Malaysian 14018
▁Dial 14017
▁integrate 14017
85 14009
▁Sod 14007
▁charts 14007
് 14001
▁Merkel 13999
income 13998
▁hazardous 13997
self 13996
▁pupils 13994
▁diagnostic 13993
▁Kate 13992
iolet 13990
▁Rice 13990
▁Russell 13990
▁furious 13988
▁panchayats 13987
▁sympathy 13987
▁Janm 13985
ength 13984
▁Referring 13984
▁unin 13984
▁pneumonia 13980
▁Chi 13976
▁ore 13976
works 13975
▁coupled 13975
urd 13973
quisite 13970
▁minim 13970
▁circulating 13966
▁nan 13965
▁varying 13964
▁Naresh 13960
▁proclaimed 13956
▁plasma 13954
mic 13953
SR 13950
▁struggles 13949
▁woke 13949
▁wrestler 13949
▁bik 13947
▁Enc 13945
▁carpet 13942
▁Nal 13941
▁pledge 13941
▁refuted 13941
abs 13940
▁Tollywood 13940
▁Sr 13938
▁revoked 13937
fficiency 13935
olds 13932
▁Mulayam 13931
▁Whereas 13931
urer 13929
▁DB 13928
▁lawsuit 13928
inister 13926
▁airplane 13925
▁Morocco 13920
▁Qual 13920
mel 13916
▁rig 13915
á 13914
ifically 13908
▁109 13908
▁Hear 13908
wards 13906
▁repaired 13905
▁Billion 13904
idhi 13903
▁Areas 13902
▁cit 13902
cap 13900
▁perce 13899
▁spacecraft 13899
ी 13897
▁defending 13895
▁repet 13894
▁1919 13893
▁victorious 13892
▁2,500 13890
▁Amethi 13890
▁countless 13887
▁anal 13885
▁licenses 13885
▁infer 13884
▁strip 13884
▁purs 13883
sat_Olck 13881
▁minimize 13879
▁Serbia 13873
▁Turk 13872
▁thigh 13871
race 13869
▁rider 13869
▁static 13869
▁nurt 13863
▁reproductive 13863
yer 13860
▁naked 13859
▁DK 13858
urate 13857
▁footballer 13856
▁numer 13855
▁McC 13854
▁Nepali 13854
▁filmed 13852
▁trek 13851
▁et 13850
▁directorial 13849
▁technicians 13849
▁2.1 13848
▁Lalit 13848
▁smiles 13848
▁consisted 13846
▁statistical 13845
umbai 13843
▁OF 13843
esha 13842
▁Shan 13841
▁amp 13840
▁debated 13840
▁drones 13839
▁64- 13838
▁aids 13838
▁118 13835
▁Ron 13833
▁Cat 13830
▁Bear 13829
bu 13828
▁Cam 13826
▁Pramod 13824
▁Fig 13822
UL 13820
▁groom 13818
aud 13817
uster 13815
oter 13814
atti 13813
▁slaughter 13811
▁dispers 13809
▁Visakhapatnam 13808
▁surveys 13808
▁hon 13807
▁forefront 13804
▁Nan 13802
▁Jimmy 13800
▁proceeds 13796
ecess 13789
▁DE 13786
▁Idea 13786
herry 13785
rade 13785
▁Saini 13784
▁bang 13783
▁var 13783
inf 13782
▁foundations 13782
▁adap 13781
▁hous 13780
▁oper 13780
▁warnings 13780
aping 13775
▁Pran 13775
▁swept 13774
▁gloves 13771
▁Colonel 13767
▁guitar 13766
▁mot 13766
acher 13765
▁waiver 13762
▁Improve 13760
▁spinner 13760
▁Khalid 13759
chief 13758
erson 13756
oriented 13752
▁SU 13752
▁invisible 13752
▁efficacy 13751
66 13750
▁Fernandez 13747
▁emphasised 13742
▁Kathmandu 13737
▁Luc 13737
ogi 13736
tees 13736
HI 13734
▁Squad 13734
▁sunset 13734
▁jud 13732
▁stamp 13731
▁Fac 13727
▁Bahujan 13724
amped 13723
▁inviting 13721
space 13719
▁gener 13719
▁adm 13718
▁Harm 13717
▁puzz 13717
▁legends 13712
▁frustration 13710
▁scattered 13709
▁objections 13708
▁console 13706
▁privat 13704
ivan 13701
umption 13699
▁Located 13699
▁metab 13699
▁saint 13695
▁govern 13693
akkad 13691
▁Uber 13690
ld 13689
▁encourages 13684
▁Venezuela 13683
iche 13681
▁Aurangabad 13681
▁guardian 13680
▁hood 13679
▁Loh 13675
communication 13673
▁Nit 13673
▁mourning 13673
▁Found 13671
▁Sibal 13670
▁Musharraf 13667
▁oceans 13667
▁Lionel 13665
ko 13664
▁NGOs 13663
▁blo 13663
▁gren 13662
▁shipped 13660
▁aug 13659
▁merchant 13654
▁Saw 13653
▁cycles 13652
▁legislator 13652
▁Mangaluru 13650
gars 13646
▁Vegas 13646
RD 13642
▁stipulated 13642
[...]
